{"vocab_size": 10000, "learned_tokens": 9801, "reserved_tokens": 199, "byte_to_unicode": {"0": "Ā", "1": "ā", "2": "Ă", "3": "ă", "4": "Ą", "5": "ą", "6": "Ć", "7": "ć", "8": "Ĉ", "9": "ĉ", "10": "Ċ", "11": "ċ", "12": "Č", "13": "č", "14": "Ď", "15": "ď", "16": "Đ", "17": "đ", "18": "Ē", "19": "ē", "20": "Ĕ", "21": "ĕ", "22": "Ė", "23": "ė", "24": "Ę", "25": "ę", "26": "Ě", "27": "ě", "28": "Ĝ", "29": "ĝ", "30": "Ğ", "31": "ğ", "32": "Ġ", "33": "!", "34": "\"", "35": "#", "36": "$", "37": "%", "38": "&", "39": "'", "40": "(", "41": ")", "42": "*", "43": "+", "44": ",", "45": "-", "46": ".", "47": "/", "48": "0", "49": "1", "50": "2", "51": "3", "52": "4", "53": "5", "54": "6", "55": "7", "56": "8", "57": "9", "58": ":", "59": ";", "60": "<", "61": "=", "62": ">", "63": "?", "64": "@", "65": "A", "66": "B", "67": "C", "68": "D", "69": "E", "70": "F", "71": "G", "72": "H", "73": "I", "74": "J", "75": "K", "76": "L", "77": "M", "78": "N", "79": "O", "80": "P", "81": "Q", "82": "R", "83": "S", "84": "T", "85": "U", "86": "V", "87": "W", "88": "X", "89": "Y", "90": "Z", "91": "[", "92": "\\", "93": "]", "94": "^", "95": "_", "96": "`", "97": "a", "98": "b", "99": "c", "100": "d", "101": "e", "102": "f", "103": "g", "104": "h", "105": "i", "106": "j", "107": "k", "108": "l", "109": "m", "110": "n", "111": "o", "112": "p", "113": "q", "114": "r", "115": "s", "116": "t", "117": "u", "118": "v", "119": "w", "120": "x", "121": "y", "122": "z", "123": "{", "124": "|", "125": "}", "126": "~", "127": "ġ", "128": "Ģ", "129": "ģ", "130": "Ĥ", "131": "ĥ", "132": "Ħ", "133": "ħ", "134": "Ĩ", "135": "ĩ", "136": "Ī", "137": "ī", "138": "Ĭ", "139": "ĭ", "140": "Į", "141": "į", "142": "İ", "143": "ı", "144": "Ĳ", "145": "ĳ", "146": "Ĵ", "147": "ĵ", "148": "Ķ", "149": "ķ", "150": "ĸ", "151": "Ĺ", "152": "ĺ", "153": "Ļ", "154": "ļ", "155": "Ľ", "156": "ľ", "157": "Ŀ", "158": "ŀ", "159": "Ł", "160": "ł", "161": "¡", "162": "¢", "163": "£", "164": "¤", "165": "¥", "166": "¦", "167": "§", "168": "¨", "169": "©", "170": "ª", "171": "«", "172": "¬", "173": "Ń", "174": "®", "175": "¯", "176": "°", "177": "±", "178": "²", "179": "³", "180": "´", "181": "µ", "182": "¶", "183": "·", "184": "¸", "185": "¹", "186": "º", "187": "»", "188": "¼", "189": "½", "190": "¾", "191": "¿", "192": "À", "193": "Á", "194": "Â", "195": "Ã", "196": "Ä", "197": "Å", "198": "Æ", "199": "Ç", "200": "È", "201": "É", "202": "Ê", "203": "Ë", "204": "Ì", "205": "Í", "206": "Î", "207": "Ï", "208": "Ð", "209": "Ñ", "210": "Ò", "211": "Ó", "212": "Ô", "213": "Õ", "214": "Ö", "215": "×", "216": "Ø", "217": "Ù", "218": "Ú", "219": "Û", "220": "Ü", "221": "Ý", "222": "Þ", "223": "ß", "224": "à", "225": "á", "226": "â", "227": "ã", "228": "ä", "229": "å", "230": "æ", "231": "ç", "232": "è", "233": "é", "234": "ê", "235": "ë", "236": "ì", "237": "í", "238": "î", "239": "ï", "240": "ð", "241": "ñ", "242": "ò", "243": "ó", "244": "ô", "245": "õ", "246": "ö", "247": "÷", "248": "ø", "249": "ù", "250": "ú", "251": "û", "252": "ü", "253": "ý", "254": "þ", "255": "ÿ"}, "vocab": ["Ā", "ā", "Ă", "ă", "Ą", "ą", "Ć", "ć", "Ĉ", "ĉ", "Ċ", "ċ", "Č", "č", "Ď", "ď", "Đ", "đ", "Ē", "ē", "Ĕ", "ĕ", "Ė", "ė", "Ę", "ę", "Ě", "ě", "Ĝ", "ĝ", "Ğ", "ğ", "Ġ", "!", "\"", "#", "$", "%", "&", "'", "(", ")", "*", "+", ",", "-", ".", "/", "0", "1", "2", "3", "4", "5", "6", "7", "8", "9", ":", ";", "<", "=", ">", "?", "@", "A", "B", "C", "D", "E", "F", "G", "H", "I", "J", "K", "L", "M", "N", "O", "P", "Q", "R", "S", "T", "U", "V", "W", "X", "Y", "Z", "[", "\\", "]", "^", "_", "`", "a", "b", "c", "d", "e", "f", "g", "h", "i", "j", "k", "l", "m", "n", "o", "p", "q", "r", "s", "t", "u", "v", "w", "x", "y", "z", "{", "|", "}", "~", "ġ", "Ģ", "ģ", "Ĥ", "ĥ", "Ħ", "ħ", "Ĩ", "ĩ", "Ī", "ī", "Ĭ", "ĭ", "Į", "į", "İ", "ı", "Ĳ", "ĳ", "Ĵ", "ĵ", "Ķ", "ķ", "ĸ", "Ĺ", "ĺ", "Ļ", "ļ", "Ľ", "ľ", "Ŀ", "ŀ", "Ł", "ł", "¡", "¢", "£", "¤", "¥", "¦", "§", "¨", "©", "ª", "«", "¬", "Ń", "®", "¯", "°", "±", "²", "³", "´", "µ", "¶", "·", "¸", "¹", "º", "»", "¼", "½", "¾", "¿", "À", "Á", "Â", "Ã", "Ä", "Å", "Æ", "Ç", "È", "É", "Ê", "Ë", "Ì", "Í", "Î", "Ï", "Ð", "Ñ", "Ò", "Ó", "Ô", "Õ", "Ö", "×", "Ø", "Ù", "Ú", "Û", "Ü", "Ý", "Þ", "ß", "à", "á", "â", "ã", "ä", "å", "æ", "ç", "è", "é", "ê", "ë", "ì", "í", "î", "ï", "ð", "ñ", "ò", "ó", "ô", "õ", "ö", "÷", "ø", "ù", "ú", "û", "ü", "ý", "þ", "ÿ", "th", "an", "in", "the", "Ġthe", "re", "on", "er", "st", "ed", "Ġan", "Ġa", "en", "Ġo", "ĠI", "Ġin", "al", "nd", "Ġand", "it", "at", "Ġof", "is", "ĠInd", "Ġs", "Ġw", "ing", "or", "ar", "ic", "Ġc", "ion", "Ġb", "Ġp", "Ġt", "Ġf", "ia", "ou", "Ġm", "om", "Ġe", "Ġh", "ĠB", "as", "Ġl", "ly", "ĠIndia", "Ġn", "Ġre", "es", "ent", "ĠA", "Ġto", "iv", "Ġd", "Ġr", "ur", "ist", "00", "ĠS", "ce", "ol", "ian", "ec", "ul", "il", "ig", "ad", "ĠT", "ĠC", "am", "ĠTh", "ation", "id", "ĠM", "ĠE", "est", "im", "od", "Ġth", "ĠThe", "us", "Ġg", "le", "ang", "ts", "Ġar", "Ġfor", "ism", "Ġis", "op", "Ġit", "ac", "ast", "ĠP", "rom", "et", "rit", "os", "mp", "ally", "outh", "Ġby", "oc", "Ġon", "ern", "iver", "ĠH", "av", "ere", "ire", "ure", "ĠAs", "Ġ1", "em", "ith", "if", "ag", "ther", "ub", "a,", "Ġits", "Ġwith", "Ġnor", "um", "Ġfrom", "ir", "s,", "ĠBC", "ĠBCE", "du", "ĠD", "ain", "mpire", "y.", "ĠIndian", "ha", "ut", "ans", "con", "Ġint", "ill", "ud", "Ġor", "ĠG", "Ġwas", "ow", "and", "ak", "Ġreg", "Ġhad", "ted", "s.", "ical", "ĠEmpire", "ish", "Ġst", "ame", "el", "Ġex", "ult", "Ġpl", "Ġwh", "Ġ(", "ence", "istan", "ter", "Ġregion", "igh", "Ġinto", "Ġlang", "Ġlangu", "Ġlanguag", "e,", "ĠHin", "ĠHindu", "thern", "ich", "Ġv", "ĠIndia,", "ĠSouth", "ĠAsia", "ĠCh", "ĠIn", "ri", "up", "Ġas", "un", "Ġhas", "Ġem", "oci", "Ġcon", "ity", "Ġbec", "gh", "ot", "==", "Äģ", "ry", "ev", "Ġmo", "ay", "ord", "Ġwest", "Ġne", "000", "Ġag", "Ġemer", "Ġemerg", "ĠIndus", "Ġriver", "Ġgr", "ĠSans", "ĠSansk", "ĠSanskrit", "Ġwere", "Ġnorthern", "Ġpr", "Ġsoci", "Ġbecame", "ies", "omp", "Ġcent", "uc", "ary", "een", "Ġwhich", "ld", "ince", "Ġsouth", "ab", "ers", "ĠPak", "ĠPakistan", "odern", "Ġsub", "ars", "ong", "red", "ett", "Ġmill", "enn", "enni", "ennium", "ĠBy", "ĠIndo", "used", "ĠIndia'", "ism,", "ĠBud", "ĠBudd", "ury", "reat", "Ġk", "Ġrel", "Ġ2", "etw", "Ġecon", "Ġeconom", "ive", "ok", "Ġpar", "Ġinc", "Ġ==", "ens", "ĠR", "ep", "oun", "arg", "ous", "Ġsince", "end", "Ġ19", "ound", "ĠN", "Ġnorth", "Ġeast", "Ġhum", "Ġsubcon", "Ġsubcont", "Ġsubcontin", "Ġsubcontinent", "Ġy", "Ġye", "Ġyears", "Ġago", "cc", "omin", "ivers", "Ġlif", "Ġemerged", "Ġwestern", "Ġbas", "ĠV", "Ġmillennium", "Ġarc", "ĠMa", "uring", "Ġcreat", "t,", "ect", "ised", "ef", "Ġexp", "Ġrelig", "ulture", "ate", "Ġtw", "Ġtwo", "eg", "Ġrul", "ĠBrit", "ĠBritish", "Ġch", "Ġmodern", "0,", "aj", "ajor", "ied", "ough", "Ġsy", "Ġsyst", "Ġsystem", "ap", "ome", "Ġmid", "Ġthat", "Ġref", "istor", "ubl", "ublic", "ĠIt", "Ġmost", "Ġpop", "Ġpopul", "ĠO", "res", "ĠBh", "ĠAf", "ric", "Ġlat", "Ġlater", "Ġ5", "Ġhigh", "led", "Ġlife", "olv", "ually", "alle", "ĠBCE,", "Ġform", "ean", "Ġear", "ĠIndia.", "ĠDr", "ĠDrav", "ĠDravid", "ĠDravidian", "Ġlanguages", "pl", "Ġ4", "ĠBuddh", "ĠJ", "Ġsocial", "Ġun", "Ġris", "ose", "Ġthis", "our", "Ġking", "Ġsc", "rip", "Ġculture", "ver", "Ġplain", "ks", "Ġcomp", "Ġreligion", "Ġpe", "Ġrule", "Ġbut", "og", "anges", "ement", "Ġnon", "Ġpart", "oss", "rat", "ment", "istic", "ual", "las", "tion", "Ġhistor", "ree", "nc", "ically", "Ġext", "Ġvar", "etween", "eri", "lud", "Ġanim", "Ġanimal", "âĢ", "Ġad", "á¹", "Ġeth", "Ġcoun", "Ġcount", "Ġcountry", "Ġare", "Ġwor", "west", "Ġsou", "Ġbord", "ĠChin", "ĠIts", "ĠIs", "ĠIsl", "ĠAfric", "ĠAfrica", "Ġago.", "Ġlong", "Ġocc", "ation,", "athe", "ade", "Ġdivers", "ins", "Ġbasin", "Ġev", "adually", "alley", "ĠSanskrit,", "Eur", "Europ", "European", "Ġdif", "Ġdiff", "ym", "ning", "ĠHinduism", "Ġsup", "anted", "Ġ400", "ĠBuddhism", "ĠJain", "lin", "Ġhere", "ity.", "Ġpol", "Ġcons", "Ġrise", "Ġlo", "Ġloose", "ĠMaury", "ĠMaurya", "ĠGup", "ĠGupt", "ĠDuring", "Ġfl", "Ġart,", "Ġarch", "Ġarchit", "Ġarchitect", "ure,", "ed,", "cha", "dle", "Ġkingd", "Ġkingdom", "Ġlanguage", "Ġscrip", "lish", "Ġco", "Ġover", "Ġres", "rew", "Ġcompos", "ution", "Ġcentur", "ative", "ace", "Ġeconomy", "ov", "own", "Ġbeg", "ights", "ly,", "olog", "oduc", "Ġed", "Ġmov", "Ġmovement", "vi", "viol", "ition", "Ġdomin", "Ġdominion", "ced", "Ġ3", "Ġtim", "Ġincre", "Ġincreas", "ĠU", "Ġlit", "Ġliter", "Ġmajor", "Ġat", "eq", "ĠK", "olved", "econ", "all", "ild", "Ġtr", "ew", "Ġim", "lass", "lassical", "a.", "ell", "ĠGree", "ĠAnc", "ĠAnci", "ĠAncient", "),", "Ġsp", "Ġextens", "Ġpeop", "Ġpeople", "ĠBhar", "ĠBharat", "hÄģ", "oth", "pic", "Ġused", "Ġname", "Ġcentury", "day", "Ġbetween", "Ġhuman", "luding", "Ġcit", "Ġcities", "Ġur", "Ġurb", "Ġurban", "Ary", "Aryan", "Ġsett", "ĠGanges", "ower", "ĠAsh", "ĠAshok", "ĠAshoka", "Ġal", "as,", "Ind", "India", "ially", "ĠAsia.", "Ġpopulous", "Ġworld", "Ġind", "Ġindep", "Ġindepend", "Ġ194", "Ġ1947", "Ġ1947,", "Ġdem", "Ġdemoc", "rac", "ĠOce", "ĠOcean", "eng", "theast", "Ġsha", "Ġland", "Ġborders", "ĠChina,", "ĠMy", "ĠMyan", "ĠMyanm", "ĠMyanmar", "Ġnear", "ĠL", "div", "es.", "ands", "Ġhumans", "riv", "Ġthan", "Ġ55", "Ġ55,", "ĠTheir", "Ġoccup", "Ġoccupation,", "ant", "Ġisol", "Ġisolation", "Ġhun", "Ġhunter", "gathe", "gathere", "gatherer", "gatherers,", "Ġmade", "Ġhighly", "ettled", "Ġmarg", "Ġmargins", "Ġago,", "Ġgradually", "ĠValley", "ĠCiv", "ĠCivil", "ĠCivilis", "ĠBCE.", "Ġ12", "Ġ1200", "Ġarcha", "Ġarchaic", "Ġlanguage,", "Ġdiffused", "Ġnorthwest", "Ġnorthwest.", "ns", "Ġrec", "Ġrecord", "Ġrecorded", "Ġearly", "nings", "Ġpre", "ex", "isting", "Ġsuppl", "Ġsupplanted", "Ġregions.", "Ġcast", "ĠJainism", "Ġaris", "Ġarisen", "Ġhered", "ĠEar", "ĠEarly", "Ġconsol", "Ġconsolid", "ations", "ave", "kn", "knit", "ĠGupta", "Ġer", "Ġthere", "Ġflour", "Ġflourish", "Ġcreativ", "Ġcreativity", "Ġarchitecture,", "Ġwrit", "Ġstat", "Ġwom", "Ġwomen", "Ġdec", "Ġdeclin", "eli", "ĠMid", "ĠMiddle", "Ġkingdoms", "orted", "Ġcultures", "ĠIslam", "ĠChr", "ity,", "Ġsouthern", "ĠMus", "ĠMusl", "ĠMuslim", "ĠCent", "ral", "erm", "ently", "hi", "ultan", "etwor", "etworks", "edi", "anag", "Ġcreated", "ite", "ĠPun", "ĠPunj", "ĠPunjab", "ik", "stit", "stitution", "ĠMu", "ĠMugh", "ĠMughal", "Ġcenturies", "Ġeconomic", "ural", "Ġexpand", "Ġexpanding", "ompan", "ated", "nt", "Ġbegan", "Ġrights", "Ġprom", "low", "Ġtec", "Ġtech", "Ġtechn", "Ġtechnolog", "roduc", "ide", "Ġpublic", "Ġtook", "Ġnation", "Ġnational", "Ġnationalist", "Ġfir", "Ġfirst", "Ġinf", "Ġaf", "Ġafter", "Ġfac", "Ġpartition", "major", "majority", "Ġlarg", "Ġlarge", "sc", "Ġloss", "Ġmig", "ration", "Ġbeen", "Ġ195", "Ġthr", "Ġthrough", "Ġmult", "Ġgrew", "23", "Ġincreased", "ĠUS", "Ġ7", "Ġhub", "Ġpo", "Ġthough", "Ġineq", "Ġinequal", "itary", "hm", "ion,", "ots", "Ġwild", "Ġtrad", "ewed", "ected", "tym", "ĠEn", "ĠEng", "ĠEnglish", "Ġ\"", "Ġimm", "ĠClassical", "ined", "Ġhistorical", "hing", "ĠF", "ĠGreek", "Ġ(á", "Ġ(á¼", "Ġ(á¼¸", "Ġ(á¼¸Î", "Ġ(á¼¸Î½", "Ġ(á¼¸Î½Î", "Ġ(á¼¸Î½Î´", ");", "ĠAcha", "ĠAchaem", "ĠAchaemen", "ĠPers", "ĠPersian", "Ġeastern", "dh", "Ġrefer", "ians", "hÄģrat", "ËĪ", "aË", "aËĲ", "Ġboth", "Ġepic", "nder", "19", "ĠHindust", "ĠHindustan", "Ġcentury,", "ĠEmpire.", "Ġen", "Ġ===", "och", "Ġdat", "Ġearl", "Ġearli", "Ġearliest", "ages", "Ġsecon", "Ġsecond", "owev", "owever", "owever,", "Ġab", "out", "idence", "Ġperi", "Ġperiod", "Ġplan", "Ġ(in", "Ġ(inc", "Ġ(including", "Ġanimals", "Ġduring", "500", "âĢĵ", "Ġaround", "jo", "avir", "Ġchar", "Ġcharac", "Ġcharacter", "Ġcharacteristic", "eat", "ures", "Ġstand", "Ġstandar", "Ġstandard", "Ġstandardised", "eal", "ra", "es,", "Ġnew", "ro", "Ġtoday", "Ġfound", "âĢĶ", "Ġass", "Ġwhat", "Ġcomposed", "eak", "eaking", "ling", "Ġplace", "ore", "orest", "iron", "lement", "Ġmain", "Ġsome", "Ġsouth.", "amm", "ould", "ified", "Äģy", "á¹ĩ", "ĠCE", "ĠCE,", "Ġcont", "Ġvarn", "Ġethical", "Ġbased", "ĠBuddha", "Ġreligions", "violence", "Ġcondu", "Ġconduc", "ix", "Ġextensive", "Ġpower", "Ġempire", "Ġhis", "Ġadop", "Ġedic", "Ġedicts", "elf", "Ġren", "Ġdev", "Ġdevot", "Ġliterat", "Ġ200", "Ġalong", "ĠPall", "ĠPallav", "Ġpartic", "Ġparticul", "Ġparticular", "India,", "Ġoff", "Ġoffic", "Ġofficially", "ĠRep", "ĠRepublic", "Ġsev", "Ġseven", "Ġseventh", "larg", "largest", "Ġarea,", "Ġand,", "Ġindependence", "Ġworld'", "Ġdemocrac", "Ġdemocracy.", "ĠBound", "ĠBounded", "Ġsouth,", "ĠAr", "ĠArab", "ĠArabian", "ĠSe", "ĠSea", "Ġsouthwest", "Ġsouthwest,", "ĠBay", "ĠBeng", "ĠBengal", "Ġsoutheast", "Ġsoutheast,", "Ġshares", "Ġwest;", "ĠNep", "ĠNepal", "ĠBhut", "ĠBhutan", "Ġnorth;", "ĠBang", "ĠBangl", "ĠBanglad", "ĠBanglades", "ĠBangladesh", "Ġeast.", "ĠOcean,", "ĠSri", "ĠLan", "ĠLank", "ĠLanka", "ĠMal", "ĠMaldiv", "ĠMaldives.", "ĠAnd", "ĠAndam", "ĠAndaman", "ĠNic", "ĠNico", "ĠNicob", "ĠNicobar", "ĠIslands", "Ġshare", "Ġmar", "Ġmarit", "Ġmaritim", "Ġmaritime", "Ġborder", "ĠMyanmar,", "ĠTha", "ĠThail", "ĠThailand", "ĠIndon", "ĠIndones", "ĠIndonesia", "ĠIndonesia.", "ĠModern", "Ġarriv", "Ġarrived", "Ġno", "Ġpred", "Ġpredomin", "Ġpredominant", "Ġpredominantly", "Ġdiverse", "Ġdiverse.", "ĠSettled", "Ġ9", "Ġ9,", "Ġevolv", "Ġevolving", "ĠCivilisation", "Ġthir", "Ġthird", "Ġhym", "Ġhymns", "Ġda", "Ġdaw", "Ġdawnings", "existing", "Ġcaste", "Ġwithin", "ĠHinduism,", "Ġarisen,", "Ġproc", "Ġprocl", "Ġprocla", "Ġproclaim", "Ġproclaiming", "Ġord", "Ġorders", "Ġunlin", "Ġunlink", "Ġunlinked", "Ġheredity.", "Ġpolit", "Ġpolitical", "Ġconsolidations", "Ġgave", "ĠEmpires.", "Ġera,", "Ġflourishing", "Ġwriting", "Ġwriting,", "Ġstatus", "Ġdeclined,", "Ġunt", "Ġuntou", "Ġuntoucha", "Ġuntouchab", "Ġuntouchabil", "Ġuntouchability", "Ġorg", "Ġorgan", "Ġorganised", "Ġbeli", "Ġbelief", "Ġbelief.", "Ġexported", "Ġscripts", "Ġreligi", "Ġreligious", "ĠSou", "ĠSoutheast", "ĠIslam,", "ĠChrist", "ĠChristian", "ĠChristianity,", "ĠJud", "ĠJuda", "ĠJudaism,", "ĠZ", "ĠZor", "ĠZoro", "ĠZoroast", "ĠZoroastr", "ĠZoroastrian", "ĠZoroastrianism", "Ġest", "Ġestab", "Ġestablish", "Ġestablished", "Ġcoast", "Ġcoasts.", "Ġarm", "Ġarmies", "ĠCentral", "Ġinterm", "Ġintermit", "Ġintermitt", "Ġintermittently", "Ġoverr", "Ġoverran", "Ġplains.", "Ġresult", "Ġresulting", "ĠDel", "ĠDelhi", "ĠSultan", "ĠSultanate", "Ġdrew", "Ġcos", "Ġcosm", "Ġcosmop", "Ġcosmopol", "Ġcosmopolit", "Ġcosmopolitan", "Ġnetworks", "Ġmedi", "Ġmediev", "Ġmedieval", "ĠIslam.", "ĠVi", "ĠVij", "ĠVijay", "ĠVijayanag", "ĠVijayanagar", "ĠVijayanagara", "last", "lasting", "Ġcomposite", "Ġculture.", "ĠPunjab,", "ĠSik", "ĠSikh", "ĠSikhism", "Ġemerged,", "Ġrej", "Ġreject", "Ġrejecting", "Ġinstitution", "Ġinstitutional", "Ġinstitutionalised", "Ġreligion.", "Ġus", "Ġush", "Ġushere", "Ġushered", "Ġexpans", "Ġexpansion", "Ġrelative", "Ġpeace", "Ġpeace,", "Ġlef", "Ġleft", "Ġrich", "Ġarchitectural", "Ġleg", "Ġlegac", "Ġlegacy.", "ĠGr", "ĠGradually", "ĠEast", "ĠCompan", "ĠCompany", "Ġtur", "Ġturn", "Ġturned", "Ġcol", "Ġcolon", "Ġcoloni", "Ġcolonial", "Ġconsolidated", "Ġsov", "Ġsovere", "Ġsovereig", "Ġsovereignt", "Ġsovereignty.", "ĠCr", "ĠCrown", "Ġ18", "Ġ185", "Ġ1858", "Ġ1858.", "Ġpromised", "ĠIndians", "Ġgranted", "Ġslow", "Ġslowly,", "Ġtechnological", "Ġchanges", "Ġintroduc", "Ġintroduced,", "Ġide", "Ġideas", "Ġeduc", "Ġeducation", "Ġro", "Ġroot", "Ġroot.", "Ġinfl", "Ġinflu", "Ġinfluence", "Ġother", "Ġmovements.", "ĠNo", "ĠNoted", "Ġnonviol", "Ġnonviolent", "Ġresistan", "Ġresistance", "Ġ192", "Ġ1920,", "Ġprim", "Ġprimary", "Ġfact", "Ġfactor", "Ġend", "Ġending", "Ġrule.", "Ġpartitioned", "Ġindependent", "Ġdominions,", "ĠPakistan.", "scal", "scale", "Ġunp", "Ġunpre", "Ġunpreced", "Ġunprecedent", "Ġunprecedented", "Ġmigration", "Ġacc", "Ġaccompan", "Ġaccompanied", "Ġpartition.", "Ġfed", "Ġfeder", "Ġfederal", "Ġrep", "Ġrepublic", "Ġ1950,", "Ġgov", "Ġgovern", "Ġgoverned", "Ġdemocrat", "Ġdemocratic", "Ġparl", "Ġparlia", "Ġparliament", "Ġparliamentary", "Ġsystem.", "Ġplural", "Ġpluralistic", "Ġpluralistic,", "Ġmultil", "Ġmultiling", "Ġmultilingual", "Ġmulti", "eth", "ethn", "ethnic", "Ġsociet", "Ġsociety.", "Ġpopulation", "Ġ36", "Ġ361", "Ġmillion", "Ġ1951", "Ġ1.", "Ġbill", "Ġbillion", "Ġ20", "Ġ2023", "Ġ2023.", "Ġtime,", "Ġnomin", "Ġnominal", "Ġper", "Ġcap", "Ġcapit", "Ġcapita", "Ġincome", "64", "Ġann", "Ġannually", "2,", "60", "601", "601,", "Ġliterac", "Ġliteracy", "Ġrate", "Ġ16", "Ġ16.", "6%", "Ġ74", "Ġ74%", "Ġ74%.", "Ġbecome", "Ġfast", "gr", "grow", "growing", "Ġinfor", "Ġinform", "Ġinformation", "Ġtechnology", "Ġtechnology,", "Ġmiddle", "Ġclas", "Ġclass.", "Ġredu", "Ġreduced", "Ġpover", "Ġpovert", "Ġpoverty", "Ġrat", "Ġrate,", "Ġcost", "Ġincreasing", "Ġinequality.", "Ġnuc", "Ġnucle", "Ġnuclear", "we", "weap", "weapon", "Ġstate", "Ġran", "Ġranks", "Ġmil", "Ġmilitary", "Ġexpend", "Ġexpendit", "Ġexpenditure", "Ġexpenditure.", "Ġdis", "Ġdisp", "Ġdisput", "Ġdisputes", "ĠKas", "ĠKashm", "ĠKashmir", "Ġneigh", "Ġneighb", "Ġneighbour", "Ġneighbours,", "Ġunres", "Ġunresolved", "20", "Ġcentury.", "ĠAm", "ĠAmong", "Ġsocio", "econom", "economic", "Ġchall", "Ġchalleng", "Ġchallenges", "Ġfaces", "Ġgend", "Ġgender", "Ġinequality,", "Ġchild", "Ġmal", "Ġmaln", "Ġmalnut", "Ġmalnutrit", "Ġmalnutrition,", "Ġrising", "Ġlev", "Ġlevel", "Ġlevels", "Ġair", "Ġpoll", "Ġpollution", "Ġpollution.", "Ġmeg", "Ġmegad", "Ġmegadivers", "Ġmegadiverse", "Ġfour", "Ġbi", "Ġbiod", "Ġbiodivers", "Ġbiodiversity", "Ġhots", "Ġhotsp", "Ġhotspots", "Ġhotspots.", "Ġwildl", "Ġwildlif", "Ġwildlife,", "Ġtradition", "Ġtraditionally", "Ġvi", "Ġviewed", "Ġtol", "Ġtoler", "Ġtoleran", "Ġtolerance", "Ġculture,", "Ġsupp", "Ġsupported", "Ġprot", "Ġprotected", "Ġhab", "Ġhabit", "Ġhabitat", "Ġhabitats.", "ĠEtym", "ĠEtymolog", "ĠEtymology", "ĠAcc", "ĠAccord", "ĠAccording", "ĠOx", "ĠOxf", "ĠOxford", "ĠDic", "ĠDiction", "ĠDictionary", "ĠDictionary,", "Ġprop", "Ġproper", "Ġnoun", "Ġ\"India", "Ġ\"India\"", "Ġder", "Ġderiv", "Ġderives", "Ġimmedi", "Ġimmediate", "Ġimmediately", "ĠLat", "ĠLatin", "Ġrefere", "Ġreferen", "Ġreference", "Ġloosely", "def", "defined", "Ġstre", "Ġstret", "Ġstretc", "Ġstretching", "ĠChina.", "ĠFur", "ĠFurther", "Ġetym", "Ġetymon", "Ġetymons", "Ġare:", "ĠHell", "ĠHellen", "ĠHellenistic", "Ġ(á¼¸Î½Î´Î", "Ġ(á¼¸Î½Î´Î¯", "Ġ(á¼¸Î½Î´Î¯Î", "Ġ(á¼¸Î½Î´Î¯Î±", "Ġ(á¼¸Î½Î´Î¯Î±);", "ĠIndos", "Ġ(á¼¸Î½Î´Ï", "Ġ(á¼¸Î½Î´ÏĮ", "Ġ(á¼¸Î½Î´ÏĮÏ", "Ġ(á¼¸Î½Î´ÏĮÏĤ", "Ġ(á¼¸Î½Î´ÏĮÏĤ),", "ĠRiver", "ĠIndus;", "ĠAchaemenian", "ĠOld", "Ġ(an", "Ġprov", "Ġprovince", "ĠAchaemenid", "ĠEmpire);", "ĠSin", "ĠSindh", "ĠSindhu", "ĠSindhu,", "Ġ\"r", "Ġ\"river", "Ġ\"river,", "Ġ\"river,\"", "Ġspec", "Ġspecif", "Ġspecifically", "Ġriver,", "Ġextension", "Ġwell", "settled", "Ġbasin.", "ĠGreeks", "Ġreferred", "ĠAsians", "ĠIndoi", "ĠIndoi,", "Ġ'", "Ġ'the", "ĠIndus'", "ĠIndus'.", "Ġterm", "Ġ(B", "Ġ(BhÄģrat", "Ġ(BhÄģrat;", "Ġpron", "Ġpronoun", "Ġpronounced", "Ġ[", "Ġ[ËĪ", "Ġ[ËĪb", "Ġ[ËĪbÊ", "Ġ[ËĪbÊ±", "Ġ[ËĪbÊ±aËĲ", "Ġ[ËĪbÊ±aËĲÉ", "Ġ[ËĪbÊ±aËĲÉ¾", "Ġ[ËĪbÊ±aËĲÉ¾É", "Ġ[ËĪbÊ±aËĲÉ¾ÉĻ", "Ġ[ËĪbÊ±aËĲÉ¾ÉĻt", "Ġ[ËĪbÊ±aËĲÉ¾ÉĻt]", "Ġ),", "Ġment", "Ġmention", "Ġmentioned", "Ġpoet", "Ġpoetry", "ĠCon", "ĠConstitution", "Ġvari", "Ġvariations", "Ġman", "Ġmany", "Ġlanguages.", "Ġrender", "Ġrendering", "ĠBharatav", "ĠBharatavars", "ĠBharatavarsh", "ĠBharatavarsha,", "Ġap", "Ġappl", "Ġapplied", "Ġorig", "Ġorigin", "Ġoriginally", "ĠNor", "ĠNorth", "Ġgain", "Ġgained", "Ġcur", "Ġcurre", "Ġcurrenc", "Ġcurrency", "Ġnative", "Ġ([", "Ġ([É", "Ġ([É¦", "Ġ([É¦É", "Ġ([É¦Éª", "Ġ([É¦Éªnd", "Ġ([É¦ÉªndÊ", "Ġ([É¦ÉªndÊĬ", "Ġ([É¦ÉªndÊĬËĪ", "Ġ([É¦ÉªndÊĬËĪst", "Ġ([É¦ÉªndÊĬËĪstaËĲ", "Ġ([É¦ÉªndÊĬËĪstaËĲn", "Ġ([É¦ÉªndÊĬËĪstaËĲn]", "Ġ)", "Ġpopular", "Ġ13", "Ġwide", "Ġwidely", "Ġera", "Ġmean", "Ġmeaning", "Ġvaried", "Ġvaried,", "Ġreferr", "Ġreferring", "Ġenc", "Ġencomp", "Ġencompas", "Ġencompass", "Ġencompassing", "Ġ(p", "Ġ(pres", "Ġ(present", "ĠPakistan)", "Ġent", "Ġentire", "Ġentiret", "Ġentirety.", "ĠHistor", "ĠHistory", "ĠBas", "ĠBased", "Ġcoal", "Ġcoales", "Ġcoalesc", "Ġcoalescence", "ĠMit", "ĠMitoch", "ĠMitochon", "ĠMitochond", "ĠMitochondri", "ĠMitochondrial", "ĠDN", "ĠDNA", "ĠY", "ĠChrom", "ĠChromos", "ĠChromosome", "Ġdata,", "Ġthought", "Ġextant", "Ġlin", "Ġline", "Ġlineages", "Ġanat", "Ġanatom", "Ġanatomically", "ĠHom", "ĠHomo", "Ġsap", "Ġsapi", "Ġsapiens", "Ġreac", "Ġreach", "Ġreached", "Ġ8", "Ġ80,", "Ġ50,", "Ġlik", "Ġlikeli", "Ġlikelih", "Ġlikeliho", "Ġlikelihood", "Ġinit", "Ġinitially", "Ġvary", "Ġvarying", "Ġforms", "Ġdiverse,", "Ġonly", "Ġgen", "Ġgenet", "Ġgenetic", "Ġdiversity.", "ĠHowever,", "Ġkn", "Ġknown", "Ġfoss", "Ġfossil", "Ġfossils", "Ġdate", "Ġabout", "Ġ30,", "ĠEv", "ĠEvidence", "Ġneol", "Ġneolith", "Ġneolithic", "Ġbasin,", "ĠMe", "ĠMeh", "ĠMehr", "ĠMehrg", "ĠMehrgar", "ĠMehrgarh", "ĠBal", "ĠBaloch", "ĠBalochistan", "ĠBalochistan,", "ĠPakistan,", "Ġdates", "Ġ7000", "ĠDom", "ĠDomest", "ĠDomestic", "ĠDomestication", "Ġgrain", "produc", "producing", "Ġplants", "Ġbar", "Ġbarle", "Ġbarley", "Ġbarley)", "Ġhu", "Ġhump", "Ġhumped", "Ġz", "Ġze", "Ġzeb", "Ġzebu", "Ġcat", "Ġcatt", "Ġcattle", "Ġcattle)", "Ġoccur", "Ġoccurred", "Ġhere.", "ĠThes", "ĠThese", "Ġevolved", "ĠCivilisation,", "Ġflourished", "Ġ2500", "1900", "ĠCentred", "Ġsuc", "Ġsuch", "ĠMo", "ĠMoh", "ĠMohen", "ĠMohenjo", "dar", "daro", "daro,", "ĠHar", "ĠHarap", "ĠHarapp", "ĠHarappa,", "ĠDh", "ĠDhol", "ĠDholavir", "ĠDholavira,", "ĠGan", "ĠGanw", "ĠGanweri", "ĠGanweriw", "ĠGanweriwal", "ĠGanweriwala,", "ĠRak", "ĠRakh", "ĠRakhig", "ĠRakhigar", "ĠRakhigarhi", "ĠRakhigarhi,", "Ġfeat", "Ġfeatures", "Ġinclud", "Ġincluded", "Ġwe", "Ġweights", "Ġweights,", "Ġsteat", "Ġsteatite", "Ġseal", "Ġseals,", "Ġwritt", "Ġwritten", "Ġscript,", "Ġplanning", "Ġplanning,", "Ġwork", "Ġworks,", "Ġarts", "Ġcra", "Ġcraf", "Ġcrafts", "Ġincluding", "Ġpot", "Ġpotter", "Ġpottery", "Ġsty", "Ġstyl", "Ġstyles,", "Ġter", "Ġterrac", "Ġterracot", "Ġterracott", "Ġterracotta", "Ġfig", "Ġfigures", "Ġstatu", "Ġstatuett", "Ġstatuettes.", "ĠNetworks", "Ġtow", "Ġtowns", "Ġvill", "Ġvillages", "Ġagro", "past", "pastor", "pastoral", "Ġeconomy.", "ĠBetween", "Ġ1500", "Ġevidence", "ĠRig", "ĠVed", "ĠVeda", "Ġold", "Ġoldest", "Ġscript", "Ġscripture", "Ġassoci", "Ġassociated", "wh", "which", "sp", "speaking", "Ġtri", "Ġtrib", "Ġtribes", "Ġmigrat", "Ġmigrating", "ĠAfgh", "ĠAfghan", "ĠAfghanistan", "Ġac", "Ġacr", "Ġacross", "Ġregion.", "Ġsettling", "Ġnex", "Ġnext", "Ġmillennium,", "Ġwhen", "Ġsw", "Ġswathe", "Ġswathes", "Ġsystem'", "Ġadjo", "Ġadjoin", "Ġadjoining", "Ġregions", "Ġdef", "Ġdeforest", "Ġdeforested,", "Ġtimes", "Ġsetting", "Ġfire", "Ġfires,", "Ġemp", "Ġempl", "Ġemplo", "Ġemploy", "Ġemploying", "Ġiron", "Ġimp", "Ġimplement", "Ġimplements,", "Ġprep", "Ġprepa", "Ġprepared", "Ġagric", "Ġagriculture", "Ġagriculture.", "Ġsettlement", "Ġmay", "Ġhave", "Ġinv", "Ġinvolved", "Ġdriv", "Ġdriving", "Ġpree", "Ġpreex", "Ġpreexisting", "Ġout", "Ġens", "Ġensl", "Ġenslav", "Ġenslaving", "Ġthem", "Ġthem.", "Ġnorth,", "Ġcreating", "Ġbro", "Ġbroad", "Ġfam", "Ġfami", "Ġfamily", "divid", "divide,", "Ġbe", "Ġbeing", "Ġspok", "Ġspoken", "Ġmainly", "Ġwest,", "Ġparts", "Ġrefined", "Ġgramm", "Ġgrammat", "Ġgrammatical", "Ġwould", "Ġemerge", "Ġcod", "Ġcodified", "ĠAá¹", "ĠAá¹£", "ĠAá¹£á¹", "ĠAá¹£á¹Ń", "ĠAá¹£á¹ŃÄģ", "ĠAá¹£á¹ŃÄģdh", "ĠAá¹£á¹ŃÄģdhy", "ĠAá¹£á¹ŃÄģdhyÄģy", "ĠAá¹£á¹ŃÄģdhyÄģyÄ", "ĠAá¹£á¹ŃÄģdhyÄģyÄ«", "Ġ('", "Ġ('E", "Ġ('Eigh", "Ġ('Eight", "Ġcha", "Ġchap", "Ġchapter", "Ġchapters", "Ġchapters'", "Ġchapters')", "ĠPÄģ", "ĠPÄģá¹ĩ", "ĠPÄģá¹ĩin", "ĠPÄģá¹ĩini", "ĠPÄģá¹ĩini.", "Ġepics,", "ĠMahÄģ", "ĠMahÄģb", "ĠMahÄģbhÄģrat", "ĠMahÄģbhÄģrata", "ĠRÄģ", "ĠRÄģm", "ĠRÄģmÄģy", "ĠRÄģmÄģya", "ĠRÄģmÄģyaá¹ĩ", "ĠRÄģmÄģyaá¹ĩa,", "Ġhowever,", "Ġrang", "Ġrange", "Ġoral", "Ġstor", "Ġstory", "Ġstoryt", "Ġstorytell", "Ġstorytelling", "Ġregist", "Ġregisters", "Ġcal", "Ġcalled", "ĠEpic", "Ġ300", "Ġrough", "Ġroughly", "Ġconte", "Ġcontemp", "Ġcontempor", "Ġcontemporary", "Ġclassical", "ĠSanskrit.", "Ġurbanis", "Ġurbanisation", "Ġtak", "Ġtaken", "Ġtime", "Ġplain.", "Ġfort", "Ġfortified", "Ġcities,", "Ġdiffere", "Ġdifferent", "Ġdifferenti", "Ġdifferentiation", "Ġcaste,", "Ġvarna,", "Ġemerged.", "mill", "millennium", "Ġsystems", "Ġarisen:", "Ġte", "Ġteac", "Ġteaching", "Ġteachings", "ĠMah", "ĠMahavir", "ĠMahavira", "Ġthose", "ĠBuddha.", "ĠBoth", "Ġstres", "Ġstress", "Ġstressed", "Ġabj", "Ġabjure", "Ġabjured", "Ġsac", "Ġsacr", "Ġsacrif", "Ġsacrific", "Ġsacrifices", "Ġconducted", "ĠBra", "ĠBrahm", "ĠBrahman", "ĠBrahmanism,", "Ġbir", "Ġbirth", "Ġfix", "Ġfixed", "Ġhereditary", "Ġvarna.", "Ġliv", "Ġliving", "Ġethically", "Ġethically,", "Ġlay", "Ġcould", "Ġsocially", "Ġmor", "Ġmorally", "Ġthes", "Ġthese", "Ġreligions.", "ĠChron", "ĠChronic", "ĠChronicling", "Ġcentral", "Ġbegin", "Ġbeginnings", "Ġhistory", "Ġbac", "Ġback", "Ġbackd", "Ġbackdr", "Ġbackdrop", "Ġemergence", "Ġge", "Ġgeog", "Ġgeogr", "Ġgeograp", "Ġgeograph", "Ġgeographically", "ĠAsia,", "Ġfounder", "Ġfounder'", "Ġgrands", "Ġgrandson", "Ġgrandson,", "Ġ(c", "Ġ(ca.", "Ġ26", "Ġ268", "232", "ĠBCE),", "Ġbri", "Ġbrief", "Ġbriefly", "Ġcontr", "Ġcontrol", "Ġcontrolled", "Ġhubs", "Ġarter", "Ġarteries", "Ġsubcontinent,", "Ġexce", "Ġexcep", "Ġexcept", "Ġde", "Ġdeep", "Ġempire'", "Ġnot", "Ġnotab", "Ġnotable", "Ġinsc", "Ġinscrip", "Ġinscription", "Ġinscriptions,", "Ġproduc", "Ġproduced", "Ġtex", "Ġtexts", "Ġtexts,", "Ġals", "Ġalso", "Ġdeclining", "Ġmainst", "Ġmainstre", "Ġmainstream", "Ġspeaking", "ĠFol", "ĠFollow", "ĠFollowing", "Ġconq", "Ġconqu", "Ġconquest", "ĠKal", "ĠKaling", "ĠKalinga,", "Ġforc", "Ġforces", "Ġca", "Ġcaused", "Ġimmens", "Ġimmense", "Ġlife,", "Ġadopted", "ĠBuddhism,", "Ġsubs", "Ġsubseq", "Ġsubsequ", "Ġsubsequently", "Ġadopt", "Ġadopting", "Ġpolic", "Ġpolicy", "Ġdh", "Ġdhamm", "Ġdhamma", "Ġcom", "Ġcomm", "Ġcommis", "Ġcommiss", "Ġcommission", "Ġcommissioning", "Ġnum", "Ġnumer", "Ġnumerous", "Ġroc", "Ġrock", "Ġpill", "Ġpillar", "Ġthroughout", "Ġpromot", "Ġpromote", "Ġconduct,", "violence,", "Ġwelf", "Ġwelfa", "Ġwelfare", "Ġwelfare.", "Ġforb", "Ġforbade", "Ġkill", "Ġkilling", "Ġdest", "Ġdestr", "Ġdestruc", "Ġdestruction", "Ġforest", "Ġforests,", "Ġseen", "Ġenv", "Ġenviron", "Ġenvironment", "Ġenvironmental", "Ġhistorians", "Ġemb", "Ġembod", "Ġembodim", "Ġembodiment", "Ġethos", "Ġethos.", "Ġcenturies,", "Ġcomple", "Ġcomplex", "Ġadm", "Ġadmin", "Ġadminist", "Ġadministration", "Ġta", "Ġtax", "Ġtaxation", "Ġgreat", "Ġgreater", "ĠPl", "ĠPlain", "ĠPlain;", "Ġmod", "Ġmodel", "Ġkingdoms.", "ĠUnder", "ĠGuptas,", "Ġrenewed", "Ġdevotion,", "Ġra", "Ġrather", "Ġmanag", "Ġmanagement", "Ġrit", "Ġritual", "Ġritual,", "Ġasser", "Ġassert", "Ġitself", "Ġitself.", "Ġrenew", "Ġrenewal", "Ġrefl", "Ġreflected", "Ġflower", "Ġflowering", "Ġliterature,", "Ġsci", "Ġscience", "Ġscience.", "ĠSang", "ĠSangam", "Ġliterature", "ĠTam", "ĠTamil", "Ġrev", "Ġreveal", "Ġreveals", "Ġthat,", "Ġpen", "Ġpenins", "Ġpeninsul", "Ġpeninsula", "Ġruled", "ĠCher", "ĠCheras", "ĠChol", "ĠCholas,", "Ġplains,", "Ġresp", "Ġrespect", "Ġrespective", "Ġrespectively,", "ĠKav", "ĠKaveri", "Ġvalley", "Ġvalley,", "ĠPand", "ĠPandy", "ĠPandyas", "Ġfar", "Ġfarther", "ĠVa", "ĠVaig", "ĠVaiga", "ĠVaigai", "à¤", "à°", "à®", "Ġà¤", "à±", "à¯", "à¥", "Ġà°", "à¯į", "à¤¾", "à±į", "Ġà®", "à¥į", "à°¾", "à¯įà®", "à¥įà¤", "à±įà°", "à¯ģ", "à¤¾à¤", "à°¾à°", "à®¿", "à¥ĩ", "à°¿", "à®¿à®", "à¤¿", "à±ģ", "à¯ģà®", "à¤¿à¤", "à°¿à°", "à®¾", "à¤°", "Ĥà°", "à®¾à®", "Ġà¤ķ", "à±ģà°", "à®¤", "à¤Ĥ", "à°Ĥà°", "à®°", "à¥Ģ", "à±ĩ", "à¯įà®¤", "à¤¤", "°à°", "à¯įà®ķ", "à¤¨", "à°¨", "à¯Ī", "Ġà¤¸", "à±ĭ", "Ġà®ª", "Ġà¤®", "Ġà°ª", "à®Ł", "à¥ĭ", "à°°", "à®¿à®¯", "à¤ķ", "à°²", "à®ķ", "Ġà¤ª", "à°¾à°²", "Ġà®ĩ", "à¤¾à¤°", "à±ĩà°", "à®³", "à¥ģ", "à°ķ", "à¯įà®ª", "à¥įà¤°", "à°¤", "¨à¯įà®¤", "Ġà¤¹", "Ġà°¸", "Ġà®®", "à¥ĩà¤Ĥ", "à±Ģ", "à®®", "Ġà¤Ń", "à°¦", "à®¤à¯ģ", "à¥¤", "Ġà°ķ", "à®©", "à¤¸", "à±įà°¯", "à®ª", "à¥įà¤¯", "à±įà°°", "à¯įà®Ł", "Ġà¤®à¥ĩà¤Ĥ", "à°Ĥ", "à®±", "à¤®", "Ġà°®", "à®¯", "Ġà¤ķà¥ĩ", "Ġà°µ", "Ġà®ķ", "à¤°à¥įà¤", "à°¿à°Ĥà°", "Ġà®µ", "à¤¾à¤°à¤¤", "à±įà°°à°", "à®¿à®²", "Ġà¤µ", "à°¾à°°", "à¯įà®±", "Ġà¤Ńà¤¾à¤°à¤¤", "à±ĩà°¶", "à¯ģà®®", "¯à¤¾", "à°¿.", "à®²", "à¥Ī", "²à±ĭ", "à¯ģà®ķ", "à¥ģà¤", "Ġà°Ń", "Ġà®¤", "à¥įà¤¤", "Ġà°ħ", "à®¿à®©", "Ġà¤ľ", "à°¾à°°à°", "à®¨à¯įà®¤", "Ġà¤¦", "à°¿à°ķ", "à®µ", "Ġà¤¨", "à±įà°¨", "à®¾à®ķ", "à¤Ĥà¤", "Ġà°°", "à¯ģà®®à¯į", "Ġà¤¬", "à±įà°µ", "à®¾à®©", "Ġà¤ħ", "à±Ī", "Ġà®ħ", "à¤¹", "à°¾à°¨", "Ġà®ļ", "Ġà¤¤", "Ġà°¦", "à®ªà¯įà®ª", "à¥Ĥ", "à°¾à°°à°¤", "à¯įà®ķà®³", "¥à¤¾", "¸à±įà°", "Ġà®¨", "à¥ĭà¤Ĥ", "à°µ", "à®£", "à¤¾à¤¨", "à±Ĩ", "à¯Ĭ", "à¤¾à¤ľ", "à±ģà°²", "à®¤à¯įà®¤", "à¤¼", "à°Ł", "à®¿à®²à¯į", "à¤¿à¤¯à¤¾", "Ġà°ªà±įà°°à°", "à¯ĩ", "à¤ª", "à°¾à°²à±ģ", "à¯Ĩ", "Ġà¤ªà¥įà¤°", "Ġà°Ńà°¾à°°à°¤", "à®±à¯įà®±", "Ġà¤¹à¥Ī", "Ġà°ī", "à¯Īà®¯", "à¤¦", "à°®", "à¯ģà®¤", "Ġà¤°", "à°¿à°¨", "à®¤à¯ģ.", "à¤¶", "Ĺà°¾", "à®¿à®©à¯į", "Ġà¤ī", "à°°à±įà°", "Ġà®ĩà®¨à¯įà®¤", "Ġà¤¶", "¦à°¿.", "à®¿à®ķ", "Ġà¤Ĺ", "Ġà°¨", "à®Ļ", "à¤²", "à°¾à°¯", "à®¿à®°", "Ġà¤ķà¤¾", "à°¾à°¤", "à®Łà¯įà®Ł", "Ġà¤¸à¥ĩ", "à±Ĥà°", "à®ķà¯įà®ķ", "à¤µ", "à°¯", "à®ļ", "Ġà¤Ķ", "Ġà°ľ", "Ġà®Ĩ", "à¤¿à¤ķ", "à°Ĥà°²à±ĭ", "Ġà®ī", "à¤¾à¤®", "à°ª", "à®£à¯įà®Ł", "à¥įà¤·", "à°¨à±įà°¨", "à®¾à®²", "Ġà¤Ķà¤°", "à±įà°Ł", "Ġà®ĩà®¨à¯įà®¤à®¿à®¯", "à¤§", "à±ģà°²à±ģ", "à®°à¯ģà®", "Ġà¤ķà¥Ģ", "à°¦à±ĩà°¶", "à¯ĭ", "Ġà¤Ĩ", "à®®à¯į", "à¤¯", "Ġà°ļ", "à®ªà¯į", "à¥įà¤µ", "à°¡", "Ġà®®à®±à¯įà®±", "à¤¿à¤¤", "Ġà°ĩ", "Ġà®®à®±à¯įà®±à¯ģà®®à¯į", "Ġà¤²", "à±įà°²", "à®¾à®µ", "Ġà¤ĩ", "à°¿à°Ĥà°ļ", "à®Ļà¯įà®ķà®³", "à¤Ĺ", "à°¾à°Ĥà°", "à®¾à®Ł", "à¤¾à¤²", "à°ķà±įà°", "à¯ģà®ķà¯įà®ķ", "Ġà¤¤à¤", "à±Ĭ", "à®ªà¯įà®ªà®Łà¯įà®Ł", "Ġà¤ªà¤°", "à°¿à°Ĥà°¦à°¿.", "à¯įà®ļ", "Ġà¤¨à¥ĩ", "à°²à±ģ", "à¯Ģ", "à¤¾à¤¸", "Ġà°¦à±ĩà°¶", "à®°à¯į", "à¤¿à¤¨", "Ġà°°à°¾à°", "Ġà®İ", "Ġà¤ı", "Ġà°Ńà°¾à°°à°¤à°¦à±ĩà°¶", "à®±à¯įà®ķ", "Ġà¤¤à¤¥à¤¾", "à°§", "à®¿à®±", "Ġà¤ķà¥ĭ", "à°²à±ĭ", "à®¿à®¤", "à¤¾à¤ľà¥įà¤¯", "¸à±įà°¤", "à¯Ĥ", "à¤¡", "à°Ĥà°¡", "à®´", "Ġà¤§", "Ġà°Ĺ", "ªà¯įà®ª", "Ġà¤µà¤¿à¤", "à°¸", "Ġà®ªà¯Ĩ", "à¤¸à¥įà¤", "Ġà°¤", "Ġà®Ĵ", "Ġà¤Ĺà¤", "à±ģà°ķ", "à®¾à®°", "à¤ķà¥įà¤·", "à±ģà°Ĥà°", "à®ķà¯į", "à¤¿à¤£", "à¯ģà®ķà®³", "Ġà¤¹à¥ģà¤", "à®¾à®©à®¤à¯ģ", "Ġà¤ķà¤°", "à±ģà°¤", "à¯ģà®Ł", "à¤¡à¤¼", "à°¹", "à®©.", "à¥įà¤¦", "à°¾à°¯à°¿.", "à®¿à®ķà¯įà®ķ", "à¤¨à¥ĩ", "Ġà°Ĩ", "à®°à¯įà®ķà®³", "à¤°à¥įà¤®", "à°Ń", "à®©à¯įà®±", "à¤¨à¤¾", "à°Ĥà°¤", "Ġà®¤à¯Ĭ", "à¤¬", "à°°à°", "à¯ģà®±", "Ġà¤¦à¤ķà¥įà¤·", "à°¨à±ģ", "à®°à¯ģ", "Ġà¤¦à¤ķà¥įà¤·à¤¿à¤£", "à±ģ.", "à®°à®ļ", "à¥ĥ", "à°ļ", "Ġà®ļà®®", "à¤Ĥà¤Ĺ", "Ġà°µà°¿à°", "à¯įà®³", "à¤£", "à°¨à°¿", "à®¿à®ªà¯įà®ª", "à¥įà¤¥", "à±įà°ļ", "à®²à¯įà®", "Ġà¤ļ", "à±ģà°¨", "¨à¯įà®¤à¯ģ", "à¥Ģà¤¨", "à°Ĥà°Ĺà°¾", "à¯ģà®¤à¯įà®¤", "Ġà¤¥à¤¾", "Ġà°īà°¨à±įà°¨", "à¯ģà®ª", "à¤Ń", "à°Ĥà°¦", "à®Ļà¯įà®ķ", "à¥Ģà¤¯", "à°¿à°¤", "à®¿à®Ł", "à¤¾à¤¤", "Ġà°ªà±įà°°", "à®¿à®¤à¯įà®¤", "à¥Ĥà¤°à¥įà¤", "Ġà°İ", "à®µà¯Ī", "Ġà¤¯", "à°ķà±įà°·", "à®©à¯į", "Ġà¤§à¤°à¥įà¤®", "à±įà°¤", "à®¾à®ķà¯įà®ķ", "à¥ĩà¤", "Ġà°¬", "à®¤à¯į", "à¤¿à¤®", "à±Ģà°¯", "Ġà®ķà®¾à®²", "Ġà¤īà¤¤", "à±Ĥ", "Ġà®ªà¯Ĭ", "à¤¤à¥įà¤°", "à±Īà°¨", "à¯ģà®³", "à¤¿à¤²", "à°¿à°ª", "à®²à¯į", "Ġà¤¸à¥įà¤¥", "à°¿,", "à®¾à®£", "à¥Į", "Ġà°¶", "à®Ĩ", "à¥Ĥà¤°à¥įà¤µ", "à°¾à°¦", "Ġà®¤à¯Ĩ", "Ġà¤¸à¤¾à¤®", "à°Ĺ", "Ġà®Ĵà®°à¯ģ", "Ġà°°à°¾à°ľ", "Ġà®ªà®ķ", "Ġà¤¸à¤®", "Ġà°°à±Ī", "à¯Īà®ªà¯įà®ª", "Ġà¤ıà¤ķ", "à°ķà±ģ", "à¯ĩà®°", "à¤¤à¤¾", "à°¸à±įà°", "Ġà®ĩà®¤à¯ģ", "Ġà¤ķà¤¿à¤¯à¤¾", "à°¾à°®", "Ġà®ķà¯Ĭ", "Ġà¤ħà¤¨", "Ġà°Ī", "Ġà®ĩà®¨à¯įà®¤à®¿à®¯à®¾à®µ", "à¥įà¤¤à¤°", "à±ģà°µ", "à®¤à¯įà®¤à®¿à®©à¯į", "à¤ļ", "Ġà°¹", "Ġà®ĩà®°à¯ģà®", "Ġà¤°à¤¾à¤ľ", "à°¦à±įà°", "à¤¾à¤¦", "à±į,", "à¯įà®©", "à°ļà±įà°ļ", "Ġà®īà®°à¯ģà®", "Ġà¤Ī", "à°¾à°°à±įà°", "Ġà®īà®°à¯ģà®µ", "Ġà¤¨à¤¾à¤®", "à®¾à®¤", "à¤¿à¤¸", "à°¿à°Ĺ", "Ġà®ħà®¤", "Ġà¤ªà¥Ĥà¤°à¥įà¤µ", "à°£", "à¯ģà®ķà¯įà®ķà¯ģ", "Ġà¤ĩà¤¸", "à°¿à°¯", "à®Łà¯ģà®ķ", "à¥ĥà¤¤", "à±ĩà°°", "Ġà®ķà¯Ĭà®£à¯įà®Ł", "à¤ķà¤°", "à°¾à°¸", "Ġà®µà®Ł", "Ġà¤¸à¤¾à¤®à¥įà¤°", "·à±įà°Ł", "Ġà®¨à®¿à®²", "Ġà¤¸à¤¾à¤®à¥įà¤°à¤¾à¤ľà¥įà¤¯", "à±ģà°²à±ģ,", "à®²à¯įà®²", "à¤¾à¤ª", "à°¿à°²", "Ġà®ªà®ķà¯ģà®¤", "à°Ĥà°¤à±įà°°", "Ġà®®à¯ģà®", "Ġà¤Ńà¤¾à¤°à¤¤à¥Ģà¤¯", "âĢĮ", "Ġà®µà¯ĩ", "à¤¶à¥įà¤", "Ġà°®à±Ĭ", "à®¿à®µ", "Ġà¤īà¤¤à¥įà¤¤à¤°", "à°Ĥà°Ł", "à®®à®¾à®ķ", "Ġà¤¹à¤¿à¤¨", "à°§à°¿à°ķ", "à¯ģà®µ", "Ġà¤¹à¤¿à¤¨à¥įà¤¦", "à±Ĥà°¡", "à¯ģà®³à¯įà®³", "Ġà¤Īà¤¸", "Ġà°Ńà°¾à°°à°¤à°¦à±ĩà°¶à°Ĥ", "Ġà®ħà®®", "Ġà¤¹à¥ĭ", "Ġà°°à°", "à®¾à®Łà¯įà®Ł", "à¤¾à¤ļ", "Ġà°¸à°Ĥà°", "à®Ĩà®®à¯į", "Ġà¤Ĺà¤¯à¤¾", "à°¾à°¬", "Ġà®µà®°", "Ġà¤¶à¤¾à¤¸", "Ġà®Ĩà®ķ", "à°¾à°°à±ģ.", "à®°à¯įà®", "Ġà¤ķà¥įà¤·", "Ġà°ľà°¨", "à®Łà¯Īà®¯", "Ġà¤ķà¥įà¤·à¥ĩ", "¥à°¾à°¨", "à®°à¯įà®ķà®³à¯į", "Ġà¤ķà¥įà¤·à¥ĩà¤¤à¥įà¤°", "Ġà°ķà°²", "Ġà®ķà¯ģà®±", "Ġà¤µà¤°à¥įà¤", "à°¿à°Ĥà°¦", "Ġà®¤à¯Ĭà®Ł", "à¥ĩà¤¶", "à±įà°ª", "à®Łà¯ģà®¤à¯įà®¤", "à¤¶à¥įà¤ļ", "à°Ĥà°Ĺ", "Ġà®ĩà®°", "à¤¶à¥įà¤ļà¤¿à¤®", "à°¾à°ķ", "Ġà®ļà¯Ĩ", "à¥įà¤®", "à±Į", "à®¿à®ķà®³", "Ġà¤®à¤¹", "à°Ĥ,", "à¯įà®®", "à¤¸à¥įà¤ķ", "à°¾à°Ĥà°¤", "Ġà®Ĭ", "à¤¸à¥įà¤ķà¥ĥà¤¤", "Ġà°µà±įà°¯", "à®¾à®ļ", "à¥įà¤ª", "à°¾à°£", "à®¤à¯įà®¤à¯Ī", "Ġà¤¥", "à°¤à±įà°¤", "à®©à®°à¯į", "Ġà¤¤à¤ķ", "Ġà°²à±ĭ", "à®¤à¯įà®¤à®¿à®²à¯į", "Ġà¤Ńà¥Ģ", "Ġà°®à°¾à°°à±įà°", "à®¿à®¨à¯įà®¤", "à¤¾à¤¬", "Ġà®ªà¯Ĭ.", "à¤¿à¤°", "Ġà°ı", "Ġà®Ĭ.", "à¤°à¥Ģ", "Ġà°¸à±įà°µ", "Ġà¤ľà¤¾à¤¤", "Ġà®ħà®®à¯Īà®ªà¯įà®ª", "Ġà¤¬à¤¡à¤¼", "Ġà°°à°¾à°·à±įà°Ł", "Ġà®ªà¯ĭ", "à¤·", "Ġà°īà°¨à±įà°¨à°¾à°¯à°¿.", "à®¿à®¯à®¾à®µ", "à¤ķà¤¾", "à±ĥ", "à¯Īà®ķà¯įà®ķ", "Ġà¤¸à¤¾à¤", "à°¿à°ķà°¿", "à®ªà¯įà®ªà®Łà¯ģà®ķ", "Ġà¤¸à¤Ĥ", "Ġà°²", "à®¿à®±à®¤à¯ģ.", "Ġà¤¯à¤¹", "à®°à®¿à®¯", "Ġà¤īà¤¨", "Ġà°®à°¾à°°à±įà°Ĺ", "Ġà®ĩà®¤", "à¤ľ", "Ġà°¸à±įà°", "Ġà®®à¯ĩ", "Ġà¤¹à¥ģà¤Ĩ", "à°µà°¸à±įà°", "à¯ģà®³à¯įà®³à®¤à¯ģ.", "à¤§à¥įà¤¯", "Ġà°ħà°¤", "Ġà®ĩà®¨à¯įà®¤à®¿à®¯à®¾", "à¥Ģà¤Ĥ", "à°¾à°²à±ģ,", "à®©à®°à¯į.", "à¤¾à¤ĵ", "Ġà°ªà°¾à°°", "à®¿à®¯à®¤à¯ģ.", "à¥Īà¤¦", "ĸà±įà°¯", "Ġà®ļà®®à®¯", "à¥Ģà¤°", "à°Ĥà°¦à°¿.", "à®¾à®²à¯į", "à¤¾à¤¨à¤¾", "Ġà°Ńà°¾à°", "à¯įà®ļà®¿à®¯", "à¤¢", "à°¿à°¸à±įà°¤", "à®Ļà¯įà®ķà®³à¯į", "à¤¢à¤¼", "Ġà°µà°ļà±įà°ļ", "à¤¾à¤ļà¥Ģà¤¨", "Ġà°®à°§", "Ġà®ªà®°", "à¤¶à¤¿à¤¯à¤¾", "Ġà°®à°§à±įà°¯", "à®¿à®´", "à¥įà¤µà¥Ģ", "à°¿à°°", "Ġà®Ĩà®ķà®¿à®¯", "à¤¸à¥ĩ", "à°¿à°µ", "à®ķà®³", "à¥ĭà¤²", "à±įâĢĮ", "à¯Īà®¨à¯įà®¤", "Ġà¤ªà¤¾à¤", "Ġà°İà°¨à±įà°¨", "Ġà®Ĩà®£à¯įà®Ł", "à¥įà¤¤à¤¾à¤¨", "à°³", "à®®à®¾à®©à®¤à¯ģ", "Ġà¤Īà¤¸à¤¾", "Ġà°°à±Īà°²à±ģ", "à®¾à®±", "Ġà¤¸à¤Ĥà¤¸à¥įà¤ķà¥ĥà¤¤", "à°¦à±įà°¦", "à¯ĩà®°à®°à®ļ", "Ġà¤®à¤§à¥įà¤¯", "Ġà°ªà±įà°°à°¾à°Ĥà°¤", "à®ļà¯į", "à¤¾à¤ĵà¤Ĥ", "à°µà°¸à±įà°¥", "à¯Īà®ķà¯į", "Ġà¤¶à¤¤", "Ġà°Ĵ", "à®¿à®°à¯ģà®", "Ġà¤¶à¤¤à¤¾à¤¬", "Ġà°Ĵà°ķ", "à®¾à®£à¯įà®Ł", "Ġà¤¶à¤¤à¤¾à¤¬à¥įà¤¦", "à°ķà±įà°ķ", "à®©à¯įà®ª", "Ġà¤¶à¤¤à¤¾à¤¬à¥įà¤¦à¥Ģ", "Ġà°¦à±ĩà°¶à°¾à°²", "Ġà®¤à¯Ĩà®±à¯įà®ķ", "Ġà¤¶à¤¾à¤¸à¤¨", "Ġà°¦à°ķà±įà°·", "Ġà®ħà®¤à®¿à®ķ", "Ġà¥", "Ġà°ħà°§à°¿à°ķ", "Ġà®İà®©à¯įà®±", "Ġà¤¬à¤¢à¤¼", "Ġà°ķà±Ĥà°¡", "Ġà®®à®ķ", "à¤¾à¤£", "à±ģà°¨à±įà°¨", "à®¾à®³", "à¥Ĥà¤ª", "Ġà°°à°¾à°ľà±įà°¯", "à®¾à®©à®µà¯Ī", "Ġà°ªà±ĩà°°", "à®¾à®¯", "Ġà¤ªà¥įà¤°à¤¾à¤ļà¥Ģà¤¨", "à°Łà±įà°Ł", "Ġà®®à¯ģà®©", "Ġà¤²à¤¿à¤", "Ġà°ķà±ĭ", "Ġà®µà®¨à¯įà®¤", "Ġà¤ıà¤¶à¤¿à¤¯à¤¾", "à°Ĺà°¾", "à®£à¯įà®ª", "à¥įà¤µà¥Ģà¤ª", "à°Łà°¿", "Ġà®ħà®°à®ļ", "Ġà¤ªà¤¶à¥įà¤ļà¤¿à¤®", "à°¶", "à¤ķà¥ĩ", "Ġà°īà°Ĥà°¦à°¿.", "à®³à®µ", "à¤Ĥà¤¡", "Ġà°¦à°ķà±įà°·à°¿à°", "Ġà®ħà®Ł", "à¥įà¤§", "Ġà°¦à°ķà±įà°·à°¿à°£", "à¯įà®ķà®³à¯į", "à¥įà¤Ń", "Ġà°¹à°¿à°Ĥà°¦", "à®¾à®®", "à¥ģà¤ª", "à±įà°®", "à¯Īà®ķà®³", "Ġà¤¦à¤¿à¤¯à¤¾", "à°¿à°²à±įà°²", "à®¿à®©à¯įà®±", "à¥ģà¤Ĺ", "Ġà°®à°¤", "à®ķà®°", "Ġà¤¸à¥įà¤¥à¤¾à¤ª", "Ġà°ªà°°", "à¯įà®µ", "Ġà¤¹à¥ģà¤Ī", "Ġà°ľà°°", "Ġà®¤à¯ĭ", "Ġà¤¬à¤¨", "Ġà°ªà±įà°°à°§", "Ġà®®à¯Ĭ", "à¥ģà¤°", "Ġà°ªà±įà°°à°§à°¾à°¨", "à¯ģà®ªà¯į", "à¤¾à¤µ", "Ġà°ªà±ĩà°°à±ģ", "Ġà®ªà¯ĩà®°à®°à®ļ", "Ġà¤ªà¥įà¤°à¤®", "à°¬", "à®¾à®ķà®ķà¯į", "Ġà¤ľà¤¿à¤¨", "à°¾à°µ", "Ġà®ªà®£à¯įà®ª", "à¥įà¤¹", "à±įà°²à±ĭ", "Ġà®ªà®¿à®°", "à¥ĭà¤¡à¤¼", "à°Ĥà°²à±ĭà°¨à°¿", "Ġà®ķà¯ģà®Ł", "Ġà¤µà¥įà¤¯", "à°¾à°Ĥà°Ĺ", "à®ªà¯įà®ªà®Łà¯ģà®ķà®¿à®±à®¤à¯ģ.", "à¤Ĥà¤¶", "Ġà°ªà°¾à°°à±įà°Ł", "à®¿à®´à®ķà¯įà®ķ", "Ġà¤°à¤¾à¤ľà¥įà¤¯", "Ġà°ªà°¾à°°à±įà°Łà±Ģ", "à®¿à®¯à®¾à®©", "à¥¦", "à°¾à°Ń", "Ġà®ĩà®¨à¯įà®¤à®¿à®¯à®¾à®µà®¿à®©à¯į", "à¤¼à¥Ģ", "à°Ĥà°ļ", "à¯Īà®ªà¯į", "à¥įà¤²", "à±įà°°à°ª", "Ġà®ĩà®°à¯ģà®¨à¯įà®¤à¯ģ", "Ġà¤¦à¥ĩà¤¶", "Ġà°µà±įà°¯à°µà°¸à±įà°¥", "Ġà®®à¯ģà®©à¯įà®©", "à¤¿à¤¸à¥įà¤¤à¤¾à¤¨", "à±įà°¯à°Ĥ", "à®¿à®¤à¯įà®¤à¯ģ", "à¤Ł", "Ġà°ħà°¨", "Ġà®®à¯ģ", "Ġà¤¹à¥Īà¤Ĥ", "à°¿à°®", "Ġà®®à¯ģ.", "Ġà¤¥à¥Ģ", "à±įà°°à°Ĥ", "Ġà®ĩà®°à¯ģà®¨à¯įà®¤", "à¤Ĥà¤Ĺà¤¾", "Ġà°ªà°¾à°ķ", "à®¾à®±à¯įà®±", "à¤°à¥įà¤¯", "Ġà°¸à°°", "Ġà®¨à¯Ĥ", "Ġà¤µà¤¿à¤¸", "à±įà°°à±Ģ", "à®²à¯Ī", "Ġà¤ķà¤¾à¤²", "à°¦à°¿", "à®³à¯įà®³", "à¤¸à¥įà¤²", "à°¾à°Ł", "Ġà®¨à®¾à®Ł", "Ġà¤®à¥Īà¤¦", "à±ģà°ª", "à®¾à®©à¯į", "Ġà¤®à¥Īà¤¦à¤¾à¤¨", "à°¿à°¨à±įà°¨", "Ġà®¤à¯ģà®", "à¥Ģà¤°à¥ĩ", "à±įà°°à°®", "Ġà®¤à®©", "Ġà¤²à¤¿à¤ı", "Ġà°ļà±ĩà°", "à®¾à®´", "Ġà¤ªà¥įà¤°à¤®à¥ģà¤", "Ġà°¤à°°", "à®¿à®¯à®¾à®ķ", "Ġà¤ªà¥įà¤°à¤®à¥ģà¤ĸ", "à°¿à°Ĥà°ļà°¿à°Ĥà°¦à°¿.", "à¯Ĩà®³", "Ġà¤¸à¥įà¤µ", "Ġà°ħà°¯", "Ġà®®à¯Ĭà®´", "Ġà¤Ĩà¤§", "à±ģà°Ĺ", "Ġà®ļà¯Ĩà®¯", "à¥įà¤¤à¤¿", "Ġà°ĩà°¤", "Ġà®ªà®¾à®°", "à¤¿à¤¯", "Ġà°¸à°Ń", "Ġà®ªà®ķà¯ģà®¤à®¿à®ķà®³", "Ġà¤ħà¤¨à¥įà¤¯", "à±Ĩà°¸", "à®¿à®©.", "à¥ģà¤¸", "Ġà°ľà°¨à°¾à°Ń", "Ġà®ªà¯Ĭà®°à¯ģà®", "Ġà¤ľà¤¾à¤¤à¤¾", "Ġà°°à°¾à°·à±įà°Łà±įà°°", "à®¿à®°à¯ģà®¨à¯įà®¤", "Ġà¤¸à¤Ń", "Ġà°ķà±ĩ", "à¯Īà®¯à¯ģà®®à¯į", "Ġà¤ķà¤°à¤¨à¤¾", "Ġà°ķà±ĩà°Ĥà°¦", "Ġà®ĩà®ķà¯įà®ķ", "Ġà¤¨à¤¿à¤°", "Ġà°¸à°®", "Ġà®ĩà®ķà¯įà®ķà®¾à®²", "Ġà¤¶à¤¹", "à°¿à°Ĺà°¾", "à¯ģà®ķà¯į", "Ġà¤¯à¥ģà¤Ĺ", "Ġà°®à±ģà°", "à®¿à®Łà¯įà®Ł", "Ġà¤ķà¥ģà¤", "à°®à±Īà°¨", "Ġà®¨à¯Ĥà®±à¯įà®±", "Ġà¤Ĩà¤ķ", "à°¿à°¯à°¾", "Ġà®¨à¯Ĥà®±à¯įà®±à®¾à®£à¯įà®Ł", "à¥ĩà¤ľ", "à±ģà°Ĺà°¾", "à¯Īà®¤à¯įà®¤", "Ġà¤¸à¥įà¤¥à¤¿à¤¤", "à°¤à±ĭ", "Ġà®ķà®Łà¯įà®Ł", "Ġà¤īà¤ª", "Ġà°¦à±įà°µ", "à¯ģà®®à¯įà®ª", "Ġà¤īà¤ªà¤®", "Ġà°ľà°¾à°¤", "à®¿à®ķà¯įà®ķà®ªà¯įà®ªà®Łà¯įà®Ł", "Ġà¤īà¤ªà¤®à¤¹", "à°°à±įà°¯", "Ġà®ªà¯Ĩà®¯", "Ġà¤īà¤ªà¤®à¤¹à¤¾à¤¦", "Ġà°ķà°¾à°²", "à¯ģà®Łà¯Īà®¯", "Ġà¤īà¤ªà¤®à¤¹à¤¾à¤¦à¥įà¤µà¥Ģà¤ª", "à±ģà°ķà±ĭ", "Ġà®ªà¯ĭà®¤à¯ģ", "Ġà¤¸à¤¬", "Ġà°µà°ļà±įà°ļà°¿à°Ĥà°¦à°¿.", "à®ĩ", "Ġà¤¸à¤¬à¤¸à¥ĩ", "à±ģà°°", "à®¿à®¯à®¾", "à¤¾à¤ģ", "à°ªà±įà°ª", "Ġà®īà®³à¯įà®³", "Ġà¤ªà¤¾à¤ķ", "à±ģà°®", "à¯ģà®®à¯į.", "Ġà¤ªà¤¾à¤ķà¤¿à¤¸à¥įà¤¤à¤¾à¤¨", "à±Ĩà°Ĥà°¡", "Ġà®İà®©à¯įà®±à¯ģ", "à¤¾à¤Ĺ", "Ġà°ªà±įà°°à°Ń", "Ġà®ħà®Łà®¿à®ªà¯įà®ª", "à¥Ģà¤µ", "Ġà°ªà±įà°°à°Ńà±ģà°¤", "Ġà®ħà®Łà®¿à®ªà¯įà®ªà®Łà¯Īà®¯", "Ġà¤ĩà¤Ĥà¤¡", "Ġà°ªà±įà°°à°Ńà±ģà°¤à±įà°µ", "Ġà®®à¯ģà®¤", "Ġà¤²à¤Ĺ", "Ġà®®à¯ĩà®±à¯įà®ķ", "à¤¤à¥Ģ", "à±Ģ,", "à¯Ģà®©", "Ġà¤«", "à°¾à°£à°¾", "à¯ģà®Łà®©à¯į", "Ġà¤¹à¥ģà¤ı", "Ġà°®à°¾à°°à±įà°Ĺà°¾à°²à±ģ", "à®¿à®©à¯įà®±à®©.", "Ġà¤¹à¤¿à¤¨à¥įà¤¦à¥Ĥ", "Ġà°®à±Ĭà°¦", "Ġà®®à®©", "à¤¦à¥įà¤§", "Ġà°¸à±įà°¥à°¾à°¨", "Ġà®¤à¯ģà®£", "à¥ģà¤ķ", "à°¾à°²à°¨", "à®Ļà¯įà®ķà®³à®¿à®²à¯į", "Ġà¤ĩà¤¸à¥Ģ", "à°¿à°²à±ĭ", "Ġà®µà®¾à®´", "Ġà¤¸à¤®à¤¯", "à±Ĥà°°", "à®²à¯įà®µ", "à¥įà¤¨", "à±įà°¦", "Ġà®ªà®Ł", "à¤¤à¥ĩ", "Ġà°ĩà°¦à°¿", "Ġà®ħà®±", "à¤®à¥įà¤Ń", "à°¦à±įà°§", "Ġà®īà®°à¯ģà®µà®¾à®ķà¯įà®ķ", "à¤¨à¥Ģ", "à°¿à°ļ", "Ġà®¨à®ķà®°", "Ġà¤Ĺà¤Ĥà¤Ĺà¤¾", "à°¾à°ľ", "Ġà®ªà¯Ĩà®°", "Ġà¤Ĺà¥ģà¤ª", "à°¿à°Ł", "Ġà®ªà®²", "Ġà¤Ĺà¥ģà¤ªà¥įà¤¤", "à°·", "Ġà®µà®³", "Ġà¤µà¤¿à¤¸à¥įà¤¤", "Ġà°¯", "Ġà®ķà¯ģà®±à®¿à®ªà¯įà®ª", "à¤¾à¤Ī", "à±įà°¡", "à¯ģà®ķà®³à¯į", "Ġà¤¸à¥įà¤¥à¤¾à¤ªà¤¨à¤¾", "Ġà°ľà°°à°¿à°Ĺ", "Ġà¤®à¤¿à¤²", "Ġà°ļà±Ĩ", "Ġà®īà®²", "Ġà¤²à¤¿à¤¯à¤¾", "à°¾à°¨à°¿à°ķà°¿", "à®°à®ª", "Ġà¤µà¥Ģà¤Ĥ", "à°¬à°¡", "Ġà®ķà®¿à®´à®ķà¯įà®ķ", "à¤Ĥà¤¬", "¦à±ĩà°¶", "Ġà®µà®¿à®°", "à¤¾à¤²à¥Ģ", "Ġà°¤à°°à±ģà°µ", "à®Ļà¯įà®ķà¯Ī", "Ġà¤¸à¤Ĥà¤¸à¥įà¤ķà¥ĥà¤¤à¤¿", "Ġà°¤à°°à±ģà°µà°¾à°¤", "à®¾à®°à¯į", "Ġà¤ľà¤¿à¤¸", "Ġà°ħà°¯à°¿à°¨", "à®¿à®±à¯įà®ķ", "Ġà¤ħà¤ª", "à°ªà±ģ", "Ġà®¤à¯Ĭà®Łà®ķà¯įà®ķ", "Ġà¥§", "Ġà°Ńà°¾à°°à°¤à°¦à±ĩà°¶à°Ĥà°²à±ĭ", "à¯ģà®ªà®Łà¯įà®Ł", "Ġà¤ľà¤¾à¤¨à¤¾", "Ġà°ıà°°à±įà°", "à®µà®°à¯įà®ķà®³", "Ġà°ıà°°à±įà°ª", "Ġà®¨à¯Ģ", "Ġà¤¦à¥ĭ", "Ġà°ªà°Łà±įà°Ł", "Ġà®ĩà®¤à®©à¯į", "Ġà¤Ĺà¤Ī", "à°¤à°¿", "à®¿à®£", "à¥ĩà¤ĸ", "Ġà°Ńà°¾à°°à°¤à±Ģà°¯", "à®±à¯įà®ª", "Ġà¤ĩà¤¤", "Ġà°ªà±įà°°à°¤", "Ġà®µà®´", "Ġà¤°à¥Ĥà¤ª", "Ġà°ķà°¾à°Ĥà°Ĺ", "à®¨", "Ġà¤¬à¤¡à¤¼à¥ĩ", "Ġà°ķà°¾à°Ĥà°Ĺà±įà°°", "à¯įà®¨", "Ġà¤ĺ", "Ġà°ķà°¾à°Ĥà°Ĺà±įà°°à±Ĩà°¸", "Ġà®µà¯ĩà®¤", "à±Ĩà°²", "à®®à¯įà®ª", "à¤Ĥà¤Ĺà¥įà¤°", "Ġà°°à°µ", "à®ªà¯įà®ªà®Łà¯įà®Łà®©.", "à¥ĩà¤ľà¤¼à¥Ģ", "Ġà°°à°µà°¾à°£à°¾", "Ġà®¤à¯Ĭà®Łà®Ļà¯įà®ķ", "à¤«", "Ġà°ªà±įà°°à°ľ", "à¯Į", "à¥ĥà¤·", "Ġà°¸à°¾à°®", "à®¿à®¯à®²à¯į", "à¥įà¤Ł", "à±ģà°¦", "Ġà®¤à¯Ĩà®©", "Ġà¤µà¤¿à¤¶", "Ġà°īà°ª", "Ġà®¨à®Ł", "Ġà¤Ńà¥Ĥ", "à°¾à°¨à±įà°¨", "Ġà®ªà®£à¯įà®ªà®¾à®Łà¯įà®Ł", "à¤¾à¤Ĥ", "à°¾à°¨à±įà°¨à°¿", "Ġà®Ĩà®Ł", "à¤¾à¤·", "à°¤à±įà°¤à°°", "à¯įà®®à¯Īà®¯", "Ġà¤°à¤¹", "à°¾,", "à®¾à®©à®¤à¯ģ.", "Ġà¤ªà¥įà¤°à¤¾à¤°", "à±ģà°Ĥà°Ł", "à¯įà®ļà®¿", "Ġà¤ªà¥įà¤°à¤¾à¤°à¤®à¥įà¤Ń", "Ġà°Ĺà°²", "Ġà®īà®¯", "Ġà¤®à¥Į", "à°¾à°¬à±įà°¦", "Ġà®®à¯ģà®¤à®²à¯į", "Ġà¤®à¥Įà¤°à¥įà¤¯", "Ġà°¨à±ģà°Ĥà°", "à¯Īà®¯à¯ģà®Łà¯Īà®¯", "à¤°à¤¾", "Ġà°¬à±įà°°", "Ġà®ªà¯Ĩà®¯à®°", "Ġà¤®à¥ĩà¤Ĥ,", "à±Ĩà°¨", "Ġà¤ħà¤¨à¥įà¤¤", "à±Ģà°¨", "Ġà®ªà®¯", "Ġà¤¸à¤¿à¤", "à°¤à±įà°µ", "Ġà®ªà¯ģà®", "Ġà¤§à¥Ģà¤°à¥ĩ", "Ġà°Ĩà°°à±įà°", "à¯ģà®ªà¯įà®ª", "Ġà¤¬à¥įà¤°", "à°°à°£", "Ġà®İà®©à¯įà®ª", "Ġà¤¬à¥įà¤°à¤¿à¤", "à°¾à°²à°²à±ĭ", "à®¾à®ļà®¿à®¯à®¾à®µ", "Ġà¤¬à¥įà¤°à¤¿à¤Ł", "Ġà°°à±Ĩà°Ĥà°¡", "Ġà®ķà¯ģà®Łà®¿à®¯", "Ġà¤¬à¥įà¤°à¤¿à¤Łà¤¿à¤", "Ġà°¶à°¾à°", "Ġà®īà®²à®ķ", "Ġà¤¬à¥įà¤°à¤¿à¤Łà¤¿à¤¶", "Ġà°ĩà°¤à°°", "Ġà®®à®¿à®ķ", "Ġà¤ĩà¤Ĥà¤¡à¤¿à¤¯à¤¾", "à°¾à°°à°Ĥ", "à¯ģà®®à¯į,", "Ġà¤µà¤¿à¤¸à¥įà¤¤à¤¾à¤°", "à±Įà°ķ", "à¯ģà®¤à¯į", "à¤¿à¤µ", "à°ķà±Ģà°¯", "Ġà®¨à®µ", "à¤µà¤¸à¥įà¤", "à°ľ", "Ġà®¨à®µà¯Ģà®©", "à¤µà¤¸à¥įà¤¥à¤¾", "à±ģà°Ĥà°¦à°¿.", "Ġà®ĩà®¨à¯įà®¤à®¿à®¯à®¤à¯į", "Ġà¥§à¥", "Ġà°Ńà°¾à°·", "à®¤à¯įà®¤à®¿à®±à¯įà®ķ", "Ġà¤¶à¥ģà¤°", "à®Łà¯ģà®¤à¯įà®¤à®ªà¯įà®ªà®Łà¯įà®Ł", "à¤Ĥà¤¤à¥įà¤°", "à°Łà±įà°²", "Ġà®µà¯ĩà®±", "à¥ģà¤¤", "Ġà°ªà±įà°°à°ª", "à®µà®°à¯įà®ķà®³à¯į", "Ġà¤ħà¤§", "Ġà°ªà±įà°°à°ªà°Ĥà°ļ", "à¯Ģà®¤", "Ġà¤ľà¤¿à¤¨à¥įà¤¹", "à°°à±įà°£", "à®¿à®¯à®¿à®²à¯į", "Ġà¤¬à¤¢à¤¼à¤ķà¤°", "à±įà°µà°¾à°®", "à®ķà¯įà®ķà®¿à®¯", "à°Ĥ.", "à®°à¯įà®¨à¯įà®¤", "Ġ$", "Ġà°ªà±įà°°à°¾à°Ĥà°¤à°¾à°²à±ģ", "Ġà®¤à¯ĭà®©à¯įà®±", "Ġ6", "à°ķà±įà°ķà±ģà°µ", "Ġà®ĵ", "à¥ĭà¤Ĺ", "à°¸à±įà°¤", "à¯ģà®³à¯į", "à¥ĩà¤·", "à°¾à°²à±ĭ", "à®±à¯ģà®¤", "à¤®à¤¾à¤¨", "à°°à±įà°²", "à®¿à®ª", "à¥ģà¤¨", "à°°à°®", "Ġà®ĩà®¨à¯įà®¤à¯ģ", "Ġà¤µà¤°à¥įà¤·", "à°¿à°ľ", "Ġà®ªà®¤", "à¤¾à¤Ł", "Ġà°°à°¹", "Ġà®ħà®Łà®¿à®ªà¯įà®ªà®Łà¯Īà®¯à®¾à®ķà®ķà¯į", "Ġà¤ªà¤¹", "Ġà°°à°¹à°¦", "à®Łà¯Īà®¨à¯įà®¤", "à¤²à¥ĩ", "Ġà°°à°¹à°¦à°¾à°°", "Ġà®µà®ķ", "à¤°à¥įà¤·", "Ġà°īà°¤à±įà°¤à°°", "Ġà®µà®¿à®°à®¿à®µ", "Ġà¤ĩà¤¤à¤¿à¤", "à°²à±įà°²", "Ġà®ªà¯Ĭà®°à¯ģà®³", "Ġà¤ĩà¤¤à¤¿à¤¹", "à°Ĥà°Ĺà±įà°²", "à®¾à®¤à®¾à®°", "Ġà¤ĩà¤¤à¤¿à¤¹à¤¾à¤¸", "à±ģà°ķà±ģà°Ĥà°Ł", "Ġà®ĩà®¯", "Ġà°ĩà°Ĥà°¡", "à¯įà®ªà¯įà®ª", "Ġà¤¸à¤Ńà¥įà¤¯", "à±Ģà°ª", "Ġà¤¸à¤Ńà¥įà¤¯à¤¤à¤¾", "à°¾à°Ĺ", "Ġà®®à¯Īà®¯", "à±įà°ķ", "Ġà®ħà®²à¯įà®²", "Ġà¤®à¤¾à¤¨", "Ġà°µà°¿à°µ", "Ġà®ħà®²à¯įà®²à®¤à¯ģ", "à¤¤à¤®", "à°¿à°§", "Ġà®ħà®¤à®¿à®ķà®°", "Ġà¤ħà¤µ", "¸à°¿à°Ĥà°¦à°¿.", "Ġà®ħà®¤à®¿à®ķà®°à®¿à®¤à¯įà®¤à¯ģ", "Ġà¤ľà¥ĭ", "¡à°¿", "Ġà®ªà¯Ĩà®±à¯įà®±", "à¤°à¥ĭà¤Ĥ", "Ġà°¬à±įà°°à°¿à°Ł", "à¯įà®¤à¯įà®¤", "Ġà¤¶à¤¹à¤°à¥Ģ", "à°¾à°²à°¨à±ģ", "Ġà®ķà¯ģà®±à®¿à®ķà¯įà®ķ", "à¤ķà¤¾à¤°", "à°¾à°§", "Ġà®ªà®¯à®©à¯įà®ª", "Ġà¤Ĩà¤Ĺ", "à±ģà°ķà±ĭà°µ", "Ġà¤®à¥Īà¤¦à¤¾à¤¨à¥Ģ", "¸à±įà°ķ", "à®°à¯įà®µ", "Ġà¤Ľ", "à±ĩà°¦", "Ġà®ªà¯Ĩà®°à®¿à®¯", "Ġà¤°à¤¾à¤ľà¥įà¤¯à¥ĭà¤Ĥ", "à°Łà°¿à°ķ", "Ġà®®à®ķà¯įà®ķà®³à¯į", "à¥įà¤¤à¥ģ", "à±Ĥà°ª", "Ġà®¤à¯Ĭà®ķ", "à¥įà¤¯à¥ĭà¤Ĥ", "à±įà°¸", "à¯įà®¨à¯įà®¤", "Ġà¤°à¤¾à¤ľà¤µ", "Ġà°ıà°°à±įà°ªà°¡", "Ġà®µà®Łà®ķà¯įà®ķ", "Ġà¤°à¤¾à¤ľà¤µà¤Ĥà¤¶", "à°¾à°²à±įà°²à±ĭ", "Ġà®Ĩà®ķà®¿à®¯à®µ", "Ġà¤¦à¥įà¤µ", "Ġà°ªà±įà°°à°®", "Ġà®Ĩà®ķà®¿à®¯à®µà®±à¯įà®±", "Ġà¤¦à¥įà¤µà¤¾à¤°", "¢à°¿à°²à±įà°²", "Ġà®ĩà®²", "Ġà¤¦à¥įà¤µà¤¾à¤°à¤¾", "Ġà°ħà°§à°¿à°ķà°¾à°°", "à¯įà®²", "à¤¿à¤ķà¤¾à¤°", "à°¾à°ª", "Ġà®¤à¯ģà®£à¯Īà®ķà¯įà®ķ", "Ġà¤Ĺà¤£", "à°¿à°¸à±įà°", "Ġà®¤à¯ģà®£à¯Īà®ķà¯įà®ķà®£à¯įà®Ł", "Ġà¤ħà¤Ĥà¤Ĺà¥įà¤°", "à±įà°§", "Ġà¤ħà¤Ĥà¤Ĺà¥įà¤°à¥ĩà¤ľà¤¼à¥Ģ", "à°¿à°Ĥà°ļà°¿à°¨", "Ġà®µà¯ĩà®±à¯ģà®ªà®Łà¯įà®Ł", "Ġà¤¬à¤¡à¤¼à¤¾", "Ġà°®à°¾à°¤", "Ġà®µà®Łà®¿à®µ", "Ġà¤¹à¥Ī,", "Ġà°¨à°¿à°°", "Ġà®®à®°à®ª", "Ġà¤ľà¤¬", "Ġà°°à°¾à°ľà°ķà±Ģà°¯", "à®¿à®¯à¯Ī", "Ġà¤ľà¤¨", "à°°à±įà°Ł", "Ġà®ªà®²à¯įà®µ", "à¤ªà¥Ĥà¤°à¥įà¤µ", "à°¿à°¶", "Ġà®ĩà®°à®£à¯įà®Ł", "Ġà¤ĩà¤¸à¤ķà¥ĩ", "Ġà°ľà°¨à°¾à°Ńà°¾", "Ġà®ĩà®Ł", "à¥įà¤°à¥Ģ", "Ġà°¦à±ĩà°¶à°Ĥà°²à±ĭà°¨à°¿", "à®¿à®¨à¯įà®¤à¯ģ", "à¥ģà¤¦", "à°¾à°¬à°¾à°¦", "Ġà®Ĩà®±à¯įà®±", "à¤®à¤¾", "Ġà°¸à±Įà°ķ", "à®¾à®ķà®°", "Ġà¤ĸ", "Ġà°¸à±Įà°ķà°°à±įà°¯", "Ġà®īà®°à¯ģà®µà®¾à®ķ", "Ġà¤Ńà¤¾à¤·", "Ġà°¨à°¡", "Ġà®µà®¾à®ķà¯įà®ķ", "Ġà¤¸à¤®à¥įà¤ª", "Ġà°¨à°¡à°¿à°ª", "Ġà®µà®¾à®ķà¯įà®ķà®¿à®²à¯į", "à¥ĩà¤¦", "à°Ĥà°¤à±ĭ", "à®¨à¯įà®¨", "Ġà¤°à¤ļ", "à±Ĩà°¦à±įà°¦", "Ġà®īà®±à¯ģà®¤", "Ġà¤¬à¥Į", "Ġà®ªà®¾à®°à®®à¯įà®ª", "Ġà¤¬à¥Įà¤¦à¥įà¤§", "Ġà°ķà°²à°¿à°Ĺ", "Ġà®ªà®¾à®°à®®à¯įà®ªà®°à®¿à®¯", "Ġà¤ľà¥Ī", "Ġà°®à±ģà°ĸà±įà°¯", "Ġà®ĩà®¨à¯įà®¤à®¿à®¯à®¾à®µà®¿à®²à¯į", "Ġà¤īà¤¤à¥įà¤ª", "Ġà°īà°Ĥà°¡", "à®©à®¾à®²à¯į", "Ġà¤¥à¥ĩ", "Ġà°Ńà°¾à°Ĺ", "Ġà®ļà®®à¯Ĥ", "Ġà¤°à¤¾à¤ľà¤¨à¥Ģ", "Ġà°ķà±Ĥà°¡à±ģà°ķ", "Ġà®ļà®®à¯Ĥà®ķ", "Ġà¤°à¤¾à¤ľà¤¨à¥Ģà¤¤", "à±ĩà°ķ", "à¯ģà®ķà®³à¯Ī", "Ġà¤°à¤¾à¤ľà¤¨à¥Ģà¤¤à¤¿à¤ķ", "Ġà°¹à°¿à°Ĥà°¦à±Ĥ", "Ġà®ļà¯Ĩà®¯à¯įà®¤", "à¤ķà¤°à¤£", "à±įà°°à°Ĥ,", "à¯ģà®ķà®³à®¿à®©à¯į", "Ġà¤¸à¤¾à¤®à¥įà¤°à¤¾à¤ľà¥įà¤¯à¥ĭà¤Ĥ", "Ġà°ļà±Īà°¨", "à®¾à®ª", "Ġà¤ĩà¤¸à¥įà¤²", "à°¾à°¨à±į", "à®µà®²", "Ġà¤ĩà¤¸à¥įà¤²à¤¾à¤®", "Ġà°¸à°°à°¿à°", "Ġà®ķà¯Ĥ", "Ġà¤®à¥ģ", "Ġà°¸à°°à°¿à°¹", "à¯Īà®¯à¯Ī", "à¤¸à¥įà¤²à¤¿à¤®", "Ġà°¸à°°à°¿à°¹à°¦à±įà°¦", "Ġà®¨à®Łà¯ģà®ķ", "à¤¤à¥įà¤¯", "Ġà°¸à°¿à°Ĥà°", "Ġà®¨à®Łà¯ģà®ķà¯į", "Ġà¤ħà¤¨à¥įà¤¤à¤¤", "Ġà°¸à°¿à°Ĥà°§", "Ġà®ĩà®°à®¾à®ļ", "Ġà¤ħà¤¨à¥įà¤¤à¤¤à¤", "à°°à°¿à°ķ", "Ġà®ĩà®°à®¾à®ļà¯įà®ļà®¿à®¯", "Ġà¤ħà¤¨à¥įà¤¤à¤¤à¤ĥ", "à±ģà°Ł", "Ġà®®à¯ģà®±", "Ġà¤¸à¤²", "Ġà°ķà°¾à°²à°Ĥà°²à±ĭ", "à¯ģà®ķà¯įà®ķà¯ģà®ªà¯į", "Ġà¤¸à¤²à¥įà¤¤", "Ġà°ªà±įà°°à°¸à±įà°¤", "à¯ģà®²", "Ġà¤¸à¤²à¥įà¤¤à¤¨", "Ġà°ªà±įà°°à°¸à±įà°¤à±ģà°¤", "à¯ģà®ļ", "Ġà¤¸à¤²à¥įà¤¤à¤¨à¤¤", "Ġà°ļà°¿à°¨à±įà°¨", "Ġà®Ĩà®ķà®¿à®¯à®µà¯Ī", "à¤ķà¤¾à¤²", "Ġà°¶à°¤", "Ġà®ļà®®à®µ", "Ġà¤®à¤¿à¤²à¤¾", "Ġà°¶à°¤à°¾à°¬à±įà°¦", "Ġà®ļà®®à®µà¯Ĩà®³", "Ġà¤ļà¤²", "à°¿à°·", "Ġà®Ĩà®Łà¯įà®ļà®¿à®¯", "à¤Ĥà¤ª", "à°Ĥà°ª", "Ġà®ªà¯Ĭà®°à¯ģà®³à®¾à®¤à®¾à®°", "Ġà¤ħà¤°à¥įà¤", "à°¾à°¯à°ķ", "Ġà®ħà®±à®¿à®¯", "Ġà¤ħà¤°à¥įà¤¥", "Ġà°¸à±įà°µà°¾à°¤", "à¯ģà®ķà¯įà®ķà®¿à®¯", "Ġà¤¶à¥ģà¤°à¥Ĥ", "Ġà°¸à±įà°µà°¾à°¤à°Ĥà°¤à±įà°°", "Ġà®īà®°à¯ģà®µà®¾à®©à®¤à¯ģ.", "Ġà¤ªà¥įà¤°à¤Ń", "Ġà°ľà°°à°¿à°Ĺà°¿à°¨", "Ġà®ªà¯Ĩà®°à¯ģà®®à¯įà®ª", "à¤Ĥà¤¦", "à±ĭà°°", "Ġà®µà®³à®°", "Ġà¤ķà¤°à¤¨à¥ĩ", "à°¤à°Ĥà°¤à±įà°°", "à¯Ģà®ķ", "Ġà¤¸à¥įà¤µà¤¤", "¥à°¿à°ķ", "Ġà®ħà®³à®µ", "Ġà¤¸à¥įà¤µà¤¤à¤Ĥà¤¤à¥įà¤°", "Ġà°ħà°Ń", "à®¾à®Łà¯ģ", "Ġà¤µà¤¿à¤Ń", "Ġà°ļà±Ĩà°Ĥà°¦", "Ġà®ķà®¾à®Łà¯įà®Ł", "à¤¾à¤ľà¤¿à¤¤", "à±ĩ,", "Ġà®ĩà®µà¯Ī", "Ġà¤Ĩà¤§à¤¾à¤°", "Ġà°ħà°µ", "Ġà®ļà¯Ĭ", "50", "à°¾à°¹", "Ġà®µà®°à®²", "Ġà¤ķà¤°à¥ĭà¤¡à¤¼", "à±įà°²à°¨à±ģ", "Ġà®ªà¯ģà®°", "Ġà°®à±Ĭà°¤à±įà°¤", "Ġà®ļà®¿à®±", "Ġ202", "Ġà°®à±Ĭà°¤à±įà°¤à°Ĥ", "Ġà®ªà®°à®ªà¯įà®ª", "à¤¤à¤¿", "Ġà°ªà±ĩ", "Ġà®īà®²à®ķà®¿à®©à¯į", "à¤ķà¥įà¤¤à¤¿", "à°ªà±įà°ªà°Łà°¿à°ķ", "à®¾à®ķà¯ģà®®à¯į.", "4%", "à±ĩ.", "Ġà®ĩà®¨à¯įà®¤à®¿à®¯à®ªà¯į", "à¤¿à¤ķà¥įà¤·", "à®°à¯ģà®Ļ", "Ġà¤¸à¤Ĥà¤Ĺ", "Ġà°īà°Ĥà°Ł", "à®°à¯ģà®Ļà¯įà®ķ", "Ġà¤Ńà¥Ĥà¤®", "Ġà°ķà°¨", "à¯ģà®³à¯įà®³à®©.", "Ġà¤°à¤¹à¤¾", "à°°à±įà°·", "Ġà®ªà®¾à®ķà¯įà®ķ", "à¤·à¤£", "à±ĩà°¨", "Ġà®ªà®¾à®ķà¯įà®ķà®¿à®¤à¯įà®¤", "à¥Ģ,", "Ġà°ķà±Ĥà°¡à°¾", "Ġà®ªà®¾à®ķà¯įà®ķà®¿à®¤à¯įà®¤à®¾à®©à¯į", "Ġà¤¸à¤¾à¤¥", "à±įà°µà°¤", "à¯ĩà®ļ", "Ġà¤¦à¥ĩà¤ĸ", "Ġà°¸à±įà°¥", "Ġà®ķà¯Ĭà®£à¯įà®Łà¯ģà®³à¯įà®³à®¤à¯ģ.", "à¤¤à¥įà¤¤à¤¿", "à°°à°¾à°²à±ģ", "à¯ģà®ķà®³à®¾à®©à®µà¯Ī", "Ġà¤¸à¤¿à¤Ĥ", "Ġà°ªà°Łà±įà°Łà°£", "Ġà®®à®©à®¿à®¤", "Ġà¤¸à¤¿à¤Ĥà¤§", "Ġà°İà°¨à±įà°¨à±ĭ", "Ġà®Ĩà®ªà¯įà®ª", "Ġà¤¸à¤¿à¤Ĥà¤§à¥ģ", "Ġà°¸à°¾à°Ĥà°", "Ġà®Ĩà®ªà¯įà®ªà®¿à®°", "Ġà¤ķà¤", "à±ĥà°¤", "Ġà®Ĩà®ªà¯įà®ªà®¿à®°à®¿à®ķà¯įà®ķ", "Ġà¤ħà¤¨à¥ģà¤¸", "Ġà°ªà±įà°°à°®à±ģà°", "Ġà®Ĩà®ªà¯įà®ªà®¿à®°à®¿à®ķà¯įà®ķà®¾à®µ", "Ġà¤ħà¤¨à¥ģà¤¸à¤¾à¤°", "Ġà°ªà±įà°°à°®à±ģà°ĸ", "Ġà¤µà¤Ĥà¤¶", "Ġà°¶à°¾à°¸à±įà°¤", "Ġà®Ĩà®£à¯įà®Łà¯ģà®ķà®³", "à¤¤à¤°", "à°²à±ģ,", "Ġà®Ĩà®£à¯įà®Łà¯ģà®ķà®³à¯ģà®ķà¯įà®ķà¯ģ", "à¤¾à¤¶", "à°ķà±įà°°à°®", "à®¿à®®", "à¤°à¥Ĥà¤ª", "Ġà°¸à°°à±įà°µ", "Ġà®°", "Ġà¤¤à¥Ģ", "Ġ197", "Ġà®°à¯Ģà®¤", "Ġà¤¤à¥Ģà¤¸", "Ġà°ªà±įà°°à°§à°¾à°¨à°®", "Ġà®µà®¾à®´à¯įà®µ", "Ġà¤ªà¥įà¤°à¤ļ", "Ġà°ªà±įà°°à°§à°¾à°¨à°®à°Ĥà°¤à±įà°°", "Ġà®®à¯ģà®©à¯įà®©à®°à¯į", "Ġà¤ªà¥įà¤°à¤ļà¤²", "Ġà°¨à°¿à°°à±įà°µ", "Ġà®ļà®¿à®¨à¯įà®¤à¯ģ", "Ġà¤Ĩà¤¦", "Ġà°¨à°¿à°°à±įà°µà°¹", "à®Łà®¿à®¯à®¾à®ķ", "Ġà¤®à¤¾à¤¨à¤µ", "Ġà°°à°¾à°·à±įà°Łà±įà°°à°ª", "à®¾à®ķà®°à®¿à®ķ", "Ġà¤ªà¥įà¤°à¤¾à¤ļà¥Ģà¤¨à¤¤à¤®", "Ġà°ħà°¤à±įà°¯", "Ġà¤ľà¥Ģà¤µ", "Ġà°ħà°¤à±įà°¯à°§à°¿à°ķ", "Ġà®ĵà®°à¯į", "Ġà¤ľà¥Ģà¤µà¤¨", "à±ģ,", "Ġà®Ĩà®¤", "à¤¸à¥įà¤¤", "à°¿à°¸", "Ġà®ĩà®¨à¯įà®¨", "Ġà¤¨à¤¿à¤°à¥įà¤®", "Ġà°ªà±įà°°à°¤à°¿à°ª", "à¯įà®ķà®³à®¿à®²à¯į", "Ġà¤¨à¤¿à¤°à¥įà¤®à¤¾à¤£", "à°¾à°¤à±įà°°", "Ġà®ļà¯Ĩà®¯à¯įà®", "Ġà¤ħà¤ªà¤¨à¥ĩ", "Ġà°°à±Īà°²", "Ġà®ļà¯Ĩà®¯à¯įà®¯", "à¤¾,", "Ġà°°à±Īà°²à±įà°µ", "à®¿à®ªà¯į", "à¤¾à¤¹", "Ġà°¨à°¡à°¿à°ªà°¿à°Ĥà°ļ", "Ġà®®à¯Ĭà®´à®¿à®ķà®³", "Ġà¤µà¥įà¤¯à¤¾à¤ª", "à°¦à±ĩà°¶à°Ĥ", "Ġà®ļà®¾à®¤", "à¤®à¤¨", "Ġà°ªà±Ī", "Ġà®ªà®Łà®¿", "Ġà¤®à¤¾à¤¨à¤¾", "Ġà°ªà±Īà°Ĺà°¾", "Ġà®¤à¯Ĭà®Łà®Ļà¯įà®ķà®¿à®¯à®¤à¯ģ.", "à¥Īà¤¦à¤¿à¤ķ", "à±Ģà°°à±įà°£", "Ġà®Ĵà®©à¯įà®±", "Ġà¤ķà¥ģà¤Ľ", "à°¾à°¸à±įà°µà°¾à°®", "Ġà®ķà®Ļà¯įà®ķà¯Ī", "à¤ªà¤¶à¥įà¤ļà¤¿à¤®", "à°¾à°¸à±įà°µà°¾à°®à±įà°¯", "Ġà®ļà®ķ", "Ġà¤ľà¤¾à¤¤à¤¿", "Ġà°ķà±ĩà°Ĥà°¦à±įà°°à°ª", "à®¿à®°à¯ģà®¨à¯įà®¤à®¤à¯ģ.", "à¤Łà¥ĩ", "Ġà°ķà±ĩà°Ĥà°¦à±įà°°à°ªà°¾à°²", "à¯įà®ķà®³à®¿à®©à¯į", "Ġà¤¬à¥Ģ", "Ġà°ķà±ĩà°Ĥà°¦à±įà°°à°ªà°¾à°²à°¿à°¤", "Ġà®ķà®£à¯įà®Ł", "Ġà¤¬à¥Ģà¤ļ", "Ġà°İà°ķà±įà°ķà±ģà°µ", "à¯Īà®ķà¯įà®ķà®ªà¯įà®ªà®Łà¯įà®Ł", "Ġà¤µà¤°à¥įà¤Ĺ", "Ġà°¦à±ĩà°¶à°¾à°²à°²à±ĭ", "à®¤à®¿à®²", "Ġà¤Ľà¥ĭà¤¡à¤¼", "Ġà°Ĵà°ķà°Ł", "Ġà®¤à¯Ĩà®©à¯įà®©", "à¤°à¥įà¤¶", "à±Ģà°Ł", "Ġà®¤à¯Ĩà®©à¯įà®©à®¿à®¨à¯įà®¤", "à¥Ĥà¤°", "à°ĸ", "à®¿à®¯à®¾à®µà®¿à®²à¯į", "Ġà¤ķà¤¿à¤¨", "à°ĸà°Ĥà°¡", "Ġà®ĩà®ļ", "Ġà¤ķà¤¿à¤¨à¥įà¤¤à¥ģ", "Ġà°ħà°¨à±ĩà°ķ", "à®¾à®®à¯į", "Ġà¥¬", "à°¾à°²à°¯", "Ġà®¤à¯Ĩà®±à¯įà®ķà¯ģ", "Ġà¤Ĩà¤ķà¤°à¥įà¤®", "Ġà°¦à°ķà±įà°·à°¿à°£à°¾à°¨", "Ġà®¨à®¿à®±", "Ġà¤Ĩà¤ķà¤°à¥įà¤®à¤£", "Ġà°®à°¹", "Ġà®¨à®¿à®±à¯ģà®µ", "à¤Ĩ", "Ġà°ªà°¶", "Ġà®ļà¯ĩà®°", "à¤¿à¤ķà¤¾à¤°à¤¿à¤ķ", "Ġà°ªà°¶à±įà°ļ", "Ġà®ĩà®°à®¾à®£", "Ġà¤Ĺà¤£à¤°", "Ġà°ªà°¶à±įà°ļà°¿à°®", "Ġà®ĩà®°à®¾à®£à¯ģà®µ", "Ġà¤Ĺà¤£à¤°à¤¾à¤ľà¥įà¤¯", "à°¾à°³", "à®¿à®ķà®³à¯į", "In", "à°¾à°ĸ", "Ġà®ªà®¿à®±", "à°¾à°¦à±ĩà°¶", "Ġà®ĩà®£", "Indi", "à°Ĥà°ķ", "à®ŀ", "Ġà°¦à±įà°µà±Ģà°ª", "Ġà®¨à®¿à®°", "à¤¿à¤ª", "à°¾à°²à±ģ.", "à®ĩà®²à¯į", "à¤Ĺà¥ĭà¤²", "à±ģà°²à°ķà±ģ", "Ġà®ªà¯ĩà®°à®°à®ļà¯ģ", "Ġà¤¦à¥ĥà¤·", "Ġà°¬à°¹", "à®ªà¯įà®ªà®Łà¯įà®Łà®¤à¯ģ.", "Ġà¤¦à¥ĥà¤·à¥įà¤Ł", "Ġà°µà°¿à°µà°¿à°§", "Ġà®ĩà®°à¯ģ", "Ġà¤µà¤¿à¤¶à¥įà¤µ", "Ġà®µà¯Īà®¤à¯įà®¤", "à¤ķà¤¿", "Ġà°¸à°¾à°®à±įà°°", "Ġà®ªà®¿à®°à®¿à®¤à¯įà®¤", "Ġà¤ľà¤¨à¤¸", "Ġà°¸à°¾à°®à±įà°°à°¾à°ľ", "Ġà®ªà®¿à®°à®¿à®¤à¯įà®¤à®¾à®©", "Ġà¤ľà¤¨à¤¸à¤Ĥà¤", "Ġà°ķà±Ĭ", "Ġà®®à®¾à®±à¯įà®±", "Ġà¤ľà¤¨à¤¸à¤Ĥà¤ĸ", "à°¾à°Łà±ģ", "Ġà®¨à¯ĩà®°", "Ġà¤ľà¤¨à¤¸à¤Ĥà¤ĸà¥įà¤¯", "à°¾à°²à±ģà°Ĺà°¾", "Ġà®ħà®¤à®©à¯į", "Ġà¤ľà¤¨à¤¸à¤Ĥà¤ĸà¥įà¤¯à¤¾", "Ġà°¶à°¤à°¾à°¬à±įà°¦à°Ĥ", "à®¿à®²à®¾à®©", "Ġà¤ħà¤«", "Ġà°¬à±įà°°à°¿à°Łà°¿à°·", "à®®à®¾à®©", "Ġà¤ļà¥Ģà¤¨", "Ġà°ĩà°Ĥà°¡à°¿à°¯à°¾", "Ġà®®à¯ĩà®²", "à¤¾à¤¨,", "à±ģà°ķà±ĭà°µà°¡", "à¯įà®ķà®³à¯Ī", "Ġà¤¬à¤¾à¤Ĥ", "Ġà°Ĺà°¾à°Ĥà°", "Ġà®Ĩà®£à¯įà®Łà¯ģ", "Ġà¤®à¥įà¤¯", "Ġ199", "à®¿à®°à¯ģà®¨à¯įà®¤à¯ģ", "Ġà¤®à¤¹à¤¾à¤¸", "Ġà°Ĩà°°à±įà°¥à°¿à°ķ", "Ġà®ķà¯ĭ", "Ġà¤®à¤¹à¤¾à¤¸à¤¾à¤Ĺ", "Ġà°¸à°Ĥà°¸à±įà°ķ", "à¯įà®ķà¯įà®ķ", "Ġà¤®à¤¹à¤¾à¤¸à¤¾à¤Ĺà¤°", "à±ĩà°Ĺ", "à®¿à®©à®°", "à¥Ģà¤µ,", "à±ĩà°Ĺà°Ĥà°Ĺà°¾", "à¯ģà®ķà®¿à®©à¯įà®±à®©.", "Ġà¤¶à¥įà¤°à¥Ģ", "Ġà°ħà°Ńà°¿à°µ", "Ġà®¨à®¿à®²à¯Īà®¯", "à¥ĭà¤¨à¥ĩ", "Ġà°ħà°Ńà°¿à°µà±ĥ", "Ġà®ķà¯ģà®±à®¿à®ªà¯įà®ªà®¿à®Ł", "Ġà¤¸à¥Ģ", "Ġà°ħà°Ńà°¿à°µà±ĥà°¦à±įà°§", "Ġà®ļà¯Ĭà®²à¯įà®²", "Ġà¤¸à¥Ģà¤®à¤¾", "à°°à°¾à°¸", "Ġà®ĩà®£à¯įà®Ł", "Ġà¤¬à¤Ĥà¤Ĺ", "à°°à°¾à°¸à±įà°¯", "Ġà®ªà®¯à®©à¯įà®ªà®Łà¯ģà®¤à¯įà®¤à®ªà¯įà®ªà®Łà¯įà®Ł", "Ġà¤¬à¤Ĥà¤Ĺà¤¾à¤²", "à°°à°¾à°¸à±įà°¯à°¤", "Ġà®ªà®£à¯įà®Ł", "Ġà¤ħà¤°", "à°¦à°¿.", "Ġà®¹", "Ġà¤ħà¤°à¤¬", "Ġà°Ńà°¾à°°à°¤à°¦à±ĩà°¶à°¾à°¨à°¿à°ķà°¿", "à®¿à®¨à¯įà®¤à¯ģà®", "Ġà¤Ńà¤¾à¤·à¤¾", "à°¿à°¦", "Ġà®īà®£", "à¥Ĥà¤°à¥įà¤£", "à°¾à°°à±ģ", "Ġà®ķà®¾à®²à®ªà¯į", "à¤²à¥Ģ", "à°·à±įà°", "Ġà¤ĭ", "à°·à±įà°£", "Ġà®µà®³à®°à¯įà®ļ", "Ġà¤ıà¤µ", "¡à±ģ", "Ġà®ªà®¿à®©", "Ġà¤ľà¥Īà¤¨", "Ġà°ªà°Ĥà°¡", "à®Ļà¯įà®ķà®³à®¿à®©à¯į", "à¤¨à¥įà¤¨", "Ġà°¦à±ĩà°¶à°Ĥà°²à±ĭ", "à¯Īà®µ", "Ġà¤ªà¥įà¤°à¤¾à¤°à¤®à¥įà¤Ńà¤¿à¤ķ", "Ġà°µà°¿à°¶", "à®ķà¯įà®ķà®¿", "Ġà¤īà¤¨à¤ķà¤¾", "Ġà°¹à°¿à°Ĥà°¦à±Ĥà°", "Ġà®İà®£", "à¤ľà¤¨", "à°¾à°ļ", "Ġà®İà®£à¯įà®", "Ġà¤§à¤°à¥įà¤®,", "à°¤à±įà°¸", "Ġà®İà®£à¯įà®£", "à¥Ĥà¤¦", "à±Ĥ.", "à®¾à®°à¯į.", "Ġà¤ªà¤¾à¤°", "à°°à±įà°Ĺ", "Ġà¤¤à¤Ł", "à±ĭà°³", "Ġà®İà®©à¯įà®ªà®¤à¯ģ", "Ġà¤¤à¤Łà¥ĭà¤Ĥ", "Ġà°ĸ", "Ġà®¤à¯Ĩà®±à¯įà®ķà®¾à®ļà®¿à®¯à®¾à®µ", "Ġà¤®à¥ģà¤¸à¥įà¤²à¤¿à¤®", "à±ĩà°¤", "Ġà®Ĩà®ķà¯ģà®®à¯į.", "Ġà¤®à¥Īà¤¦à¤¾à¤¨à¥ĭà¤Ĥ", "à°µà°¿", "à¯Ĥà®°à¯įà®µ", "Ġà¤²à¤Ĺà¤¾à¤¤", "Ġà°¢à°¿à°²à±įà°²", "li", "Ġà¤²à¤Ĺà¤¾à¤¤à¤¾à¤°", "Ġà°Ĳ", "Ġà®ı", "Ġà¤ħà¤¤à¥įà¤¯", "à±ģà°¨à±įà°¨à°¾à°°à±ģ.", "Ġà®¤à¯Ĩà®±à¯įà®ķà¯ĩ", "à¤¾à¤ļà¤¾à¤°", "à°¿à°ķ,", "Ġà®ªà¯Ĩà®°à¯ģà®Ļà¯įà®ķ", "Ġà¤ķà¤¿à¤¯à¤¾,", "Ġà°¸à°Ńà±įà°¯", "à®Łà®²", "Ġà¤¦à¤¿à¤²", "Ġà°¨à±įà°¯", "Ġà®¤à¯Ĩà®©à¯į", "Ġà¤¦à¤¿à¤²à¥įà¤²", "Ġà°¨à±įà°¯à°¾à°¯", "Ġà®ķà®¿à®´à®ķà¯įà®ķà¯ĩ", "Ġà¤¦à¤¿à¤²à¥įà¤²à¥Ģ", "Ġà°²à±ĭà°ķ", "Ġà®µà®Ļà¯įà®ķ", "Ġà¤®à¤§à¥įà¤¯à¤ķà¤¾à¤²", "Ġà°¸à°Ĥà°ķ", "Ġà®µà®Ļà¯įà®ķà®¾à®³", "Ġà¤®à¤§à¥įà¤¯à¤ķà¤¾à¤²à¥Ģà¤¨", "à°¿à°¨à°¿", "à®¾,", "Ġà¤µà¤¿à¤ľ", "Ġà°ļà±ĩà°¯", "à®®à¯į,", "Ġà¤²à¤Ĥà¤¬", "Ġà°ħà°¨à°¿", "Ġà®®à®¿à®¯à®¾à®©", "Ġà¤²à¤Ĥà¤¬à¥ĩ", "Ġà°ķà±ĭà°°à±įà°Ł", "Ġà®®à®¿à®¯à®¾à®©à¯įà®®", "Ġà¤ļà¤²à¤¨à¥ĩ", "Ġà°¸à±Ĥà°", "Ġà®®à®¿à®¯à®¾à®©à¯įà®®à®°à¯į", "Ġà¤µà¤¾à¤²à¥Ģ", "Ġà°µà°¹", "Ġà®İà®²à¯įà®²", "Ġà¤¬à¤¨à¤¾à¤Ī", "Ġà°ķà±ĩà°Ĥà°¦à±įà°°", "à¯Īà®ķà®³à¯Ī", "Ġà¤ªà¤Ĥà¤", "Ġà°ľà°¾à°¤à±Ģà°¯", "à¯įà®¨à¯įà®¤à¯ģ", "Ġà¤ªà¤Ĥà¤ľ", "Ġà°ķà°¾à°Ĥà°Ĺà±įà°°à±Ĩà°¸à±ģ", "Ġà®¤à¯Ģ", "Ġà¤ªà¤Ĥà¤ľà¤¾à¤¬", "Ġà®ķà®Ł", "à¤§à¥Ģà¤°à¥ĩ", "Ġà°µà°¾à°¤", "Ġà®Ĩà®ªà¯įà®ªà®¿à®°à®¿à®ķà¯įà®ķà®¾à®µà®¿à®²à¯į", "Ġà¤ħà¤°à¥įà¤¥à¤µ", "Ġà°µà°¾à°¤à°¾à°µ", "à®¤à¯įà®¤à®¿à®±à¯įà®ķà¯ģ", "Ġà¤ħà¤°à¥įà¤¥à¤µà¥įà¤¯", "Ġà°µà°¾à°¤à°¾à°µà°°à°£", "Ġà®¤à¯Ĭà®Łà®ķà¯įà®ķà®¤à¯įà®¤à®¿à®²à¯į", "Ġà¤ħà¤°à¥įà¤¥à¤µà¥įà¤¯à¤µà¤¸à¥įà¤¥à¤¾", "Ġà°µà°¾à°¤à°¾à°µà°°à°£à°Ĥ", "Ġà®µà®Łà®¿à®µà®Ļà¯įà®ķà®³à®¿à®²à¯į", "à¥ģà¤¤à¤¾", "Ġà°ªà°¾à°ķà°¿à°¸à±įà°", "Ġà®¨à¯Ģà®£à¯įà®Ł", "Ġà¤ªà¥įà¤°à¤Ńà¤¾à¤µ", "Ġà°ªà°¾à°ķà°¿à°¸à±įà°¥à°¾à°¨", "à®±à¯įà®±à¯ģà®®", "à¤¹à¤¿à¤", "à°¾à°¦à°¨", "Ġà®īà®Łà¯Īà®¯", "Ġà¤µà¤¿à¤°", "Ġà°ªà°¾à°¤à±įà°°", "Ġà®ĩà®ªà¯įà®ª", "Ġà¤µà¤¿à¤°à¥ĭ", "Ġà°®à±Ĥà°¡", "à®ķà¯Ī", "Ġà¤µà¤¿à¤°à¥ĭà¤§", "Ġà°¨à°Ĺ", "à®ķà¯Īà®®", "Ġà¤ķà¤¾à¤°", "Ġà°®à±ģà°Ĥà°", "Ġà®ķà®¾à®°", "0%", "Ġà®ķà®¾à®°à®£", "à¥įà¤µà¥ĭà¤Ĥ", "Ġà°¸à°°à±įà°µà±Ģ", "Ġà®īà®³à¯įà®³à®¤à¯ģ.", "Ġà¤µà¤¿à¤Ńà¤¾à¤ľà¤¿à¤¤", "Ġà°¸à°°à±įà°µà±Ģà°¸", "Ġà®®à¯ĩà®±à¯įà®ķà¯ģ", "Ġà¤ħà¤§à¤¿à¤°", "Ġà°°à±Īà°³", "Ġà®ªà®Łà®¿à®ªà¯įà®ª", "Ġà¤ħà¤§à¤¿à¤°à¤¾à¤ľà¥įà¤¯", "Ġà°°à±ĭ", "Ġà®ªà®Łà®¿à®ªà¯įà®ªà®Łà®¿à®¯à®¾à®ķ", "Ġà¤ľà¤¿à¤¨à¥įà¤¹à¥ĩà¤Ĥ", "Ġà°°à±ĭà°¡", "Ġà®ħà®Łà¯Īà®¨à¯įà®¤", "Ġà¤¸à¤Ĥà¤", "Ġà°°à°¹à°¦à°¾à°°à±ģà°²à±ģ,", "Ġà®¨à®¾à®ķà®°à®¿à®ķ", "Ġà¤¸à¤Ĥà¤ĺ", "à°Ńà°¾à°°à°¤", "Ġà®Ĩà®¯", "à°¾à°¤à±ĭ", "Ġà®Ĩà®£à¯įà®Łà®¿à®²à¯į", "6.", "Ġà°®à±Ĭà°¦à°Łà°¿", "Ġà®īà®°à¯ģà®µà®¾à®ķà®¿à®¯à®¤à¯ģ.", "1.", "Ġà°¸à±įà°¥à°¾à°¨à°Ĥà°²à±ĭ", "200", "à¤ķà¥Ģ", "Ġà°µà°¿à°¸à±įà°¤", "Ġà®ļà®®à®ļ", "Ġà¤¦à¤°", "Ġà°ħà°¤à°¿", "Ġà®ļà®®à®ļà¯ģà®ķ", "Ġà°ªà±Ĩà°¦à±įà°¦", "Ġà®ļà®®à®ļà¯ģà®ķà®¿à®°", "Ġà¤ªà¥ģà¤°", "Ġà°ªà±įà°°à°ľà°¾à°¸à±įà°µà°¾à°®à±įà°¯", "Ġà®ļà®®à®ļà¯ģà®ķà®¿à®°à¯ģà®¤", "à¥ģà¤·", "Ġà°ªà°¾à°²à°¨", "Ġà®µà®Łà®®", "Ġà¤¬à¤¢à¤¼à¤¤à¥Ģ", "Ġà°¸à°®à°¾à°", "Ġà®µà®Łà®®à¯ĩ", "Ġà¤ªà¥įà¤°à¥Į", "Ġà°¸à°®à°¾à°ĸà±įà°¯", "Ġà®µà®Łà®®à¯ĩà®±à¯įà®ķ", "Ġà¤ªà¥įà¤°à¥Įà¤¦", "Ġà°ķà°²à°¿à°Ĺà°¿", "à¯ģà®ķà¯įà®ķà¯ģà®³à¯į", "Ġà¤ªà¥įà¤°à¥Įà¤¦à¥įà¤¯", "Ġà°Ĵà°ķà°Łà°¿à°Ĺà°¾", "Ġà®Ĩà®¤à®¾à®°", "Ġà¤ªà¥įà¤°à¥Įà¤¦à¥įà¤¯à¥ĭà¤Ĺ", "à°ķà±įà°¤", "Ġà®ļà®®à®¯à®ªà¯į", "Ġà¤ªà¥įà¤°à¥Įà¤¦à¥įà¤¯à¥ĭà¤Ĺà¤¿à¤ķ", "à±ĩà°²", "Ġà®ªà®¤à®¿à®µ", "Ġà¤ķà¥ĩà¤Ĥ", "Ġà°īà°ªà°ĸà°Ĥà°¡", "Ġà®¤à®¿à®°", "Ġà¤ķà¥ĩà¤Ĥà¤¦", "à±ģà°²à±ĭ", "Ġà®µà®Łà®ķà¯įà®ķà¯ģ", "Ġà¤ķà¥ĩà¤Ĥà¤¦à¥įà¤°", "à°¾à°°à°¿à°¤", "Ġà®¨à®¿à®²à¯Ī", "à¤²à¥įà¤²", "Ġà°µà°¾à°£", "Ġà®ħà®®à¯Īà®ªà¯įà®ªà¯ģ", "à¥ĩà¤ĸà¤¨", "Ġà°µà°¾à°£à°¿à°ľ", "à®¤à¯įà®¤à®¿à®±à¯įà®ķà¯ģà®³à¯į", "Ġà¤«à¤¼", "Ġà°µà°¾à°£à°¿à°ľà±įà°¯", "Ġà®ªà¯Į", "à¥Ģà¤¤", "à±ģà°²à°¨à±ģ", "Ġà®ªà¯Įà®¤à¯įà®¤", "à¤¾à¤¤à¥įà¤®", "Ġà°¹à°¿à°®", "à¯įà®ªà®±à¯įà®±", "Ġà¤¶à¤¿à¤ķà¥įà¤·", "Ġà°¹à°¿à°®à°¾à°²à°¯", "Ġà®ħà®°à®ļà®¿à®¯à®²à¯į", "Ġà¤µà¤¿à¤¶à¥ĩà¤·", "Ġà°ªà°¾à°ķà°¿à°¸à±įà°¤", "Ġà®Ĵà®©à¯įà®±à®¿à®£", "Ġà¤Ĺà¤¼", "Ġà°¬à°Ĥà°Ĺà±įà°²", "¨à¯įà®¤à®¿à®¯", "Ġà¤Ĺà¤¼à¤°à¥Ģ", "Ġà°¬à°Ĥà°Ĺà±įà°²à°¾à°¦à±ĩà°¶", "à®¿à®°à®¾à®¤", "Ġà¤Ĺà¤¼à¤°à¥Ģà¤¬", "à±Ĥà°Ł", "Ġà®®à¯Į", "Ġà¤µà¤¿à¤µ", "Ġà°¶à±įà°°à±Ģ", "Ġà®®à¯Įà®°à®¿à®¯", "Ġà¤µà¤¿à¤µà¤¾à¤¦", "à±Ģà°µ", "Ġà®ķà¯ģà®ª", "Ġà¤²à¥ĩ", "à±įà°Ĺ", "Ġà®ķà¯ģà®ªà¯įà®¤", "Ġà¤²à¥ĩà¤ķà¤°", "Ġà°¨à°¾à°Ĺ", "à®¾à®ķà®¤à¯į", "Ġà¤¬à¤¾à¤²", "Ġà°¨à°¾à°Ĺà°°à°¿à°ķ", "Ġà®ļà®ķà®¾à®ª", "à¥ĭà¤·à¤£", "Ġà°¨à°¾à°Ĺà°°à°¿à°ķà°¤", "Ġà®ļà®ķà®¾à®ªà¯įà®¤", "à¥ĭà¤·à¤£,", "à±ģà°Łà±įà°Ł", "Ġà®ªà®°à®µà®²", "Ġà¤ªà¥įà¤°à¤¦", "Ġà°¸à°¾à°®à±įà°°à°¾à°ľà±įà°¯", "Ġà®Ĩà®©à®¾à®²à¯į", "Ġà¤µà¤¨", "à°¿à°Ĥà°ļà°¿,", "à¯Ģà®´", "Ġà¤ªà¤°à¤Ĥà¤ª", "à°¾à°²à°¤à±ĭ", "à®Ļà¯įà®ķà¯ģ", "Ġà¤ªà¤°à¤Ĥà¤ªà¤°", "à°°à°¿", "Ġà®¤à¯Ĩà®©à¯įà®©à®¿à®¨à¯įà®¤à®¿à®¯à®¾à®µà®¿à®²à¯į", "Ġà¤¦à¥ĩà¤ĸà¤¾", "Ġà®¤à¯Ĩà®©à¯įà®ķ", "Ġà¤ĩà¤¨", "Ġà°¨à±ģà°Ĥà°¡à°¿", "Ġà®¤à¯Ĩà®©à¯įà®ķà®¿à®´à®ķà¯įà®ķ", "Ġà¤¨à¤¿à¤µ", "Łà±į", "Ġà®Ĩà®ļ", "Ġà¤¨à¤¿à¤µà¤¾à¤¸", "Ġà°ķà°Ĥà°ª", "à¯ģà®ļà¯į", "Ġà¤ķà¤²", "Ġà°ķà°Ĥà°ªà±Ĩà°¨", "Ġà®µà®¿à®Łà¯įà®Ł", "Ġà¤Ĺà¤ı", "à±Ģà°·", "Ġà®¤à®¾à®ķà¯įà®ķ", "à¥ĭà¤¹", "Ġà°ķà°¿à°Ĥà°¦", "Ġà®¨à¯Ģà®Ł", "Ġà¤¸à¤Ĥà¤Ĺà¤®", "Ġà°Ĺà°¾à°Ĥà°§", "à®ŀà¯įà®ļ", "à¤®à¥ĩà¤Ĥ", "Ġà°Ĺà°¾à°Ĥà°§à±Ģ", "à®³à®µà®¿à®²à¯į", "à¥įà¤ªà¤¤à¥įà¤¤à¤¿", "Ġà°ħà°¹", "Ġà®ķà®Łà¯įà®Łà®Ł", "Ġà¤µà¤°à¥įà¤£", "Ġà®ªà®¿à®°à®¿à®¤à¯įà®¤à®¾à®©à®¿à®¯", "Ġà¤µà¤°à¥įà¤£à¤¿à¤¤", "à¯ĩà®±à¯įà®±", "Ġà¤®à¤¨", "Ġà°¸à±įà°µà°¤à°Ĥà°¤à±įà°°", "Ġà®¨à¯ĩà®°à®¤à¯įà®¤à®¿à®²à¯į", "à¥ĩà¤Ł", "Ġà°¦à±ĩà°¶à°Ĥà°Ĺà°¾", "Ġà®ķà¯ģà®Łà¯ģà®®à¯įà®ª", "Ġà¤¸à¤®à¥įà¤°", "à±Ĩà°Ł", "Ġà®µà®¿à®Ł", "Ġà¤¸à¤®à¥įà¤°à¤¾à¤Ł", "Ġà°Ĩà°§", "Ġà®ĩà®¯à®ķà¯įà®ķ", "Ġà¤®à¤¤", "Ġà°µà±ĩà°Ĺà°Ĥà°Ĺà°¾", "Ġà®İà®¤", "Ġà¤ªà¥įà¤°à¤ķ", "Ġà°ħà°Ńà°¿à°µà±ĥà°¦à±įà°§à°¿", "Ġà®İà®¤à®¿à®°", "Ġà¤ªà¥įà¤°à¤ķà¤¾à¤¶", "Ġà°¨à°¿à°", "Ġà®®à¯ģà®Ł", "Ġà¤¯à¤¾", "à°¿à°¨à±Ģ", "Ġà®®à¯ģà®ķà¯įà®ķà®¿à®¯", "Ġà¤¹à¤¿à¤¨à¥įà¤¦à¥ģà¤¸", "Ġà°µà°Ĥà°Ł", "47", "Ġà¤¹à¤¿à¤¨à¥įà¤¦à¥ģà¤¸à¥įà¤¤à¤¾à¤¨", "Ġà°µà°Ĥà°Łà°¿", "Ġà®ħà®°à®ļà¯ģ", "Ġà¤ľà¤¿à¤¸à¤ķà¤¾", "à±Ĥà°°à±įà°µ", "Ġà®İà®©", "Ġà¤Ńà¥Ĥà¤®à¤¿", "à°Łà±įà°²à±ģ", "Ġà®ªà®¿à®°à®¿à®ķà¯įà®ķà®ªà¯įà®ªà®Łà¯įà®Ł", "à¤°à¤¾à¤¨", "à°ļà±įà°ļà±ģ.", "Ġà®īà®¯à®¿à®°", "Ġà¤ªà¥įà¤°à¤ļà¤²à¤¿à¤¤", "Ġà°ľà°Ĥà°", "Ġà¤ªà¤¹à¤²à¥ĩ", "Ġà°ľà°Ĥà°¬", "Ġà®®à¯Ĥ", "¡à¤¼", "Ġà°ľà°Ĥà°¬à±Ĥ", "Ġà®¨à®¿à®°à¯įà®µ", "Ġà¤®à¤¹à¤¾à¤", "à°¬à°¡à°¿à°¨", "à®ħ", "Ġà¤µà¤°à¥įà¤¤", "à°²à°²à±ĭ", "Ġà®īà®¯à®°à¯įà®¨à¯įà®¤", "Ġà¤µà¤°à¥įà¤¤à¤®à¤¾à¤¨", "Ġ(à°", "Ġà®µà®°à¯ģà®®à¯į", "Ġà¤ķà¤Ī", "à±ĭà°¦", "Ġà®ªà®²à¯įà®µà¯ĩ", "Ġà¤ĺà¤¾à¤Ł", ").", "Ġà®ªà®²à¯įà®µà¯ĩà®±", "Ġà¤ĺà¤¾à¤Łà¥Ģ", "Ġà°ħà°Ĥà°Ł", "Ġà®ªà®²à¯įà®µà¯ĩà®±à¯ģ", "Ġà¤ļà¤°", "Ġà°²à±ĩà°¦", "à®®à®¿à®Ł", "Ġà°²à±ĩà°¦à°¾", "à®¾à®£à¯įà®Łà®¿à®¯", "Ġà¤Ĩà¤§à¥ģà¤¨", "Ġà°µà°ļà±įà°ļà°¿à°¨", "Ġà®ħà®®à¯Īà®ªà¯įà®ªà¯Ī", "Ġà¤Ĩà¤§à¥ģà¤¨à¤¿à¤ķ", "à°¿à°¤à±įà°°", "Ġà®ªà®£à¯įà®ªà®¾à®Łà¯įà®Łà®¿à®²à¯į", "à¥įà¤ŀ", "Ġà°¹à°¿à°Ĥà°¦à±Ĥà°¦à±ĩà°¶", "à¯įà®®à¯Ī", "Ġà¤ħà¤µà¤¶", "à±Ĥà°¨", "Ġà®ļà®¿à®²", "Ġà¤ħà¤µà¤¶à¥ĩà¤·", "à±ģà°¤à±ĭ", "à®¿à®¯à®¿à®©à¯į", "Ġà¤ªà¥įà¤°à¤", "Ġà°°à±Ĥà°ª", "Ġà¤Ĩà¤¤à¥ĩ", "à°°à°Ĥ", "Ġà®ķà¯ģà®±à®¿à®ķà¯įà®ķà®ªà¯į", "Ġà¤ªà¤¾à¤²", "Ġà°ħà°¨à±ĩ", "Ġà®ķà®¿à®°", "Ġà¤¥à¤¾,", "à°¾à°°à°¿", "Ġà®ķà®¿à®°à¯ĩ", "Ġà¤µà¤¿à¤ķ", "Ġà°ªà±Ĭ", "Ġà®ķà®¿à®°à¯ĩà®ķà¯įà®ķ", "Ġà¤¹à¥ģà¤ı,", "Ġà°°à±Ĩà°Ĥà°¡à±ģ", "à¤¾à¤µà¥Ģà¤°", "Ġà°Ĺà±ģà°°", "Ġà¤¶à¤¹à¤°à¥ĭà¤Ĥ", "Ġà°Ĺà±ģà°°à±įà°¤", "·à¤¾à¤£", "à±ģà°¨à°¿", "Ġà¤Ĩà¤Ĺà¤®à¤¨", "Ġà°ªà±įà°°à°¾à°ļ", "Ġà¤µà¥Īà¤¦à¤¿à¤ķ", "Ġà°ªà±įà°°à°¾à°ļà±Ģà°¨", "Ġà¤¸à¥įà¤¥à¤¾à¤¨", "Ġà°®à±Ĭà°Łà±įà°Ł", "Ġà¤ħà¤µà¤§", "Ġà°®à±Ĭà°Łà±įà°Łà°®", "Ġà®ªà®£à¯įà®Łà¯Īà®ķà¯į", "Ġà¤ħà¤µà¤§à¤¿", "Ġà°®à±Ĭà°Łà±įà°Łà°®à±Ĭ", "Ġà®¹à®¿à®¨à¯įà®¤à¯ģà®", "à¥ĭà¤Łà¥ĩ", "Ġà°®à±Ĭà°Łà±įà°Łà°®à±Ĭà°¦", "Ġà®İà®©à¯įà®ªà®¤", "Ġà¤īà¤¨à¤ķà¥ĩ", "Ġà°®à±Ĭà°Łà±įà°Łà°®à±Ĭà°¦à°Łà°¿", "Ġà¤ķà¥ģà¤²", "Ġà®µà®°à®²à®¾à®±à¯įà®±", "Ġà¤ķà¥ģà¤²à¥Ģà¤¨", "Ġà°¸à°Ĥà°µ", "à®°à¯įà®·", "Ġà¤¶à¤¹à¤°à¥Ģà¤ķà¤°à¤£", "Ġà°¸à°Ĥà°µà°¤à±įà°¸", "Ġà®ªà®ķà¯ģà®¤à®¿", "Ġà¤§à¤°à¥įà¤®à¥ĭà¤Ĥ", "Ġà°ıà°°à±įà°ªà°¡à±įà°¡", "¸à¯įà®¤", "Ġà¤Ĩà¤§à¤¾à¤°à¤¿à¤¤", "à°ªà±Ĥ.", "Ġà®¤à¯ģà®£à¯Īà®ķà¯į", "à¤¾à¤¯", "Ġà°¨à°¿à°¯", "à®¤à®±à¯įà®ķ", "Ġà¤Ľà¥ĭà¤¡à¤¼à¤ķà¤°", "Ġà°µà°¿à°§", "Ġà®īà®³à¯įà®³à®Ł", "Ġà¤¸à¤Ńà¥Ģ", "Ġà°ķà±įà°°à±Ģ", "à®¾à®±à¯ģ", "Ġà¤²à¥ĭà¤Ĺ", "Ġà°ķà±įà°°à±Ģ.", "à®ªà¯įà®ªà®Ł", "Ġà¤²à¥ĭà¤Ĺà¥ĭà¤Ĥ", "Ġà®ħà®µà®°à¯įà®ķà®³à¯į", "Ġà¤Ĩà¤ķà¤°à¥įà¤·", "à±ĩà°µ", "Ġà®ķà®¾à®²à®¤à¯įà®¤à®¿à®²à¯į", "Ġà¤Ĩà¤ķà¤°à¥įà¤·à¤¿à¤¤", "Ġà°ļà±ĩà°¸à°¿à°Ĥà°¦à°¿.", "Ġà®¨à®ķà®°à¯įà®ªà¯įà®ª", "Ġà¤¦à¥ĭà¤¨", "à°¾à°Ĥà°¡", "Ġà®¨à®ķà®°à¯įà®ªà¯įà®ªà¯ģà®±", "Ġà¤¦à¥ĭà¤¨à¥ĭà¤Ĥ", "Ġà°®à±Ĭà°¦à°²", "Ġà®ªà®£à¯įà®ªà®¾à®Łà¯ģ", "Ġà¤Ĩà¤¦à¤°à¥įà¤¶", "Ġà°ªà°¾à°²", "à®Ļà¯įà®ķà®³à¯ģà®ķà¯įà®ķà¯ģ", "à¤ł", "Ġà°¶à°¾à°¸à±įà°¤à±įà°°à°Ĥ,", "à®Ļà¯įà®ķà®³à¯Ī", "Ġà¤¤à¥Ģà¤¸à¤°à¥Ģ", "Ġà°Ĺà°£", "Ġà®ķà¯Ĭà®£à¯įà®Łà¯ģ", "Ġà¤®à¤Ĺ", "à°Ĺà±ĭà°³", "Ġà®µà®£", "Ġà¤®à¤Ĺà¤§", "Ġà°¸à°¹", "Ġà®µà®£à®¿à®ķ", "Ġà¤ªà¥Ĥà¤°", "à°¸à±įà°°", "Ġà®Ī", "Ġà¤ªà¥Ĥà¤°à¥ĩ", "à±ģà°°à±ģà°", "à®Ļà¯įà®ķà®³à®¾à®©à®µà¯Ī", "Ġà¤¸à¥įà¤¥à¤¾à¤ªà¤¿à¤¤", "à±ģà°°à±ģà°·", "Ġà®ĩà®ķà¯įà®ķà®¾à®²à®¤à¯įà®¤à®¿à®©à¯į", "Ġà¤°à¤¾à¤ľà¤¾à¤ĵà¤Ĥ", "à±ģà°¨à±įà°¨à°¾à°¯à°¿.", "Ġà®ķà®Ļà¯įà®ķà¯Īà®ļà¯į", "Ġà¤¸à¤¤à¤°", "à°°à±ĭ", "à®¿à®©à¯įà®±à®©à®°à¯į.", "à¥ģà¤ķà¥įà¤¤", "à°ªà°¾", "à®¿à®°à¯ģà®¨à¯įà®¤à®¤à¯ģ", "Ġà¤¸à¥ĩà¤¨à¤¾", "Ġà°Ĩà°ķà±įà°°à°®", "Ġà®ļà®¾à®¤à®¿", "à¤µà¥Ģ", "Ġà°¸à±įà°µà°¾à°¤à°Ĥà°¤à±įà°°à±įà°¯", "Ġà®ħà®®à¯Īà®ªà¯įà®ªà®¾à®©à®¤à¯ģ", "à¥įà¤°à¤®", "à°¿à°¦à±įà°§", "Ġà®¤à®²à¯Ī", "Ġà¤ªà¤°à¤¿à¤£", "Ġà®ļà®¿à®±à®¿à®¯", "Ġà¤ªà¤°à¤¿à¤£à¤¾à¤®", "Ġà°µà°¿à°Ń", "à®°à¯įà®¨à¯įà®¤à¯ģ", "Ġà¤ªà¤°à¤¿à¤£à¤¾à¤®à¤¸", "à°²à°¨à±ģ", "à®®à®¯", "Ġà¤ªà¤°à¤¿à¤£à¤¾à¤®à¤¸à¥įà¤µ", "Ġà°¤à°¨", "à¯įà®ļà®¿à®ķà¯įà®ķ", "Ġà¤ªà¤°à¤¿à¤£à¤¾à¤®à¤¸à¥įà¤µà¤°à¥Ĥà¤ª", "Ġà°²à°ķà±įà°·", "Ġà®ļà®®à®¯à®Ļà¯įà®ķà®³", "Ġà¤Ĩà¤Ĺà¥ĩ", "5,", "Ġà®īà®°à¯ģà®µà®¾à®¯", "à¤¾à¤¯à¤¾", "Ġà°ªà±įà°°à°§à°¾à°¨à°®à°Ĥà°¤à±įà°°à°¿", "Ġà®īà®°à¯ģà®µà®¾à®¯à®¿à®©.", "Ġà¤¤à¤®", "à°¾à°°à°£", "à®°à®¿à®©à¯į", "Ġà¤¤à¤®à¤¿à¤²", "à°¾à°°à°£à°Ĥà°Ĺà°¾", "Ġà®ªà¯ģà®¤à¯įà®¤", "Ġà¤¸à¤¾à¤¹", "Ġà°Ńà°¾à°°à°¤à±į", "à¯Īà®¤à¯įà®¤à¯ģ", "Ġà¤¸à¤¾à¤¹à¤¿à¤¤", "Ġà°Ĩà°°à±įà°§", "Ġà®¤à¯ģà®±", "Ġà¤¸à¤¾à¤¹à¤¿à¤¤à¥įà¤¯", "Ġà°Ĩà°°à±įà°§à°¿à°ķ", "Ġà®¤à¯Ĭà®²à¯Ī", "à°²à°¤à±ĭ", "Ġà®ķà®Łà¯įà®Łà¯ģà®ªà¯įà®ª", "Ġà¤ļà¥ĭà¤²", "Ġà°°à°¾à°ľà±įà°¯à°¾à°Ĥà°Ĺ", "Ġà®ķà®Łà¯įà®Łà¯ģà®ªà¯įà®ªà®¾à®Łà¯įà®Ł", "Ġà¤ªà¤¾à¤Ĥ", "Ġà°ªà±įà°°à°ķ", "Ġà®¤à®®", "Ġà¤ªà¤¾à¤Ĥà¤¡", "Ġà°ªà±įà°°à°ķà°¾à°°à°Ĥ", "Ġà®µà®´à®¿", "à¤¶à¤¾à¤¸", "Ġà°¨à°¿à°°à±įà°µà°¹à°£", "Ġà®ªà¯ģà®¤", "Ġà¤ªà¥įà¤°à¤£", "Ġà°¦à±įà°µà°¾à°°", "à®µà®°", "Ġà¤ªà¥įà¤°à¤£à¤¾à¤²à¥Ģ", "Ġà°¦à±įà°µà°¾à°°à°¾", "Ġà®¨à¯ĭ", "Ġà¤¬à¤¾à¤¦", "Ġà°°à°¾à°·à±įà°Łà±įà°°à°ªà°¤à°¿", "Ġà®¨à¯ĭà®ķà¯įà®ķà®¿", "Ġà¤Ńà¤ķà¥įà¤¤à¤¿", "Ġà°ªà°¦", "Ġà®µà®¿à®°à®¿à®µà®Łà¯Īà®¯", "à¥įà¤¤à¥įà¤°", "à±ĩà°ľ", "Ġà®®à¯ģà®¯", "Ġà¥¬à¥¦", "Ġà°ķà°¾à°°", "Ġà®®à¯ģà®¯à®±", "Ġà¥§à¥¨", "Ġà°ķà°¾à°°à±įà°¯", "Ġà®¤à¯ĭà®±à¯įà®ķ", "Ġà¥§à¥¨à¥¦", "à±įâĢĮà°¸", "Ġà®¤à¯ĭà®±à¯įà®ķà®Ł", "Ġà¤¸à¤¾à¤Ĥ", "Ġà°¸à°Ĥà°ķà±Ģà°°à±įà°£", "Ġà®¤à¯ĭà®±à¯įà®ķà®Łà®¿à®ķà¯įà®ķà®ªà¯įà®ªà®Łà¯įà®Ł", "Ġà¤¸à¤¾à¤Ĥà¤¸à¥įà¤ķà¥ĥà¤¤", "à°®à°¿à°Ĥà°ļ", "à®ĩà®¨à¯įà®¤", "Ġà¤¸à¤¾à¤Ĥà¤¸à¥įà¤ķà¥ĥà¤¤à¤¿à¤ķ", "Ġà°®à°Ĥà°¤à±įà°°", "à®ĩà®¨à¯įà®¤à®¿à®¯à®¾", "à¥įà¤¥à¤¾à¤¨", "à°¾à°°à°¿à°Ĺà°¾", "à®Ļà¯įà®ķà®¿à®²", "à¥¬", "à°ļà±ĩ", "Ġà¤īà¤¸", "Ġà°Ńà°¾à°°à°¤à°¦à±ĩà°¶à°ªà±ģ", "Ġà¤ªà¥įà¤°à¤¯", "à±ģà°ķà±ģà°Ĥà°Łà°¾à°°à±ģ.", "ĠIndi", "Ġà¤ªà¥įà¤°à¤¯à¤¾à¤¸", "Ġà°¹à±Ī", "Ġà¤ļà¤¾à¤²", "Ġà°¸à±Ĥà°ļ", "ĠIndia)", "Ġà¤ļà¤¾à¤²à¥ģà¤ķ", "Ġà°°à°ķ", "Ġà®¤à¯Ĩà®±à¯įà®ķà®¾à®ļà®¿à®¯à®¾à®µà®¿à®²à¯į", "Ġà¤ļà¤¾à¤²à¥ģà¤ķà¥įà¤¯à¥ĭà¤Ĥ", "à±ģà°¨à±ģ", "Ġà®ħà®¤à®¿à®ķà®¾à®°", "Ġà¤īà¤¸à¥ĩ", "Ġà°ķà±ĭà°²", "Ġà®ķà¯ģà®Łà®¿à®¯à®°à®ļ", "Ġà¤¶à¤¾à¤¸à¤ķ", "Ġà°İà°¨à±įà°¨à°¿à°ķ", "Ġà®ħà®´", "Ġà¤īà¤¨à¥įà¤¹", "Ġà°Ĺà±Ĩà°²", "à®³à®µà¯ģ", "Ġà¤īà¤¨à¥įà¤¹à¥ĩà¤Ĥ", "Ġà°ķà°²à°¿à°¸", "Ġà®ħà®Łà®¿à®ªà¯įà®ªà®Łà¯Īà®¯à®¿à®²à¯į", "Ġà¤ľà¤¾", "à°®à±Ī", "à®¾à®µà®¤à¯ģ", "Ġà¤ķà¥ĥà¤·", "à°¾à°Ĺà°¾", "Ġà®®à®¿à®ķà®ªà¯į", "Ġà¤µà¥įà¤¯à¤µà¤¸à¥įà¤¥à¤¾", "à°²à±įà°²à±ĭ", "Ġà®¤à¯Ĭà®ķà¯Īà®¯", "à¤¸,", "Ġà°®à°¾à°¤à±įà°°à°Ĥ", "à®¤à¯įà®¤à¯Īà®ķà¯į", "Ġà¤¬à¤¾à¤°", "Ġà°Ńà±Į", "Ġà®ĩà®¤à®±à¯įà®ķ", "à¤ķà¤¾à¤°à¥Ģ", "Ġà°ªà±ĩà°°à±įà°", "Ġà®ªà¯Ĩà®°à¯ģà®Ļà¯įà®ķà®Łà®²", "à¤Ńà¤¾à¤°à¤¤", "Ġà°ªà±ĩà°°à±įà°ķ", "Ġà®®à¯ĩà®±à¯įà®ķà¯ĩ", "Ġ(à¤Ĩ", "Ġà°ªà±ĩà°°à±įà°ķà±Ĭ", "à®´à¯įà®¨à¯įà®¤", "Ġ(à¤Ĩà¤§", "Ġà°¨à±ģà°Ĥà°ļ", "Ġà®ªà®ķà®¿à®°", "Ġ(à¤Ĩà¤§à¤¿à¤ķà¤¾à¤°à¤¿à¤ķ", "Ġà°¨à±ģà°Ĥà°ļà°¿", "Ġà®ªà®ķà®¿à®°à¯įà®¨à¯įà®¤à¯ģ", "Ġà¤¨à¤¾à¤®:", "Ġà°ķà±ģà°²", "à®¤à¯įà®¤à¯Ģ", "Ġà¤Ĺà¤£à¤°à¤¾à¤ľà¥įà¤¯,", "à°¨à±įà°¨à°¿", "Ġà®ħà®°", "Ġà¤ħà¤Ĥà¤Ĺà¥įà¤°à¥ĩà¤ľà¤¼à¥Ģ:", "à±Īà°¤", "Ġà®ħà®®à¯Īà®¨à¯įà®¤", "Ġà°ªà±įà°°à°¸à±įà°¤à±ģà°¤à°Ĥ", "Ġà®¤à®¾à®¯", "ĠRe", "Ġà°°à°Ĥà°Ĺ", "Ġà®¤à®¾à®¯à¯įà®²", "Ġà°ķà°²à±įà°ª", "Ġà®¤à®¾à®¯à¯įà®²à®¾à®", "ĠRepu", "à°¿à°Ĥà°ļà±ĩ", "Ġà®¤à®¾à®¯à¯įà®²à®¾à®¨à¯įà®¤à¯ģ", "ĠRepub", "Ġà°®à°Ĥà°¦", "Ġà®¤à®¾à®¯à¯įà®²à®¾à®¨à¯įà®¤à¯ģ,", "ĠRepubl", "Ġà°®à°Ĥà°¦à°¿", "Ġà®ĩà®¨à¯įà®¤à¯ĭ", "ĠRepubli", "Ġà°®à±Ĥà°¡à±ģ", "Ġà®ĩà®¨à¯įà®¤à¯ĭà®©", "Ġà°®à±ģà°Ĥà°¬", "Ġà®ĩà®¨à¯įà®¤à¯ĭà®©à¯ĩà®ļ", "Ġ(à°µ", "Ġà®ĩà®¨à¯įà®¤à¯ĭà®©à¯ĩà®ļà®¿à®¯à®¾à®µ", "Ġ(à°µà±Ĩà°¨", "Ġà®®à®©à®¿à®¤à®°à¯įà®ķà®³à¯į", "Ġ(à°µà±Ĩà°¨à±ģà°ķ", "Ġ(à°µà±Ĩà°¨à±ģà°ķà°Łà°¿", "Ġà¤²à¤¿à¤ª", "à°ķà±įà°·à°°à°¾à°¸à±įà°¯à°¤", "Ġà®®à¯ģà®©à¯įà®©à®°", "Ġà¤²à¤¿à¤ªà¥įà¤¯", "Ġà°ľà°°à±ģà°ª", "Ġà®®à¯ģà®©à¯įà®©à®°à¯ĩ", "Ġà¤²à¤¿à¤ªà¥įà¤¯à¤¨", "à°¾à°²à°ķà±ģ", "Ġà®µà®¨à¯įà®¤à®©à®°à¯į.", "Ġà¤²à¤¿à¤ªà¥įà¤¯à¤¨à¥įà¤¤à¤°", "Ġà°Ńà°¾à°·à°²à±ģ", "à¯Īà®ªà¯įà®ªà®Łà¯ģà®¤à¯įà®¤à®ªà¯įà®ªà®Łà¯įà®Ł", "Ġà¤²à¤¿à¤ªà¥įà¤¯à¤¨à¥įà¤¤à¤°à¤£", "Ġà°ªà±įà°°à°¾à°°", "à®¤à®©à¯į", "Ġà¤²à¤¿à¤ªà¥įà¤¯à¤¨à¥įà¤¤à¤°à¤£:", "Ġà°ªà±įà°°à°¾à°°à°Ĥà°", "Ġà®ĩà®µà®°à¯įà®ķà®³à¯į", "Ġà¤°à¤¿à¤ª", "Ġà°ªà±įà°°à°¾à°°à°Ĥà°Ń", "à®£à¯ģ", "Ġà¤°à¤¿à¤ªà¤¬", "Ġà°°à±Īà°²à±įà°µà±ĩ", "Ġà®µà¯ĩà®±à¯įà®±à¯ģà®®", "Ġà¤°à¤¿à¤ªà¤¬à¥įà¤²", "Ġà°ĩà°¸à±įà°", "à®¤à®¾à®ķ", "Ġà¤°à¤¿à¤ªà¤¬à¥įà¤²à¤¿à¤ķ", "Ġà°ĩà°¸à±įà°²", "à®¿à®¯à®±", "Ġà¤°à¤¿à¤ªà¤¬à¥įà¤²à¤¿à¤ķà¥į", "Ġà°ĩà°¸à±įà°²à°¾à°®", "Ġà®ªà®²à¯įà®µà®ķà¯Īà®®", "Ġà¤ĳ", "Ġà°ĩà°¸à±įà°²à°¾à°®à°¾à°¬à°¾à°¦", "Ġà®ķà¯ģà®Łà®¿à®¯à®®", "Ġà¤ĳà¤«", "Ġà°ĩà°¸à±įà°²à°¾à°®à°¾à°¬à°¾à°¦à±į", "Ġà¤ĳà¤«à¤¼", "Ġà°¦à°ķà±įà°·à°¿à°£à°¾à°¸", "Ġà®Ĩà®±à¯įà®±à¯ģ", "Ġà¤ĳà¤«à¤¼à¥į", "Ġà°¦à°ķà±įà°·à°¿à°£à°¾à°¸à°¿à°¯à°¾", "à¯Īà®ķà®³à®¿à®²à¯į", "Ġà¤ĩà¤£", "Ġà°¸à°°à±įà°µà±Ģà°¸à±ģà°²à±ģ", "Ġà®¤à¯ĭà®©à¯įà®±à®¿à®¯à®¤à¯ģ.", "Ġà¤ĩà¤£à¥įà¤", "à°¾à°²à°¨à±ĩ", "Ġà®ªà®°à®¿à®£", "Ġà¤ĩà¤£à¥įà¤¡", "Ġà°ªà±įà°°à°¤à°¿à°ªà°¾à°¦à°¨", "Ġà®ªà®°à®¿à®£à®¾à®®", "Ġà¤ĩà¤£à¥įà¤¡à¤¿à¤¯à¤¾", "Ġà°°à±Īà°³à±įà°²à°¨à±ģ", "Ġà®ļà®¿à®¨à¯įà®¤", "Ġà¤ĩà¤£à¥įà¤¡à¤¿à¤¯à¤¾)", "Ġà°ªà±įà°°à°¯", "Ġà®ļà®¿à®¨à¯įà®¤à¯ģà®µ", "Ġà¤Ńà¥Į", "Ġà°®à°¨", "Ġà®ļà®¿à®¨à¯įà®¤à¯ģà®µà¯Ĩà®³", "Ġà¤Ńà¥Įà¤Ĺà¥ĭà¤²", "Ġà°°à±ĭà°¡à±įà°¡", "Ġà®ļà®¿à®¨à¯įà®¤à¯ģà®µà¯Ĩà®³à®¿", "Ġà¤Ńà¥Įà¤Ĺà¥ĭà¤²à¤¿à¤ķ", "Ġà°°à±ĭà°¡à±įà°¡à±ģ", "Ġà®¨à®¾à®ķà®°à®¿à®ķà®®à®¾à®ķ", "Ġà¤¦à¥ĥà¤·à¥įà¤Łà¤¿", "à°Ńà°¾à°°à°¤à°¦à±ĩà°¶à°Ĥ", "Ġ1,", "Ġà¤¸à¤¾à¤¤", "42", "à®Ĳ", "Ġà¤¸à¤¾à¤¤à¤µ", "Ġà°ķà±ĭà°Łà±įà°²", "à®°à¯ĭ", "Ġà¤¸à¤¾à¤¤à¤µà¤¾à¤ģ", "Ġà°ľà°¨à°¾à°Ńà°¾à°¤à±ĭ", "à®ªà¯įà®ªà®¿à®¯", "Ġà¤ľà¤¬à¤ķà¤¿", "Ġà°ªà±įà°°à°ªà°Ĥà°ļà°Ĥà°²à±ĭ", "Ġà®¤à®±à¯įà®ª", "Ġà¤¦à¥ĥà¤·à¥įà¤Łà¤¿à¤ķ", "Ġà®¤à®±à¯įà®ªà¯ĭ", "Ġà¤¦à¥ĥà¤·à¥įà¤Łà¤¿à¤ķà¥ĭ", "Ġà®¤à®±à¯įà®ªà¯ĭà®¤à¯ģ", "Ġà¤¦à¥ĥà¤·à¥įà¤Łà¤¿à¤ķà¥ĭà¤£", "Ġà°µà±Ī", "Ġà®µà®Łà®®à¯ĩà®±à¯įà®ķà®¿à®²à¯į", "Ġà¤ªà¤¾à¤ķà¤¿à¤¸à¥įà¤¤à¤¾à¤¨,", "Ġà°ıà°¡", "Ġà®ĩà®°à¯ģà®ķà¯įà®ķà¯ģ", "Ġà¤ħà¤«à¤Ĺ", "à±ĩà°ļ", "Ġà®ªà®¾à®Ł", "Ġà¤ħà¤«à¤Ĺà¤¾à¤¨", "à°¾à°¯à±ģà°¤", "Ġà®ªà®¾à®Łà®²", "Ġà¤ħà¤«à¤Ĺà¤¾à¤¨à¤¿à¤¸à¥įà¤¤à¤¾à¤¨", "Ġà°¦à±ĩà°¶à°Ĥ.", "à®¿à®¯à¯ģà®Łà®©à¯į", "Ġà¤ħà¤«à¤Ĺà¤¾à¤¨à¤¿à¤¸à¥įà¤¤à¤¾à¤¨,", "Ġà°¦à±ĩà°¶à°Ĥ", "à®µà®©", "Ġà¤ļà¥Ģà¤¨,", "Ġ29", "Ġà®ªà®¾à®¤", "Ġà¤¨à¥ĩà¤ª", "Ġà°°à°¾à°·à±įà°Łà±įà°°à°¾à°²à±ģ,", "Ġà®ªà®¾à®¤à¯ģà®ķ", "Ġà¤¨à¥ĩà¤ªà¤¾à¤²", "à°®à±Ĩ", "Ġà®ªà®¾à®¤à¯ģà®ķà®¾à®ķà¯įà®ķ", "Ġà¤Ńà¥Ĥà¤Ł", "à°°à±Ģ", "Ġà®ªà®¾à®¤à¯ģà®ķà®¾à®ķà¯įà®ķà®ªà¯įà®ªà®Łà¯įà®Ł", "Ġà¤Ńà¥Ĥà¤Łà¤¾à¤¨,", "Ġà°¸à°®à°¾à°ĸà±įà°¯.", "Ġà®ĩà®°à¯ģà®¨à¯įà®¤à®¤à¯ģ.", "Ġà¤¬à¤¾à¤Ĥà¤Ĺ", "Ġà°¸à°¾à°®à°°à±įà°", "Ġà®ļà®®à®¯à®¤à¯įà®¤à®¿à®©à¯į", "Ġà¤¬à¤¾à¤Ĥà¤Ĺà¥įà¤²", "Ġà°¸à°¾à°®à°°à±įà°¥", "Ġà®¤à®¿à®°à®¾à®µ", "Ġà¤¬à¤¾à¤Ĥà¤Ĺà¥įà¤²à¤¾à¤¦", "Ġà°¸à°¾à°®à°°à±įà°¥à±įà°¯à°Ĥ", "Ġà®¤à®¿à®°à®¾à®µà®¿à®Ł", "Ġà¤¬à¤¾à¤Ĥà¤Ĺà¥įà¤²à¤¾à¤¦à¥ĩà¤¶", "Ġà°ħà°£", "Ġà®ªà®ķà¯ģà®¤à®¿à®ķà®³à®¿à®²à¯į", "Ġà¤®à¥įà¤¯à¤¾à¤¨", "Ġà°®à±ģà°ĸà±įà°¯à°®à±Īà°¨", "Ġà®ļà¯Ĩà®¯à¯įà®¯à®ªà¯įà®ªà®Łà¯įà®Łà®©.", "Ġà¤®à¥įà¤¯à¤¾à¤¨à¥įà¤®", "Ġà°ªà±įà°°à°¾à°Ĥà°¤à±Ģà°¯", "Ġà¤®à¥įà¤¯à¤¾à¤¨à¥įà¤®à¤¾à¤°", "Ġà°¶à°ķà±įà°¤", "Ġà®µà®¿à®²", "Ġà¤®à¤¾à¤²", "à°¿à°¯à°¾à°²à±ĭ", "à®²à®¾à®©à®¤à¯ģ", "Ġà¤®à¤¾à¤²à¤¦", "Ġà°µà±ĩà°²", "Ġà®ªà¯Įà®¤à¯įà®¤à®®à¯į", "Ġà¤®à¤¾à¤²à¤¦à¥Ģà¤µ,", "Ġà°ķà°¿à°²à±ĭ", "Ġà®ļà¯Ī", "Ġà¤¶à¥įà¤°à¥Ģà¤²", "Ġà°ķà°¿à°²à±ĭà°®", "Ġà®ļà¯Īà®©", "Ġà¤¶à¥įà¤°à¥Ģà¤²à¤Ĥ", "Ġà°ķà°¿à°²à±ĭà°®à±Ģà°Ł", "Ġà®¨à®¿à®²à¯Īà®ķà®³", "Ġà¤¶à¥įà¤°à¥Ģà¤²à¤Ĥà¤ķà¤¾", "Ġà°ķà°¿à°²à±ĭà°®à±Ģà°Łà°°à±įà°²", "Ġà®¤à¯Ĭà®Łà®°", "Ġà¤ĩà¤Ĥà¤¡à¥ĭà¤¨à¥ĩ", "Ġà°ķà°¿à°²à±ĭà°®à±Ģà°Łà°°à±įà°²à°ķà±ģ", "Ġà®ħà®±à®¿à®µ", "Ġà¤ĩà¤Ĥà¤¡à¥ĭà¤¨à¥ĩà¤¶à¤¿à¤¯à¤¾", "Ġà°¸à°®à±ģà°¦", "Ġà®ķà¯ģà®ªà¯įà®¤à®ªà¯į", "Ġà¤¸à¤¾à¤®à¥ģà¤¦", "Ġà°Ńà°¾à°Ĺà°¾à°¨à±įà°¨à°¿", "Ġà®µà®Łà®¿", "Ġà¤¸à¤¾à¤®à¥ģà¤¦à¥įà¤°", "Ġà°ķà±Ĥà°¡à±ģà°ķà±Ĭ", "Ġà®¨à®¿à®²à®¤à¯įà®¤à¯Ī", "Ġà¤¸à¤¾à¤®à¥ģà¤¦à¥įà¤°à¤¿à¤ķ", "Ġà°ļà°¾à°°à°¿à°¤", "Ġà®ĩà®ªà¯įà®ªà¯ĩà®°à®°à®ļ", "Ġà¤²à¤Ĺà¤¤à¥Ģ", "Ġà°ļà°¾à°°à°¿à°¤à±įà°°à°", "Ġà®ªà®°à®µà®²à®¾à®©", "Ġà¤¹à¤¿à¤®", "Ġà°ļà°¾à°°à°¿à°¤à±įà°°à°ķ", "Ġà®ķà¯Ĭà®£à¯įà®Łà®¿à®°à¯ģà®¨à¯įà®¤à®¤à¯ģ.", "Ġà¤¹à¤¿à¤®à¤¾à¤²", "Ġà°īà°¤à±įà°¤à°°à°¾à°¨", "Ġà®Ĩà®©à®¾à®²à¯į,", "Ġà¤¹à¤¿à¤®à¤¾à¤²à¤¯", "Ġà°ªà°¶à±įà°ļà°¿à°®à°¾à°¨", "Ġà®ªà¯Ĩà®£", "Ġà¤ªà¤°à¥įà¤", "Ġà°ħà°°", "à¯įà®ļà®¿à®¯à®Łà¯Īà®¨à¯įà®¤", "Ġà¤ªà¤°à¥įà¤µ", "Ġà°¤à±Ĥà°°", "Ġà®ķà¯Ĥà®Ł", "Ġà¤ªà¤°à¥įà¤µà¤¤", "Ġà°¤à±Ĥà°°à±įà°ª", "Ġà®ĩà®ķà¯įà®ķà®¾à®²à®®à¯į", "Ġà¤ĸà¤¾à¤", "à°¾à°¤à°Ĥ", "Ġà®īà®°à¯ģà®µà®¾à®ķà¯įà®ķà®¿à®¯", "Ġà¤ĸà¤¾à¤¡", "Ġà°ªà°¾à°ķà°¿à°¸à±įà°¤à°¾à°¨", "à®¤à®¿à®²à¯ģà®®à¯į", "Ġà¤ĸà¤¾à¤¡à¤¼à¥Ģ", "Ġà°ļà±Īà°¨à°¾,", "à®¿à®¤à¯įà®¤à®¤à¯ģ.", "Ġà¤¸à¤¾à¤Ĺ", "Ġà°¨à±ĩà°", "Ġà®ĩà®°à®¾à®ļà¯įà®ļà®¿à®¯à®Ļà¯įà®ķà®³à¯į", "Ġà¤¸à¤¾à¤Ĺà¤°", "Ġà°¨à±ĩà°ª", "Ġà®®à¯Ĭà®´à®¿", "Ġà°¨à±ĩà°ªà°¾à°²", "à®´à¯ģà®¤à¯įà®¤", "Ġà°¨à±ĩà°ªà°¾à°²à±į,", "à®¾à®Łà¯ģà®ķà®³", "Ġà¤¸à¤®à¥įà¤ªà¥Ĥà¤°à¥įà¤£", "Ġà°Ńà±Ĥà°Ł", "Ġà®¤à¯Ĩà®©à¯įà®ķà®¿à®´à®ķà¯įà®ķà®¾à®ļà®¿à®¯à®¾à®µ", "Ġà¤«à¥Ī", "à°«", "à®Ļà¯įà®ķà®³à¯ģà®ķà¯įà®ķà¯ģà®ªà¯į", "Ġà¤«à¥Īà¤²à¥Ģ", "Ġà°ªà°Ĥà°ļ", "Ġà®ĩà®ļà¯ģà®²", "Ġà¤¤à¤¬", "à°²à°Ĥà°ķ", "à®¾à®®à¯į,", "Ġà¤¯à¤¹à¤¾à¤Ĥ", "Ġà°ĩà°Ĥà°¡à±ĭ", "Ġà®ļà¯ĩà®°à¯įà®¨à¯įà®¤", "Ġà¤īà¤¦à¥įà¤§", "à°Ĺà±įà°Ĺ", "Ġà®®à¯ģà®ļ", "Ġà¤īà¤¦à¥įà¤§à¤µ", "à°°à°²à±ĭ", "Ġà®®à¯ģà®ļà¯ģà®²", "Ġà¤ļà¥ģ", "Ġà°¸à°¿à°Ĥà°§à±ģ", "Ġà®®à¯ģà®ļà¯ģà®²à®¿à®®", "Ġà¤ļà¥ģà¤ķà¤¾", "Ġà°ªà±ģà°Łà±įà°Ł", "Ġà®ĩà®°à®¾à®£à¯ģà®µà®Ļà¯įà®ķà®³à¯į", "Ġà¤ĭà¤Ĺ", "Ġà°¬à±Į", "Ġà®¨à®Łà®¤à¯įà®¤", "Ġà¤ĭà¤Ĺà¥įà¤µ", "Ġà°¬à±Įà°¦à±įà°§", "à®¿à®²à¯įà®²", "Ġà¤ĭà¤Ĺà¥įà¤µà¥ĩà¤¦", "Ġà°ľà±Īà°¨", "Ġà®¨à®¿à®±à¯ģà®µà®¿à®©.", "Ġà¤°à¤ļà¤¨à¤¾", "Ġà°¸à°¿à°ķ", "Ġà®ĩà®¨à¯įà®¤à®¿à®¯à®¾à®µà¯Ī", "Ġà¤ļà¥ģà¤ķ", "Ġà°¸à°¿à°ķà±įà°ķ", "Ġ15", "Ġà¤ļà¥ģà¤ķà¥Ģ", "Ġà°®à°¤à°®", "Ġà®¨à¯Ĥà®±à¯įà®±à®¾à®£à¯įà®Łà®¿à®²à¯į", "Ġà¤ıà¤µà¤Ĥ", "Ġà°ľà°¨à±įà°®", "Ġà®µà®¿à®", "Ġà¤īà¤¤à¥įà¤ªà¤¨à¥įà¤¨", "à°¿à°ļà±įà°ļ", "Ġà®ªà¯ĩà®°à®°à®ļà®¾à®©à®¤à¯ģ", "Ġà¤°à¤¹à¥ĩ", "Ġà°¬à°¹à±ģà°", "Ġà®ķà¯Ĥà®±", "Ġà¤¹à¥ĭà¤¤à¥ĩ", "à°¾à°·", "Ġà®īà®°à¯ģà®µà®¾à®ķà¯įà®ķà®¿à®¯à®¤à¯ģ.", "Ġà¤ıà¤ķà¤¤à¥įà¤°", "Ġà°¸à°Ĥà°ĺ", "Ġà®ªà®ŀà¯įà®ļ", "Ġà¤ıà¤ķà¤¤à¥įà¤°à¥Ģ", "à°®à±ģ.", "Ġà®ªà®ŀà¯įà®ļà®¾à®ª", "Ġà¤ıà¤ķà¤¤à¥įà¤°à¥Ģà¤ķà¤°à¤£", "à°ªà±įà°°", "Ġà®ªà®ŀà¯įà®ļà®¾à®ªà¯į", "Ġà¤¬à¥ĩ", "Ġà®ªà®ķà¯ģà®¤à®¿à®¯à®¿à®²à¯į", "Ġà¤¬à¥ĩà¤¸", "Ġà°ļà±Īà°¨à°¾à°¨", "Ġà®°à¯Ģà®¤à®¿à®¯à®¾à®©", "Ġà¤¬à¥ĩà¤¸à¤¿à¤¨", "Ġà°ļà±Īà°¨à°¾à°¨à±ģ", "Ġà®®à¯ģà®ķ", "Ġà¤ľà¤¨à¥įà¤®", "Ġà°¦à°¾à°Ł", "Ġà®®à¯ģà®ķà®²", "Ġà¤¸à¤®à¤¾à¤ľ", "Ġà°®à±Į", "Ġà®®à¯ģà®ķà®²à®¾à®¯", "Ġà¤µà¤¿à¤¸à¥įà¤¤à¥ĥà¤¤", "Ġà°®à±Įà°°à±įà°¯", "Ġà®®à¯ģà®ķà®²à®¾à®¯à®ªà¯į", "Ġà¤¸à¥ĥ", "Ńà°¾à°Ĺ", "Ġà®Ĵà®ªà¯įà®ª", "Ġà¤¸à¥ĥà¤ľà¤¨", "à°°à±įà°¤", "Ġà®Ĵà®ªà¯įà®ªà¯Ģ", "Ġà¤¸à¥ĥà¤ľà¤¨à¤¶", "Ġà°ªà°¾à°²à°¨à°²à±ĭ", "Ġà®Ĵà®ªà¯įà®ªà¯Ģà®Łà¯įà®Ł", "Ġà¤¸à¥ĥà¤ľà¤¨à¤¶à¥Ģ", "Ġà°ªà°²à±ģ", "Ġà®Ĵà®ªà¯įà®ªà¯Ģà®Łà¯įà®Łà®³à®µà®¿à®²à¯į", "Ġà¤¸à¥ĥà¤ľà¤¨à¤¶à¥Ģà¤²", "Ġà°°à°¾à°ľà±įà°¯à°¾à°²à±ģà°Ĺà°¾", "Ġà®ķà®Łà¯įà®Łà®Łà®ķà¯į", "Ġà¤¸à¥ĥà¤ľà¤¨à¤¶à¥Ģà¤²à¤¤à¤¾", "à°¿à°ªà±ĭ", "Ġà®ķà®²à¯Ī", "Ġà¤Ńà¤°à¤¾", "à°¿à°ªà±ĭà°¯", "Ġà®ļà¯Ĩà®©à¯įà®±", "Ġà¤®à¤§à¥įà¤¯à¤¯", "à°¿à°ªà±ĭà°¯à°¿à°Ĥà°¦à°¿.", "Ġà®Ĩà®Łà¯įà®ļà®¿à®¯à®¾à®©à®¤à¯ģ", "Ġà¤®à¤§à¥įà¤¯à¤¯à¥ģà¤Ĺ", "Ġà°¬à±įà°°à°¿à°Łà°¿à°·à±į", "Ġà®µà®¿à®°à®¿à®µà®Łà¯Īà®¨à¯įà®¤", "Ġà¤®à¤§à¥įà¤¯à¤¯à¥ģà¤Ĺà¥Ģà¤¨", "Ġà°Īà°¸à±įà°", "Ġà®ªà¯Ĭà®°à¯ģà®³à®¾à®¤à®¾à®°à®®à®¾à®ķ", "Ġà¤Īà¤¸à¤¾à¤Ī", "Ġà°Īà°¸à±įà°Łà±į", "Ġà®ħà®¤à¯ĩ", "Ġà¤ĩà¤¸à¥įà¤²à¤¾à¤®,", "Ġà°ķà°Ĥà°ªà±Ĩà°¨à±Ģ", "Ġà®ĩà®±", "Ġà¤¯à¤¹à¥Ĥà¤¦", "Ġà°ļà±ĩà°¸", "Ġà®ĩà®±à¯Īà®¯", "Ġà¤¯à¤¹à¥Ĥà¤¦à¥Ģ", "Ġà°¬à±įà°°à°¿à°Łà±Ģà°·", "à¯ĭà®Ł", "Ġà¤ªà¤¾à¤°à¤¸", "Ġà°ªà°°à°¿à°ª", "Ġà®µà®¿à®Łà¯ģà®¤", "Ġà¤ªà¤¾à¤°à¤¸à¥Ģ", "Ġà°ķà°¿à°Ĥà°¦à°ķà±ģ", "Ġà®µà®¿à®Łà¯ģà®¤à®²à¯Ī", "Ġà¤¦à¤ķà¥įà¤·à¤¿à¤£à¥Ģ", "Ġà°¨à±ĩà°°", "à¯ģà®ķà¯įà®ķà®¾à®ķ", "Ġà¤ªà¤¶à¥įà¤ļà¤¿à¤®à¥Ģ", "à°Łà±Ĩ", "Ġà¤ľà¤¡à¤¼", "à°¿à°Ĥà°Ĺ", "Ġà®ªà¯Ĩà®°à¯ģà®®à¯įà®ªà®¾à®©", "Ġà¤ľà¤¡à¤¼à¥ĩà¤Ĥ", "à°ķà°¿", "Ġà®ªà¯Ĩà®°à¯ģà®®à¯įà®ªà®¾à®©à¯įà®®à¯Īà®¯", "Ġà¤ľà¤®à¤¾", "Ġà°®à°¹à°¾à°¤", "Ġà®ªà¯Ĩà®°à¯ģà®®à¯įà®ªà®¾à®©à¯įà®®à¯Īà®¯à®¾à®ķà®ķà¯į", "Ġà¤²à¥Ģà¤Ĥ", "Ġà°®à°¹à°¾à°¤à±įà°®", "Ġà®®à¯ĩà®²à®¾à®Ł", "Ġà¤¸à¥ĩà¤¨", "Ġà°®à°¹à°¾à°¤à±įà°®à°¾", "Ġà®®à¯ĩà®²à®¾à®Łà¯įà®ļà®¿", "Ġà¤¸à¥ĩà¤¨à¤¾à¤ĵà¤Ĥ", "Ġà°¨à°¾à°¯à°ķ", "Ġà®ļà¯ģà®¤", "Ġà¤īà¤¤à¥įà¤¤à¤°à¥Ģ", "Ġà°¨à°¾à°¯à°ķà°¤à±įà°µ", "Ġà®ļà¯ģà®¤à®¨à¯įà®¤", "Ġà¤ħà¤¤à¥įà¤¯à¤¾à¤ļà¤¾à¤°", "Ġà°¸à±įà°µà°¾à°¤à°Ĥà°¤à±įà°°à±įà°¯à°Ĥ", "Ġà®ļà¯ģà®¤à®¨à¯įà®¤à®¿à®°", "Ġà°¤à°°à±įà°µ", "Ġà®ªà®ķà¯ģà®¤à®¿à®ķà®³à®¾à®ķ", "Ġà¤µà¤¿à¤ľà¤¯", "Ġà°¤à°°à±įà°µà°¾à°¤", "Ġà®ªà®¿à®°à®¿à®ķà¯įà®ķà®ªà¯įà®ªà®Łà¯įà®Łà®¤à¯ģ.", "Ġà¤µà¤¿à¤ľà¤¯à¤¨", "Ġà°Ĩà°µ", "Ġà®ħà®¤à®±à¯įà®ķ", "Ġà¤µà¤¿à¤ľà¤¯à¤¨à¤Ĺ", "Ġ1991", "à®®à¯Īà®ªà¯įà®ª", "Ġà¤µà¤¿à¤ľà¤¯à¤¨à¤Ĺà¤°", "Ġà°¸à°Ĥà°¸à±įà°ķà°°à°£", "Ġà®ļà®©", "Ġà¤¸à¤®à¤Ĺ", "Ġà°ļà±Ĩà°Ĥà°¦à±ģà°¤", "Ġà®ļà®©à®¨", "Ġà¤¸à¤®à¤Ĺà¥įà¤°", "Ġà°ļà±Ĩà°Ĥà°¦à±ģà°¤à±ģà°¨à±įà°¨", "Ġà®ļà®©à®¨à®¾à®¯", "Ġà¤¸à¤¿à¤ĸ", "°à°ķ", "Ġà®ļà®©à®¨à®¾à®¯à®ķ", "Ġà¤Īà¤¸à¥įà¤", "à±įà°·", "Ġà®®à¯ģà®±à¯Ī", "Ġà¤Īà¤¸à¥įà¤Ł", "à°¤à°¿,", "Ġà®®à¯Ĥà®²", "Ġà¤ķà¤Ĥà¤ª", "Ġà°ªà±ĭ", "Ġà®¨à®¿à®°à¯įà®µà®ķ", "Ġà¤ķà¤Ĥà¤ªà¤¨à¥Ģ", "à±ģà°¨à±įà°¨à°¦à°¿.", "à®¿à®ķà¯įà®ķà®ªà¯įà®ªà®Łà¯ģà®ķà®¿à®±à®¤à¯ģ.", "Ġà¤¹à¥ģà¤Ĩ,", "Ġà°¨à°¾à°²", "Ġà®¤à¯Ĭà®ķà¯Īà®¯à¯ģà®Łà¯Īà®¯", "Ġà¤ľà¤¿à¤¸à¤¨à¥ĩ", "Ġà°¨à°¾à°²à±ģà°Ĺ", "Ġà®¤à®¿à®ķ", "Ġà¤Ķà¤ª", "Ġà°¨à°¾à°²à±ģà°Ĺà±ģ", "Ġà®ĩà®©", "Ġà¤Ķà¤ªà¤¨", "Ġà°ªà±ĩà°°à±įà°²", "à®Ļà¯įà®ķà®³à¯Īà®¯à¯ģà®Łà¯Īà®¯", "Ġà¤Ķà¤ªà¤¨à¤¿à¤µ", "Ġà°ªà±ĩà°°à±įà°²à±ģ", "Ġà®¤à®©à®¿", "Ġà¤Ķà¤ªà¤¨à¤¿à¤µà¥ĩà¤¶", "Ġà°µà±Ģà°Ł", "Ġà¤Ķà¤ªà¤¨à¤¿à¤µà¥ĩà¤¶à¤¿à¤ķ", "Ġà°µà±Ģà°Łà°¿à°²à±ĭ", "Ġà®Ĳ", "Ġà¤¬à¤¦", "Ġà°®à±Ĭà°¦à°Ł", "Ġà®Ĳà®ħ", "Ġà¤¬à¤¦à¤²", "Ġà°ªà±ĩà°°à±ģ,", "Ġ(â", "Ġà¤ħà¤ªà¤¨à¥Ģ", "Ġà°īà°ªà°¯", "Ġ(âĤ", "Ġà¤¸à¤®à¥įà¤ªà¥įà¤°", "Ġà°īà°ªà°¯à±ĭ", "Ġ(âĤ¹", "Ġà¤¸à¤®à¥įà¤ªà¥įà¤°à¤Ń", "Ġà°īà°ªà°¯à±ĭà°Ĺ", "Ġà¤¸à¤®à¥įà¤ªà¥įà¤°à¤Ńà¥ģà¤¤à¤¾", "Ġà°īà°ªà°¯à±ĭà°Ĺà°¿à°¸à±įà°¤", "Ġà¤®à¤ľ", "à±Īà°²", "01", "Ġà¤®à¤ľà¤¼", "Ġà°ªà±įà°°à°¦à±ĩà°¶", "1,", "Ġà¤®à¤ľà¤¼à¤¬", "Ġà°ķà±ĥ", "à®Ĩà®ķ", "Ġà¤®à¤ľà¤¼à¤¬à¥Ĥ", "Ġà°ķà±ĥà°·à±įà°£", "Ġà®µà¯Ģà®¤", "Ġà¤®à¤ľà¤¼à¤¬à¥Ĥà¤¤", "Ġà°Ĺà±ĭà°¦", "Ġà¥§à¥®", "Ġà°Ĺà±ĭà°¦à°¾à°µ", "à®¤à®¿à®²à®¿à®°à¯ģà®¨à¯įà®¤à¯ģ", "Ġà¥§à¥®à¥", "à±ĩà°¡à±ģ", "Ġà¥§à¥®à¥«", "\",", "Ġà®īà®¯à®°à¯įà®¨à¯įà®¤à¯ģà®³à¯įà®³à®¤à¯ģ.", "Ġà¥§à¥®à¥«à¥", "Ġà°İà°ķà±įà°ķà±ģà°µà°Ĺà°¾", "Ġà®¨à®¾à®Łà®¾à®ķ", "Ġà¥§à¥®à¥«à¥®", "à±įà°²à±ģ", "Ġà®µà®±", "Ġà¤ªà¥įà¤°à¤Ńà¤¾à¤µà¤¶", "à°¾à°¯à°¿", "Ġà®ļà¯ĩ", "Ġà¤ªà¥įà¤°à¤Ńà¤¾à¤µà¤¶à¤¾à¤²à¥Ģ", "Ġà°ķà°¨à±ģà°ķ", "Ġà®®à¯Īà®¯à®®à®¾à®ķ", "Ġà¤°à¤¾à¤·", "Ġà°¦à±Ģà°¨", "Ġà®¨à®Łà¯ģà®¤à¯įà®¤", "Ġà¤°à¤¾à¤·à¥įà¤Ł", "Ġ\"à°Ń", "Ġà®¨à®Łà¯ģà®¤à¯įà®¤à®°", "Ġà¤°à¤¾à¤·à¥įà¤Łà¥įà¤°", "Ġ\"à°Ńà°°à°", "Ġà®µà®°à¯įà®ķà¯įà®ķ", "Ġà¤°à¤¾à¤·à¥įà¤Łà¥įà¤°à¤µ", "Ġ\"à°Ńà°°à°¤", "Ġà®µà®°à¯įà®ķà¯įà®ķà®¤à¯įà®¤", "Ġà¤°à¤¾à¤·à¥įà¤Łà¥įà¤°à¤µà¤¾à¤¦", "Ġà°°à°¾à°ľà±ģ", "Ġà®µà®°à¯įà®ķà¯įà®ķà®¤à¯įà®¤à®¿à®©à®°", "Ġà¤°à¤¾à¤·à¥įà¤Łà¥įà¤°à¤µà¤¾à¤¦à¥Ģ", "Ġà°®à±Ģ", "Ġà®¤à®¿à®Łà¯įà®Ł", "Ġà¤Ĩà¤Ĥà¤¦", "Ġà°®à±Ģà°¦", "à®¿à®¤à¯į", "Ġà¤Ĩà¤Ĥà¤¦à¥ĭà¤²", "Ġà°®à±Ģà°¦à°Ĺà°¾", "à®Ļà¯įà®ķà®³à¯į,", "Ġà¤Ĩà¤Ĥà¤¦à¥ĭà¤²à¤¨", "à±ģà°¡à±ģ", "à¯Ģà®ķà®ªà¯į", "Ġà¤ľà¤¿à¤¸à¥ĩ", "à°ķà°²", "Ġà®ªà¯ĭà®¤", "Ġà¤ħà¤¹à¤¿à¤", "Ġà°ķà±ģà°®", "Ġà®ªà¯ĭà®¤à®©", "Ġà¤ħà¤¹à¤¿à¤Ĥ", "Ġà°ķà±ģà°®à°¾à°°", "Ġà®¤à®©à¯įà®®à¯Ī", "Ġà¤ħà¤¹à¤¿à¤Ĥà¤¸", "à±ģà°¡", "Ġà®ķà¯ģà®±à®¿à®ªà¯įà®ªà®¿à®Łà®¤à¯įà®¤", "Ġà¤ħà¤¹à¤¿à¤Ĥà¤¸à¤ķ", "Ġà°¤à°°à±ģà°µà°¾à°¤à°¿", "Ġà®ķà¯ģà®±à®¿à®ªà¯įà®ªà®¿à®Łà®¤à¯įà®¤à®ķà¯įà®ķ", "Ġà¤¸à¤®à¤¾à¤ª", "Ġà°¸à°¿à°Ĥà°§à±Ĥà°¨", "Ġà®ħà®³à®µà¯ģà®ķà¯įà®ķà¯ģ", "Ġà¤¸à¤®à¤¾à¤ªà¥įà¤¤", "Ġà°ªà±Ĥà°°à±įà°µ", "à®²à®µ", "Ġà¤ķà¤¾à¤°à¤ķ", "à°¨à±ģà°²à±ģ,", "Ġà®ªà®¾à®²", "à±įà°°à±Ģà°ķ", "à®¿à®©à®ªà¯į", "Ġà¤ªà¥įà¤°à¤Ńà¥ģà¤¤", "à°¿à°²à°¿à°ļ", "à®ļà¯įà®ļ", "Ġà¤ªà¥įà¤°à¤Ńà¥ģà¤¤à¥įà¤µà¥ĭà¤Ĥ", "Ġà°¹à°¿à°Ĥà°¦à±Ĥà°¦à±ĩà°¶à°Ĥ", "à®¾à®Łà¯įà®Łà®¿à®©à¯į", "Ġà¤Ĺà¤¯à¤¾,", "Ġà°°à±Ĥà°ªà°¾à°Ĥà°¤", "Ġà®ļà®¿à®²à®µ", "Ġà¤ħà¤§à¤¿à¤°à¤¾à¤ľà¥įà¤¯,", "à±ĩà°¯", "Ġà®ķà®¾à®Ł", "Ġ1950", "Ġà°µà°²", "Ġà®ķà®¾à®Łà¯ģà®ķà®³à¯į", "Ġà¤¸à¤Ĥà¤ĺà¥Ģà¤¯", "Ġà°µà°²à°¨", "à¯ģà®¯", "à±ģà°ĸà±įà°¯", "à®¿à®°à¯įà®ķà®³à¯į", "Ġà°ªà±Ĭà°Ĥà°¦", "Ġà®¤à®©à¯įà®®à¯Īà®¯", "Ġ36.", "Ġà°ªà±Ĭà°Ĥà°¦à°¿à°¨", "à®¿à®Łà®Ļà¯įà®ķà®³à®¿à®²à¯į", "Ġ201", "à°®à±ģ", "à¯ĭà®°", "Ġ2011", "Ġà°ļà°°", "Ġà®ļà¯Ĭà®²à¯įà®²à®¾à®©", "Ġà¤®à¥ĩà¤Ĥâ", "Ġà°¨à°¿à°µ", "Ġà®ªà¯Ĩà®±", "Ġà¤®à¥ĩà¤ĤâĢ", "Ġà°ıà°°à±įà°ªà°¡à±įà°¡à°¾à°¯à°¿.", "Ġà®Ĩà®ļà®¿à®¯à®¾", "Ġà¤®à¥ĩà¤ĤâĢĮ", "Ġà°ķà±įà°°", "à®®à®¾à®ķà®¤à¯į", "Ġ121.", "Ġà®ªà®ķà¯ģà®¤à®¿à®¯", "Ġà¤ķà¤°à¥ĭà¤¡à¤¼,", "à°Ĥà°²à±ĭ,", "Ġà®ªà®¯à®©à¯įà®ªà®Łà¯ģà®¤à¯įà®¤à®ªà¯įà®ªà®Łà¯įà®Łà®¤à¯ģ.", "Ġ2021", "à±ĭà°²", "Ġà®ªà®¤à®¿à®²", "Ġ14", "Ġà°¸à±įà°¥à°¾à°µ", "Ġà®ªà®¤à®¿à®²à¯ģà®ķà¯įà®ķà¯ģ", "Ġ140", "Ġà°¸à±įà°¥à°¾à°µà°°à°¾à°²à±ģ", "à¯Īà®¯à®¾à®©", "Ġ140.", "à°°à±į,", "76", "Ġà°ªà±įà°°à°¾à°Ĥà°¤à°¾à°²à±įà°²à±ĭ", "Ġà¤ªà¥įà¤°à¤¤à¤¿", "Ġà°ļà±Ĩà°Ĥà°¦à°¾à°¯à°¿.", "Ġà®ĩà®£à¯įà®Łà¯ĭ", "Ġà¤µà¥įà¤¯à¤ķà¥įà¤¤à¤¿", "Ġà°°à°¾à°ľà±įà°¯à°¾à°²à±ģ", "à®¸", "Ġà¤Ĩà¤¯", "Ġà°¸à°¾à°Ĥà°¸à±įà°ķ", "à®¸à¯į", "Ġà°¸à°¾à°Ĥà°¸à±įà°ķà±ĥà°¤", "Ġà®ªà®´", "Ġà°¸à°¾à°Ĥà°¸à±įà°ķà±ĥà°¤à°¿à°ķ", "Ġà®ªà®¾à®°à®ļ", "49", "à°¾à°°à°¸", "Ġà®ªà®¾à®°à®ļà¯Ģà®ķ", "498", "à±ĭà°ķ", "à®¿à®¯à®ªà¯į", "498,", "à°ķà°¾à°²", "Ġà®ªà¯ĩà®°à®°à®ļà®¿à®©à¯į", "Ġ2020", "Ġà°ªà°²à±įà°²", "Ġà®ķà®¿à®´à®ķà¯įà®ķà¯ģ", "Ġ21", "Ġà°®à±Ĭà°¦à°²à°Ĺ", "Ġà®ķà¯ģà®±à®¿à®ªà¯įà®ªà®¾à®ķ", "21", "Ġà°ªà°¾à°²à°¿à°Ĥà°ļ", "Ġà®ķà¯ģà®±à®¿à®ķà¯įà®ķà®¿à®±à®¤à¯ģ.", "2150", "Ġà°ªà°¾à°²à°¿à°Ĥà°ļà°¾à°°à±ģ.", "à®°à¯ģà®¤à¯įà®¤", "2150,", "Ġà°ķà°³", "Ġà®ķà¯ģà®±à®¿à®ªà¯įà®ªà®¿à®Łà¯įà®Ł", "Ġà¤¶à¥ģà¤°à¥ģà¤", "Ġà°¸à°¾à°Ĥà°ķ", "Ġà®ªà®¾à®°à®¤à¯į", "Ġà¤¶à¥ģà¤°à¥ģà¤Ĩ", "Ġà°¸à°¾à°Ĥà°ķà±ĩà°¤", "Ġà¤¶à¥ģà¤°à¥ģà¤Ĩà¤¤à¥Ģ", "Ġà°¸à°¾à°Ĥà°ķà±ĩà°¤à°¿à°ķ", "Ġ2022", "Ġà°°à±Ĩà°Ĥà°¡à°µ", "Ġ23", "Ġà°¸à°¹à°¸à±įà°°", "Ġli", "24", "Ġà°¸à°¹à°¸à±įà°°à°¾à°¬à±įà°¦", "Ġlist", "2450", "Ġà°¢à°¿à°²à±įà°²à±Ģ", "Ġliste", "Ġà¤ĩà¤¸à¤ķà¥Ģ", "à°¾à°¨à±ģà°²à±ģ,", "Ġlisten", "Ġà¤¸à¤¾à¤ķ", "à°Ĺà°²", "Ġlisten)", "Ġà¤¸à¤¾à¤ķà¥įà¤·", "Ġà°ħà°¯à°¿à°¨à°¾,", "Ġlisten))", "Ġà¤¸à¤¾à¤ķà¥įà¤·à¤°", "Ġà°®à±ģà°ĸà±įà°¯à°Ĥà°Ĺà°¾", "Ġà®ļà¯Ĭà®²à¯įà®²à®¾à®©à®¤à¯ģ", "Ġà¤¸à¤¾à¤ķà¥įà¤·à¤°à¤¤à¤¾", "à°°à±įà°ļ", "Ġà®ªà®¯à®©à¯įà®ªà®Łà¯ģà®¤à¯įà®¤", "Ġà°«", "Ġà®ªà®¯à®©à¯įà®ªà®Łà¯ģà®¤à¯įà®¤à®ªà¯įà®ªà®Łà¯ģà®ķà®¿à®±à®¤à¯ģ.", "Ġà°ĩà°Ĥà°Ĺà±įà°²", "Ġà®ªà®°à®¤", "Ġà°Ĳà°°à±ĭ", "Ġà®ªà®°à®¤à®µ", "Ġ74.", "Ġà°Ĳà°°à±ĭà°ªà°¾", "Ġà®ªà®°à®¤à®µà®°à¯įà®·", "04%", "Ġà°µà±įà°¯à°¾à°ª", "Ġà®¨à¯Ĥà®±à¯įà®±à®¾à®£à¯įà®Łà®¿à®©à¯į", "Ġà¤ªà¥ģà¤°à¥ģà¤·", "Ġà°ĩà°ķà±įà°ķ", "Ġà®ªà¯Ĥà®°à¯įà®µ", "Ġà¤ªà¥ģà¤°à¥ģà¤·à¥ĭà¤Ĥ", "Ġà°ĩà°ķà±įà°ķà°¡", "Ġà®®à¯ģà®ķà¯įà®ķà®¿à®¯à®¤à¯įà®¤", "Ġà¤ıà¤µà¤®", "Ġà°¬à±įà°°à°¿à°Łà°¿à°·à±ģ", "Ġà®®à¯ģà®ķà¯įà®ķà®¿à®¯à®¤à¯įà®¤à¯ģà®µ", "Ġ64%", "Ġà®®à¯ģà®ķà¯įà®ķà®¿à®¯à®¤à¯įà®¤à¯ģà®µà®¤à¯įà®¤à¯Ī", "Ġà¤®à¤¹à¤¿à¤²", "Ġà°¤à°¿à°°", "Ġà®®à¯ģà®ķà¯įà®ķà®¿à®¯à®¤à¯įà®¤à¯ģà®µà®¤à¯įà®¤à¯Īà®ªà¯į", "Ġà¤®à¤¹à¤¿à¤²à¤¾à¤ĵà¤Ĥ", "Ġà°¸à°®à°°à°Ĥ", "Ġà®ĩà®¨à¯įà®¤à®¿à®¯à®¾à®µà¯Īà®ķà¯į", "Ġà¤¤à¥ĩà¤ľà¤¼à¥Ģ", "Ġà°Ńà°¾à°°à°¤à°¦à±ĩà°¶à°Ĥà°²à±ĭà°¨à°¿", "Ġà®¹à®¿à®¨à¯įà®¤à¯ģà®¸à¯įà®¤", "Ġà¤¸à¥Ĥ", "Ġà°Ĩà°Ĺ", "à®®à®¾à®©à®¤à¯ģ.", "Ġà¤¸à¥Ĥà¤ļ", "à°·à±įà°Ł", "Ġà®īà®³à¯įà®³à®Łà®ķà¯įà®ķà®¿à®¯", "Ġà¤¸à¥Ĥà¤ļà¤¨à¤¾", "Ġà°¸à°¿à°¦à±įà°§", "Ġà®ªà®ķà¯ģà®¤à®¿à®¯à¯Ī", "Ġà¤ªà¥įà¤°à¥Įà¤¦à¥įà¤¯à¥ĭà¤Ĺà¤¿à¤ķà¥Ģ", "Ġà®®à¯ģà®´", "Ġà¤¸à¥ĩà¤µ", "Ġà°ľà°¨à°µ", "Ġà®µà®°à®²à®¾à®±à¯ģ", "Ġà¤¸à¥ĩà¤µà¤¾à¤ĵà¤Ĥ", "Ġà°ľà°¨à°µà°°à°¿", "Ġà®¤à¯Ĭà®Łà¯įà®Ł", "Ġà¤ħà¤¨à¥įà¤¤à¤°", "Ġà°Ĺà°£à°¤à°Ĥà°¤à±įà°°", "Ġà®ķà®°", "Ġà¤ħà¤¨à¥įà¤¤à¤°à¤¿à¤ķà¥įà¤·", "Ġà°°à°¾à°ľà±įà°¯à°Ĥà°Ĺà°¾", "Ġà®ķà®°à¯ģà®¤", "Ġà¤īà¤²à¥įà¤²", "Ġà°µà°¿à°Ńà°¿à°¨à±įà°¨", "Ġà®ªà®ķà¯ģà®¤à®¿à®ķà®³à®¾à®©à®µà¯Ī", "Ġà¤īà¤²à¥įà¤²à¥ĩà¤ĸà¤¨", "Ġà°ľà°¾à°¤à±ģà°²à±ģ,", "Ġà®ļà¯ģà®®", "Ġà¤īà¤²à¥įà¤²à¥ĩà¤ĸà¤¨à¥Ģà¤¯", "Ġà®ļà¯ģà®®à®¾à®°à¯į", "Ġà¤ħà¤¦", "Ġà°ªà°°à°®", "Ġà®ķà®¾à®²à®®à®¿à®Ł", "Ġà¤ħà¤¦à¥įà¤µ", "à°°à±įà°·à°£", "Ġà®ķà®¾à®²à®®à®¿à®Łà®ªà¯įà®ªà®Łà¯ģà®ķ", "Ġà¤ħà¤¦à¥įà¤µà¤¿à¤¤", "Ġà°ļà°µ", "Ġà¤ħà¤¦à¥įà¤µà¤¿à¤¤à¥Ģà¤¯", "Ġà°²à°ķà±įà°·à°£", "Ġà®ªà®¿à®©à¯įà®©", "Ġà¤ªà¥įà¤°à¤Ĺ", "à°¾à°¡", "Ġà®ªà®¿à®©à¯įà®©à®°à¯į", "Ġà¤ªà¥įà¤°à¤Ĺà¤¤à¤¿", "Ġ1977", "Ġà®¨à®¿à®²à¯Īà®¯à®¾à®©", "Ġà¤«à¤¼à¤¿à¤²", "Ġà°ħà°ªà±įà°ª", "Ġà®µà®¿à®µ", "Ġà¤«à¤¼à¤¿à¤²à¥įà¤®", "Ġà°ĩà°Ĥà°¦", "Ġà®µà®¿à®µà®ļ", "Ġà¤«à¤¼à¤¿à¤²à¥įà¤®à¥ĩà¤Ĥ", "à°°à±įà°ľ", "Ġà®µà®¿à®µà®ļà®¾à®¯", "Ġà¤«à¤¼à¤¿à¤²à¥įà¤®à¥ĩà¤Ĥ,", "Ġà°®à°¾à°¤à±įà°°à°®", "Ġà®īà®±à¯įà®ª", "Ġà¤¸à¤Ĥà¤Ĺà¥Ģà¤¤", "Ġà°®à°¾à°¤à±įà°°à°®à±ĩ", "Ġà®īà®±à¯įà®ªà®¤à¯įà®¤", "Ġà¤Ĩà¤§à¥įà¤¯", "Ġà°µà°¾à°Ł", "Ġà®ªà¯Ĭà®°à¯ģà®Ł", "Ġà¤Ĩà¤§à¥įà¤¯à¤¾à¤¤à¥įà¤®", "Ġà°ķà°¾à°°à°£à°Ĥà°Ĺà°¾", "Ġà®µà¯Īà®ķà¯įà®ķ", "Ġà¤Ĩà¤§à¥įà¤¯à¤¾à¤¤à¥įà¤®à¤¿à¤ķ", "Ġ196", "Ġà®ħà®®à¯Īà®ªà¯įà®ªà¯ģà®ķà®³à¯į", "Ġà¤¶à¤¿à¤ķà¥įà¤·à¤¾", "Ġà°¯à±ģà°¦", "Ġà®ªà¯ĭà®©à¯įà®±", "Ġà¤µà¥Ī", "Ġà°¯à±ģà°¦à±įà°§", "Ġ2,", "Ġà¤µà¥Īà¤¶", "Ġà°ªà°°à±Ģ", "Ġà®ĩà®Łà¯Īà®¯", "Ġà¤µà¥Īà¤¶à¥įà¤µ", "Ġà°ªà°°à±Ģà°ķà±įà°·", "Ġà®ĩà®Łà¯Īà®¯à®¿à®²à¯į", "Ġà¤µà¥Īà¤¶à¥įà¤µà¤¿à¤ķ", "Ġà°¨à°¿à°°à±įà°µà°¹à°¿à°Ĥà°ļà°¿à°Ĥà°¦à°¿.", "Ġà®ķà¯Īà®µ", "Ġà¤Ńà¥Ĥà¤®à¤¿à¤ķ", "Ġà°®à°¾à°°", "Ġà®ķà¯Īà®µà®¿à®©", "Ġà¤Ńà¥Ĥà¤®à¤¿à¤ķà¤¾", "Ġà°°à°¾à°ľà±įà°¯à°¾à°Ĥà°Ĺà°Ĥ", "Ġà®ķà¯Īà®µà®¿à®©à¯Īà®ªà¯į", "Ġà¤¨à¤¿à¤", "Ġà°ħà°§à°¿à°ķà°¾à°°à°Ĥ", "Ġà®Īà®Ł", "Ġà¤¨à¤¿à¤Ń", "Ġà°²à±Ĩ", "Ġà®Īà®Łà¯ģà®ªà®Łà¯įà®Ł", "Ġà¤¨à¤¿à¤Ńà¤¾à¤¤", "Ġà°¨à±įà°¯à°¾à°¯à°µ", "à¯Īà®¯à®¿à®²à®¾à®©", "Ġà¤¨à¤¿à¤Ńà¤¾à¤¤à¥Ģ", "Ġà°¨à±įà°¯à°¾à°¯à°µà±įà°¯", "Ġà®ķà®¾à®²à®¤à¯įà®¤à®¿à®©à¯į", "Ġà¤Ĺà¤¼à¤°à¥Ģà¤¬à¥Ģ", "Ġà°¨à±įà°¯à°¾à°¯à°µà±įà°¯à°µà°¸à±įà°¥", "Ġà®İà®©à¯įà®ªà®¤à¯Ī", "Ġà¤ķà¤¾à¤", "Ġà°°à°¾à°·à±įà°Łà±įà°°à°¾à°²", "Ġà®µà®°à®²à®¾à®±à¯įà®±à®¾à®³", "Ġà¤ķà¤¾à¤«", "Ġà°ªà°¦à±įà°§", "Ġà®µà®°à®²à®¾à®±à¯įà®±à®¾à®³à®°à¯įà®ķà®³à¯į", "Ġà¤ķà¤¾à¤«à¤¼à¥Ģ", "Ġà°İà°²", "à¯ģà®ķà®¿à®©à¯įà®±à®©à®°à¯į.", "Ġà¤¹à¤¦", "Ġà°İà°²à°ķ", "à®¤à¯įà®¤à¯ģà®ķà¯įà®ķà¯ģà®³à¯į", "Ġà¤ķà¤®", "Ġà°İà°²à°ķà±įà°Ł", "à¯ĭà®ķ", "Ġà¤ªà¤°à¤®", "Ġà°İà°²à°ķà±įà°Łà±ĭ", "à®°à¯įà®ķà®³à¯į,", "Ġà¤ªà¤°à¤®à¤¾à¤£", "Ġà°İà°²à°ķà±įà°Łà±ĭà°°à°", "à¯Ģà®°", "Ġà¤ªà¤°à¤®à¤¾à¤£à¥ģ", "Ġà°İà°²à°ķà±įà°Łà±ĭà°°à°²", "Ġà®®à®ķà¯įà®ķà®³à¯Ī", "Ġà¤¬à¤®", "Ġà°İà°²à°ķà±įà°Łà±ĭà°°à°²à±į", "Ġà®ħà®µà®°à¯įà®ķà®³", "Ġà¤°à¤", "Ġà°ķà°¾à°²à±ĩà°ľ", "Ġà®¤à®ķà¯įà®ķ", "Ġà¤°à¤ĸ", "Ġà°¸à°Ĥà°µà°¤à±įà°¸à°°", "Ġà®¤à®ķà¯įà®ķà®¾à®£", "Ġà¤°à¤ĸà¤¨à¥ĩ", "à°ªà°°", "à¯ģà®ķà¯įà®ķà¯ģà®ķà¯į", "Ġà¤µà¤¾à¤²", "Ġà°İà°¨à±įà°¨à±ģà°ķà±ĭ", "à®±à¯įà®ķà®¾à®²", "Ġà¤µà¤¾à¤²à¤¾", "Ġà°İà°¨à±įà°¨à±ģà°ķà±ĭà°¬à°¡", "Ġà®ªà¯Ĩà®°à¯ģà®®à¯į", "à¤ļà¥Ģà¤¨", "Ġà°İà°¨à±įà°¨à±ģà°ķà±ĭà°¬à°¡à°¤", "Ġà®İà®£à¯įà®£à®¿à®ķà¯įà®ķ", "Ġà¤ķà¤¶à¥įà¤", "Ġà°İà°¨à±įà°¨à±ģà°ķà±ĭà°¬à°¡à°¤à°¾à°°à±ģ.", "Ġà®®à¯ģà®©à¯įà®©à¯ĩà®±à¯įà®±", "Ġà¤ķà¤¶à¥įà¤®", "Ġà°²à±ĭà°ķà±įâĢĮà°¸", "Ġà®ķà®¾à®Łà¯įà®Łà¯ģà®ķà®¿à®©à¯įà®±à®©.", "Ġà¤ķà¤¶à¥įà¤®à¥Ģà¤°", "Ġà°²à±ĭà°ķà±įâĢĮà°¸à°Ń", "Ġà®µà¯ĩà®³", "Ġà¤²à¥Ī", "Ġà°¸à°Ĥà°ĸà±įà°¯", "Ġà®µà¯ĩà®³à®¾à®£", "Ġà¤²à¥Īà¤Ĥà¤Ĺ", "Ġà°ªà°¾à°°à±įà°Łà±Ģ,", "à®¾à®²à¯ģà®®à¯į", "Ġà¤²à¥Īà¤Ĥà¤Ĺà¤¿à¤ķ", "Ġà°¸à°Ńà±įà°¯à±ģà°²à±ģ", "Ġà®ªà®¿à®¨à¯įà®¤", "Ġà¤ħà¤¸", "à°¿à°ļà±ĩ", "Ġà®ªà®¿à®¨à¯įà®¤à¯Īà®¯", "Ġà¤ħà¤¸à¤®à¤¾à¤¨", "Ġà°¨à°¿à°¯à°®à°¿à°Ĥà°ļ", "Ġà®ħà®®à¯Īà®ªà¯įà®ªà¯ģà®ķà®³à®¾à®©à®µà¯Ī", "Ġà¤ħà¤¸à¤®à¤¾à¤¨à¤¤à¤¾", "Ġà°īà°Ĥà°Łà±ģà°Ĥà°¦à°¿.", "Ġà®µà®³à®°à¯įà®¨à¯įà®¤à¯ģ", "Ġà¤ħà¤¸à¤®à¤¾à¤¨à¤¤à¤¾,", "à±Ģà°ķ", "Ġà®¨à®ķà®°à®®à®¯", "Ġà¤¶à¥ĭà¤·à¤£,", "à°¿à°¸à±įà°¤à°¾à°°à±ģ.", "Ġà®¨à®ķà®°à®®à®¯à®®", "Ġà¤ķà¥ģà¤ª", "Ġà°¶à°¾à°¸", "Ġà®¨à®ķà®°à®®à®¯à®®à®¾à®ķà¯įà®ķ", "Ġà¤ķà¥ģà¤ªà¥ĭà¤·à¤£,", "Ġà°¶à°¾à°¸à°¨", "Ġà®ļà®¾à®°", "Ġà¤Ĺà¤¼à¤°à¥Ģà¤¬à¥Ģ,", "Ġà°µà±įà°¯à°µà°¸à±įà°¥à°²à±ĭ", "Ġà®ļà®¾à®°à®¾à®¤", "Ġà¤Ńà¥įà¤°", "Ġà°İà°Ĺ", "Ġà®µà®³à®°à¯įà®ļà¯įà®ļà®¿à®ķà¯įà®ķ", "Ġà¤Ńà¥įà¤°à¤·", "Ġà°¸à°Ńà°¨à±ģ", "à®¤à¯įà®¤à¯ģà®ķà¯įà®ķà¯ģ", "Ġà¤Ńà¥įà¤°à¤·à¥įà¤Ł", "Ġà°²à±ĭà°ķà±į", "Ġà®ªà¯Ĩà®±à¯įà®±à®¤à¯ģ.", "Ġà¤Ńà¥įà¤°à¤·à¥įà¤Łà¤¾à¤ļà¤¾à¤°", "Ġà°ªà±įà°°à°ľà°²à±ģ", "Ġà®ªà¯ģà®¤à¯įà®¤à®°à®¿à®©à¯į", "Ġà¤Ńà¥įà¤°à¤·à¥įà¤Łà¤¾à¤ļà¤¾à¤°,", "à°¸à±įà°¥à°¾à°¨", "Ġà®¤à®µ", "Ġà¤ªà¥įà¤°à¤¦à¥Ĥ", "Ġà°°à°¿à°Ł", "Ġà®¤à®µà®¿à®°", "Ġà¤ªà¥įà¤°à¤¦à¥Ĥà¤·à¤£", "à°¸à±į,", "Ġà®¤à®µà®¿à®°à¯įà®¤à¯įà®¤", "Ġà¤ĩà¤¤à¥įà¤¯", "Ġà°µà±įà°¯à°µà°¸à±įà°¥à°ķà±ģ", "Ġà®¤à®µà®¿à®°à¯įà®¤à¯įà®¤à¯ģ", "Ġà¤ĩà¤¤à¥įà¤¯à¤¾à¤¦", "Ġà°ĺ", "Ġà®ħà®©", "Ġà¤ĩà¤¤à¥įà¤¯à¤¾à¤¦à¤¿", "à°¿à°¤à±įà°µ", "Ġà®ħà®©à¯Īà®¤à¯įà®¤à¯ģ", "Ġà¤¸à¤¾à¤®à¤¨à¥ĩ", "Ġà°ħà°¤à°¿à°ª", "Ġà®µà®ķà¯ģà®ªà¯įà®ª", "Ġà¤ļà¥ģà¤¨", "Ġà°ħà°¤à°¿à°ªà±Ĩà°¦à±įà°¦", "Ġà®µà®ķà¯ģà®ªà¯įà®ªà®¿à®©à®°", "Ġà¤ļà¥ģà¤¨à¥Į", "à°ķà±įà°·à°Ĥ", "Ġà®ªà®¿à®©à¯įà®ªà®±à¯įà®±", "Ġà¤ļà¥ģà¤¨à¥Įà¤¤", "Ġà°¦à°¾à°¦", "Ġà®ªà®¤à®¿à®µà¯ģ", "Ġà¤ļà¥ģà¤¨à¥Įà¤¤à¤¿à¤¯", "Ġà°¦à°¾à°¦à°¾à°ª", "à®²à®¿à®©à¯į", "Ġà¤ļà¥ģà¤¨à¥Įà¤¤à¤¿à¤¯à¤¾à¤ģ", "Ġà°¦à°¾à°¦à°¾à°ªà±ģ", "Ġà®ļà®®à®¯à®Ļà¯įà®ķà®³à¯ģà®®à¯į", "Ġ21.", "Ġà°ľà°¨à°¤", "Ġà®¤à¯ģà®±à®µ", "Ġà¤µà¤¨à¥įà¤¯", "Ġà°ľà°¨à°¤à°¾", "à®¨à¯įà®¤à®¤à¯ģ", "Ġà¤µà¤¨à¥įà¤¯à¤ľ", "Ġà°ĵ", "Ġà®¨à¯Ģà®Łà®¿à®¤à¯įà®¤", "Ġà¤µà¤¨à¥įà¤¯à¤ľà¥Ģà¤µ,", "Ġà°ªà±įà°°à°Ńà±ģà°¤à±įà°µà°¾à°¨à±įà°¨à°¿", "à®¿à®°à¯ģà®ķà¯įà®ķ", "Ġà¤ªà¤°à¤Ĥà¤ªà¤°à¤¾à¤Ĺ", "Ġà°ĩà°Ł", "Ġà®¤à¯Ĭà®²à¯Īà®¤", "Ġà¤ªà¤°à¤Ĥà¤ªà¤°à¤¾à¤Ĺà¤¤", "Ġà°ĩà°Łà±Ģà°µ", "Ġà®¤à¯Ĭà®²à¯Īà®¤à¯Ĥ", "Ġà¤¸à¤¹à¤¿à¤", "Ġà°ĩà°Łà±Ģà°µà°²", "Ġà®¤à¯Ĭà®²à¯Īà®¤à¯Ĥà®°", "Ġà¤¸à¤¹à¤¿à¤·", "à±ĭà°¤", "Ġà®ªà¯Ĩà®°à¯ģà®®à¯įà®ªà®¾à®²", "Ġà¤¸à¤¹à¤¿à¤·à¥įà¤", "Ġà®ªà¯Ĩà®°à¯ģà®®à¯įà®ªà®¾à®²à®¾à®©", "Ġà¤¸à¤¹à¤¿à¤·à¥įà¤£", "Ġà°¸à°¾à°°", "Ġà®ķà®Łà¯įà®Łà¯ģà®ªà¯įà®ªà®¾à®Łà¯įà®Łà®¿à®²à¯į", "Ġà¤¸à¤¹à¤¿à¤·à¥įà¤£à¥ģà¤¤à¤¾", "Ġà°¸à°¾à°°à±įà°µà°¤", "Ġà®®à¯Īà®¯à®ªà¯į", "Ġà¤ľà¤Ĥà¤Ĺ", "Ġà°¸à°¾à°°à±įà°µà°¤à±įà°°", "Ġà®®à®©à¯įà®©", "Ġà¤ľà¤Ĥà¤Ĺà¤²", "Ġà°¸à°¾à°°à±įà°µà°¤à±įà°°à°¿à°ķ", "Ġà®¤à®Ļà¯įà®ķà®³", "Ġà¤ľà¤Ĥà¤Ĺà¤²à¥ĭà¤Ĥ", "Ġà°ķà°²à°¿à°¸à°¿", "Ġà®¤à®Ļà¯įà®ķà®³à®¤à¯ģ", "Ġà¤ľà¤Ĺ", "Ġà®®à®ķà¯įà®ķà®³à®¿à®©à¯į", "Ġà¤ľà¤Ĺà¤¹", "Ġà°İà°¨à±įà°¨à°¿à°ķà°²à±įà°²à±ĭ", "à®µà¯ģà®®à¯į", "Ġà¤ľà¤Ĺà¤¹à¥ĭà¤Ĥ", "Ġà°ķà°¾à°Ĥà°Ĺà±įà°°à±Ĩà°¸à±į", "Ġà®¤à®®à®¿à®´", "Ġà¤¸à¤Ĥà¤°", "à°¿à°Ĥà°¦à°¿", "Ġà®ĩà®²à®ķà¯įà®ķà®¿à®¯", "Ġà¤¸à¤Ĥà¤°à¤ķà¥įà¤·", "Ġà°¸à±įà°¥à°¾à°¨à°¾à°²à°¨à±ģ", "Ġà¤¸à¤Ĥà¤°à¤ķà¥įà¤·à¤¿à¤¤", "Ġà°Ĺà±Ĩà°²à±ģà°", "à®°à¯į,", "Ġà¤Ĩà¤µ", "Ġà°Ĺà±Ĩà°²à±ģà°ļ", "Ġà®ļà¯ĭ", "Ġà¤Ĩà¤µà¤¾à¤¸", "Ġà°Ĺà±Ĩà°²à±ģà°ļà±ģà°ķà±ĭà°µà°¡", "Ġà®ļà¯ĭà®´", "Ġà¤Ĩà¤µà¤¾à¤¸à¥ĭà¤Ĥ", "Ġà°Ĺà±Ĩà°²à±ģà°ļà±ģà°ķà±ĭà°µà°¡à°Ĥ", "Ġà®ªà®¾à®£à¯įà®Łà®¿à®¯", "Ġà¤ķà¤°à¤¤à¥ĩ", "à±ĩà°·", "à®°à®¾à®²à¯į", "Ġà¤«à¤¼à¤°", "Ġà°Ńà±Įà°Ĺà±ĭà°³", "Ġà®Ĩà®³", "Ġà¤«à¤¼à¤°à¤µ", "Ġà°Ńà±Įà°Ĺà±ĭà°³à°¿à°ķ", "Ġà®īà®±à¯ģà®¤à®¿à®ªà¯įà®ª", "Ġà¤«à¤¼à¤°à¤µà¤°à¥Ģ", "à°¨à°µ", "Ġà®īà®±à¯ģà®¤à®¿à®ªà¯įà®ªà®Łà¯ģà®¤à¯įà®¤", "Ġ1948", "Ġà°ķà±ģà°²à°¾à°²à±ģ,", "Ġà®¨à®¿à®²à¯Īà®ķà¯įà®ķ", "Ġà¤®à¤¹à¤¾à¤¤à¥įà¤®", "à±įà°°à°¦", "Ġà®µà®ķà¯ģà®¤à¯įà®¤", "Ġà¤®à¤¹à¤¾à¤¤à¥įà¤®à¤¾", "à°¿à°¨à±įà°¨à°¤à±įà°µ", "Ġà®µà®ķà¯ģà®¤à¯įà®¤à®¤à¯ģ.", "Ġà¤Ĺà¤¾à¤ģ", "Ġà°Īà°¶", "Ġà®¨à¯Ĥà®±à¯įà®±à®¾à®£à¯įà®Łà¯ģà®ķà®³à®¿à®©à¯į", "Ġà¤Ĺà¤¾à¤ģà¤§", "Ġà°Īà°¶à°¾à°¨", "Ġà®ķà¯Ģà®´", "Ġà¤Ĺà¤¾à¤ģà¤§à¥Ģ", "Ġà°Īà°¶à°¾à°¨à±įà°¯", "Ġà®ķà¯Ģà®´à¯į", "Ġà¤ħà¤¸à¥įà¤", "Ġà°°à°¾à°·à±įà°Łà±įà°°à°¾à°²à±ģ", "Ġà®®à¯ģà®±à¯Īà®¯à¯Ī", "Ġà¤ħà¤¸à¥įà¤¥", "Ġà°ķà±Ĥà°¡à±ģà°ķà±ģà°¨à°¿", "Ġà®ªà®ķà¯įà®¤", "Ġà¤ħà¤¸à¥įà¤¥à¤¿", "Ġà°ªà±Ģ", "Ġà®ªà¯ģà®¤à¯ģà®ªà¯įà®ª", "Ġà¤ķà¤²à¤¶", "Ġà°ªà±Ģà°", "Ġà®®à®²", "Ġà¤µà¤¿à¤¸à¤°à¥įà¤", "Ġà°ªà±Ģà°ł", "Ġà®ªà¯ģà®°à®µà®²", "Ġà¤µà¤¿à¤¸à¤°à¥įà¤ľ", "Ġà°ªà±Ģà°łà°Ń", "à®µà¯įà®µ", "Ġà¤µà¤¿à¤¸à¤°à¥įà¤ľà¤¿à¤¤", "Ġà°ªà±Ģà°łà°Ńà±Ĥà°", "à®¿à®¯à®²à¯į,", "Ġà¤ķà¤¿à¤", "Ġà°ªà±Ģà°łà°Ńà±Ĥà°®", "Ġà®µà®°à¯Ī", "Ġà¤ķà¤¿à¤ı", "à±Īà°ª", "Ġà®ªà®¿à®°à®¾à®", "Ġà¤¥à¥ĩ,", "Ġà°ķà°¨à±ģà°®", "Ġà®ªà®¿à®°à®¾à®¨à¯įà®¤à®¿à®¯", "Ġà¤¤à¥įà¤°", "Ġà°ķà±Ĭà°¨à±įà°¨à°¿", "Ġà®®à¯ģà®¯à®±à¯įà®ļà®¿", "Ġà¤¤à¥įà¤°à¤¿à¤®", "Ġà°Ĺà°Ĥà°Ĺ", "Ġà®ļà®¾à®³", "Ġà¤¤à¥įà¤°à¤¿à¤®à¥ĭà¤¹", "Ġà°¦à±ĩà°¶à°ªà±ģ", "Ġà®ļà®¾à®³à¯ģà®ķà¯įà®ķà®¿à®¯", "Ġà¤¤à¥įà¤°à¤¿à¤®à¥ĭà¤¹à¤¿à¤¨", "à°¨à°¾à°²à±ģ", "Ġà®Ĩà®Łà¯įà®ļà®¿à®¯à®¾à®³", "Ġà¤¤à¥įà¤°à¤¿à¤®à¥ĭà¤¹à¤¿à¤¨à¥Ģ", "Ġà°¸à°¾à°§", "Ġà®¤à¯ĭà®±à¯įà®ķà®Łà®¿à®ķà¯įà®ķà®ªà¯įà®ªà®Łà¯įà®Łà®¾à®°à¯į.", "Ġà¤īà¤¨à¤®à¥ĩà¤Ĥ", "Ġà°¢à°¿à°²à±įà°²à±Ģ,", "Ġà®ªà®²à¯įà®²", "Ġ|", "à°®à±įà°®", "Ġà®ªà®²à¯įà®²à®µà®°à¯įà®ķà®³", "Ġà¤¨à¤¾à¤®à¥ĭ", "à°¾à°¶", "à®µà¯ĭ", "Ġà¤¨à¤¾à¤®à¥ĭà¤¤", "à°°à±į", "Ġà®ĩà®£à¯Īà®ķà¯įà®ķà®ªà¯įà®ªà®Łà¯įà®Ł", "Ġà¤¨à¤¾à¤®à¥ĭà¤¤à¥įà¤ªà¤¤à¥įà¤¤à¤¿", "Ġà°ªà±įà°°à°ľà°²", "Ġà®ĩà®£à¯Īà®ķà¯įà®ķà®ªà¯įà®ªà®Łà¯įà®Łà®©à®°à¯į.", "Ġà¤Ĩà¤§à¤¿à¤ķà¤¾à¤°à¤¿à¤ķ", "Ġà°ªà±įà°°à°Ńà±ģà°¤à±įà°µà°Ĥ", "à¯ģà®ķà®³à®¿à®²à¯į", "Ġà¤¹à¤¿à¤¨à¥įà¤¦à¥Ģ", "à°¾à°°à±įà°ķ", "Ġà®ķà¯ĭà®¯", "Ġ(India", "Ġà°ľà°¾à°¬", "Ġà®ĩà®¨à¯įà®¨à®¿à®²", "Ġ(India)", "Ġà°ľà°¾à°¬à°¿à°¤", "à®¿à®¯à®¾,", "Ġà¤īà¤¤à¥įà¤ªà¤¤à¥įà¤¤à¤¿", "à°¾à°¯à°Ĥ", "à¯Ĩà®Łà¯ģà®¤à¯įà®¤", "Ġà¤¨à¤¦", "à±Ĥà°²", "Ġ(à®Ĩ", "Ġà¤¨à¤¦à¥Ģ", "à°¾à°¦à°¾à°¯", "Ġ(à®Ĩà®Ļà¯įà®ķà®¿à®²", "à°¾à°¦à°¾à°¯à°Ĥà°²à±ĭ", "Ġ(à®Ĩà®Ļà¯įà®ķà®¿à®²à®®à¯į", "Ġ\"à¤", "Ġà°ķà°Ĥà°Ł", "Ġ(à®Ĩà®Ļà¯įà®ķà®¿à®²à®®à¯į:", "Ġ\"à¤ĩ", "Ġà°¤à°ķà±įà°ķà±ģà°µ", "Ġà®¨à®¾à®Łà¯ģ", "Ġ\"à¤ĩà¤Ĥà¤¡", "Ġà°ªà°°à°¿à°¶", "Ġà®ħà®¤à®¿à®ķà®¾à®°à®ªà¯įà®ª", "Ġ\"à¤ĩà¤Ĥà¤¡à¤¸", "Ġà°ªà°°à°¿à°¶à±įà°°à°®", "Ġà®ħà®¤à®¿à®ķà®¾à®°à®ªà¯įà®ªà¯Ĥà®°à¯įà®µ", "Ġ\"à¤ĩà¤Ĥà¤¡à¤¸\"", "Ġà°ªà°°à°¿à°¶à±įà°°à°®à°²à±ģ", "Ġà®ħà®¤à®¿à®ķà®¾à®°à®ªà¯įà®ªà¯Ĥà®°à¯įà®µà®®à®¾à®ķ", "Ġà¤¶à¥įà¤°à¥Ģà¤®", "à°³à°¿,", "Ġà®ĩà®¨à¯įà®¤à®¿à®¯à®ķà¯į", "Ġà¤¶à¥įà¤°à¥Ģà¤®à¤¦", "Ġà°ĩà°¨", "Ġà®ķà¯ģà®Łà®¿à®¯à®°à®ļà¯ģ", "Ġà¤¶à¥įà¤°à¥Ģà¤®à¤¦à¥įà¤Ń", "Ġà°Ł", "Ġ(R", "Ġà¤¶à¥įà¤°à¥Ģà¤®à¤¦à¥įà¤Ńà¤¾à¤Ĺ", "à±įà°°à°¾à°®", "Ġ(Re", "Ġà¤¶à¥įà¤°à¥Ģà¤®à¤¦à¥įà¤Ńà¤¾à¤Ĺà¤µ", "à°¾à°«", "Ġ(Rep", "Ġà¤¶à¥įà¤°à¥Ģà¤®à¤¦à¥įà¤Ńà¤¾à¤Ĺà¤µà¤¤", "à±Ĩà°¸à±į", "Ġ(Repu", "Ġà¤®à¤¹à¤¾à¤ª", "Ġà°ªà±įà°°à°ªà°Ĥà°ļà°Ĥà°²à±ĭà°¨à°¿", "Ġ(Repub", "Ġà¤®à¤¹à¤¾à¤ªà¥ģà¤°", "Ġ(Republi", "Ġà¤®à¤¹à¤¾à¤ªà¥ģà¤°à¤¾à¤£", "Ġà°ªà°Łà±įà°Łà°£à°¾à°²à±ģ,", "Ġ(Republic", "Ġà¤ķà¤¥à¤¾", "Ġà°ħà°¯à°¿à°¨à°ªà±įà°ªà°Łà°¿à°ķ", "Ġà¤®à¤¨à¥ģ", "à°ĩ", "Ġà¤µà¤Ĥà¤¶à¤ľ", "Ġà°µà°°à±įà°Ĺ", "Ġà®ħà®´à¯Īà®ķà¯įà®ķ", "Ġà¤ĭà¤·", "Ġà°¨à°Ĺà°°à°¾à°²à±ģ", "Ġà®ħà®´à¯Īà®ķà¯įà®ķà®ªà¯įà®ªà®Łà¯ģà®ķà®¿à®±à®¤à¯ģ.", "Ġà¤ĭà¤·à¤Ń", "Ġà°®à±ģà°Ĥà°¬à±Ī", "Ġà®ªà®°à®ªà¯įà®ªà®³à®µà¯ģ", "Ġà¤ĭà¤·à¤Ńà¤¦", "à°¾à°Ĥà°¬", "Ġà®ıà®´", "Ġà¤ĭà¤·à¤Ńà¤¦à¥ĩ", "Ġà°ķà±ĭà°²à±įâĢĮ", "Ġà®ıà®´à®¾à®µà®¤à¯ģ", "Ġà¤ĭà¤·à¤Ńà¤¦à¥ĩà¤µ", "Ġà°ķà±ĭà°²à±įâĢĮà°ķ", "Ġà®¨à®¾à®Łà¯ģà®®à¯į,", "Ġà¤¬à¥ĩà¤Ł", "Ġà°ķà±ĭà°²à±įâĢĮà°ķà°¾à°¤", "Ġà®¤à¯Ĭà®ķà¯Īà®¯à®¿à®©à¯į", "Ġà¤¬à¥ĩà¤Łà¥ĩ", "Ġà°ķà±ĭà°²à±įâĢĮà°ķà°¾à°¤à°¾", "Ġà®īà®²à®ķà®¿à®²à¯į", "Ġà¤Ńà¤°", "Ġà°ļà±Ĩà°¨à±įà°¨", "Ġà®®à¯ģà®¤à®²", "Ġà¤Ńà¤°à¤¤", "Ġà°ļà±Ĩà°¨à±įà°¨à±Ī", "Ġà®®à¯ģà®¤à®²à®¾à®®", "Ġà¤µà¥įà¤¯à¥ģà¤¤", "Ġà°¹à±Īà°¦", "Ġà®®à¯ģà®¤à®²à®¾à®®à®¿à®Ł", "Ġà¤µà¥įà¤¯à¥ģà¤¤à¥įà¤ªà¤¤à¥įà¤¤à¤¿", "Ġà°¹à±Īà°¦à°°", "Ġà®®à¯ģà®¤à®²à®¾à®®à®¿à®Łà®¤à¯įà®¤à¯Īà®ķà¯į", "Ġ(à¤Ń", "Ġà°¹à±Īà°¦à°°à°¾à°¬à°¾à°¦", "Ġà®¨à®¾à®Łà¯ģà®®à¯į", "Ġ(à¤Ńà¤¾", "Ġà®ĩà®¤à¯ģà®µ", "Ġ+", "3,", "Ġà®ĩà®¤à¯ģà®µà®¾à®ķà¯ģà®®à¯į.", "Ġà¤°à¤¤", "Ġà®ĩà®¤à®±à¯įà®ķà¯ģà®¤à¯į", "Ġà¤°à¤¤)", "4%,", "Ġà®ªà¯Ĩà®°à¯ģà®Ļà¯įà®ķà®Łà®²à¯ģà®®à¯į,", "Ġà¤¶à¤¬", "Ġà°ªà±ģà°°à±ģà°·", "Ġà®ħà®°à®ª", "Ġà¤¶à¤¬à¥įà¤¦", "Ġà°ħà°ķà±įà°·à°°à°¾à°¸à±įà°¯à°¤", "Ġà®ħà®°à®ªà®¿à®ķà¯įà®ķ", "Ġà¤®à¤¤à¤²", "à°¿à°³", "Ġà®ħà®°à®ªà®¿à®ķà¯įà®ķà®Łà®²", "Ġà¤®à¤¤à¤²à¤¬", "Ġ10", "Ġà®ħà®°à®ªà®¿à®ķà¯įà®ķà®Łà®²à¯ģà®®à¯į,", "Ġà¤Ĩà¤Ĥ", "Ġà°īà°¨à±įà°¨à°¾à°°à±ģ.", "Ġà®µà®¿à®°à®¿à®ķ", "Ġà¤Ĩà¤Ĥà¤¤à¤°", "3.", "Ġà®µà®¿à®°à®¿à®ķà¯ģà®Ł", "Ġà¤Ĩà¤Ĥà¤¤à¤°à¤¿à¤ķ", "Ġà°®à±ģà°¸à±įà°", "Ġà®µà®¿à®°à®¿à®ķà¯ģà®Łà®¾à®µ", "Ġà¤µà¤¿à¤¦", "Ġà°®à±ģà°¸à±įà°²", "Ġà®µà®¿à®°à®¿à®ķà¯ģà®Łà®¾à®µà¯ģà®®à¯į", "Ġà¤µà¤¿à¤¦à¥ĩ", "Ġà°®à±ģà°¸à±įà°²à°¿à°", "Ġà®ļà¯Ĥ", "Ġà¤µà¤¿à¤¦à¥ĩà¤ķ", "Ġà°®à±ģà°¸à±įà°²à°¿à°Ĥ", "Ġà®ļà¯Ĥà®´à¯įà®¨à¯įà®¤", "à¤°à¥Ĥà¤ªà¥Ģ", "0%),", "Ġà®ļà¯Ĥà®´à¯įà®¨à¯įà®¤à¯ģà®³à¯įà®³à®©.", "Ġà¤²à¥Ģà¤¨", "%),", "Ġà®ªà®¾à®ķà¯įà®ķà®¿à®¤à¯įà®¤à®¾à®©à¯į,", "Ġà¤¤à¥Ģà¤¸à¤°à¤¾", "0.", "Ġà®µà®Łà®ķà¯įà®ķà¯ĩ", "Ġà¤Ńà¥Ĥà¤®à¤¿,", "Ġà°ķà°¾à°°à±įà°¯à°ķà±įà°°à°®", "Ġà®ļà¯Ģà®©", "Ġà¤µà¤¿à¤¶à¥ĩà¤·à¤ķà¤°", "à°Ĥà°Ĺà°¾,", "Ġà®ļà¯Ģà®©à®¾,", "Ġà¤Īà¤°à¤¾à¤¨", "Ġà°ľà°°à±ģà°ªà±ģà°ķà±ģà°Ĥà°Łà°¾à°°à±ģ.", "Ġà®¨à¯ĩ", "Ġà¤¬à¤¹", "Ġà°ªà°Ĥà°¡à±ģà°Ĺ", "Ġà®¨à¯ĩà®ª", "Ġà¤¬à¤¹à¥ģà¤¤", "Ġà°ªà°Ĥà°¡à±ģà°Ĺà°²à±ģ", "Ġà®¨à¯ĩà®ªà®¾à®³", "Ġà¤®à¥ģà¤Ĥà¤", "Ġà°Ńà°¾à°·à°²à°¨à±ģ", "Ġà®¨à¯ĩà®ªà®¾à®³à®®à¯į,", "Ġà¤®à¥ģà¤Ĥà¤¹", "Ġà°¤à±Ĩà°²", "Ġà®ªà¯Ĥ", "Ġà¤®à¥ģà¤Ĥà¤¹à¤¬", "à±Ĥà°°à±ģ", "Ġà®ªà¯Ĥà®Łà¯įà®Ł", "Ġà¤®à¥ģà¤Ĥà¤¹à¤¬à¥ĭà¤²", "°à°¤", "Ġà®ªà¯Ĥà®Łà¯įà®Łà®¾à®©à¯į", "Ġà¤®à¥ģà¤Ĥà¤¹à¤¬à¥ĭà¤²à¤¾", "âĢĮà°µ", "Ġà®ªà¯Ĥà®Łà¯įà®Łà®¾à®©à¯į,", "Ġà¤¸à¥ĭà¤¨à¥ĩ", "Ġà°¸à±Įà°ķà°°à±įà°¯à°¾à°²à±ģ", "Ġà®µà®Ļà¯įà®ķà®¾à®³à®¤", "Ġà¤ļà¤¿à¤", "Ġà°¸à±Įà°ķà°°à±įà°¯à°¾à°²à°²à±ĭ", "Ġà®µà®Ļà¯įà®ķà®¾à®³à®¤à¯ĩà®ļ", "Ġà¤ļà¤¿à¤¡à¤¼", "à°¤à°¿à°¨à°¿", "Ġà®µà®Ļà¯įà®ķà®¾à®³à®¤à¯ĩà®ļà®®à¯į", "Ġà¤ļà¤¿à¤¡à¤¼à¤¿à¤¯à¤¾", "Ġà°¨à°¿à°¡", "Ġà®Ĩà®ķà®¿à®¯à®µà®±à¯įà®±à¯ģà®Łà®©à¯į", "Ġà¤®à¤¹à¤¾à¤ķ", "Ġà°¨à°¿à°¡à°¿à°µ", "Ġà®İà®²à¯įà®²à¯Īà®ķà®³à¯Ī", "Ġà¤®à¤¹à¤¾à¤ķà¤¾à¤µ", "¢à°¾à°ķ", "Ġà®ªà¯Ĩà®°à¯ģà®Ļà¯įà®ķà®Łà®²à®¿à®²à¯į", "Ġà¤®à¤¹à¤¾à¤ķà¤¾à¤µà¥įà¤¯", "¢à°¾à°ķà°¾", "Ġà®ĩà®²à®Ļà¯įà®ķà¯Ī", "Ġà¤®à¤¹à¤¾à¤Ń", "à°¢à°¿à°²à±įà°²", "Ġà®®à®¾à®²", "Ġà¤®à¤¹à¤¾à¤Ńà¤¾à¤°à¤¤", "à°¢à°¿à°²à±įà°²à±Ģ", "Ġà®®à®¾à®²à®¤à¯įà®¤à¯Ģ", "Ġà¤ħà¤¨à¥įà¤¤à¤°à¥įà¤", "à°²à°¾à°¹", "Ġà®®à®¾à®²à®¤à¯įà®¤à¯Ģà®µ", "Ġà¤ħà¤¨à¥įà¤¤à¤°à¥įà¤Ĺ", "à°²à°¾à°¹à±ĭà°°", "Ġà®®à®¾à®²à®¤à¯įà®¤à¯Ģà®µà¯ģà®ķà¯įà®ķà¯ģ", "Ġà¤ħà¤¨à¥įà¤¤à¤°à¥įà¤Ĺà¤¤", "Ġà°Ńà°¾à°°à°¤à±į,", "Ġà®ħà®°à¯ģà®ķ", "Ġà¤Ĩà¤¤à¤¾", "Ġà°ªà°¾à°ķà°¿à°¸à±įà°¥à°¾à°¨à±į,", "Ġà®ħà®°à¯ģà®ķà®¿à®²à¯į", "Ġà¤¨à¤¾à¤®à¥ĭà¤Ĥ", "Ġà°¬à°Ĥà°Ĺà±įà°²à°¾à°¦à±ĩà°¶à±įâĢĮ", "Ġà®ħà®®à¯Īà®¨à¯įà®¤à¯ģà®³à¯įà®³à®¤à¯ģ.", "Ġà¤ĩà¤Ĥà¤¡à¤¿à¤¯à¤¾,", "Ġà°ªà±įà°°à°¾à°°à°Ĥà°Ńà°¿à°Ĥà°ļ", "Ġà®ªà®ķà¯ģà®¤à®¿à®¯à®¾à®©", "Ġà¤Ńà¤¾à¤°à¤¤à¤µ", "Ġà°ªà±įà°°à°¤à°¿à°ªà°¾à°¦à°¨à°ķà±ģ", "Ġà®ħà®¨à¯įà®¤", "Ġà¤Ńà¤¾à¤°à¤¤à¤µà¤°à¥įà¤·", "à±ģà°¤à±Ĥ", "Ġà®ħà®¨à¯įà®¤à®®", "Ġà¤Ńà¤¾à¤°à¤¤à¤µà¤°à¥įà¤·,", "Ġà°°à±Īà°²à±įà°µà±ĩà°¶", "Ġà®ħà®¨à¯įà®¤à®®à®¾à®©à¯į", "Ġà¤Ĩà¤°à¥įà¤¯", "Ġà°°à±Īà°²à±įà°µà±ĩà°¶à°¾à°ĸ", "Ġà®¨à®¿à®ķà¯įà®ķ", "Ġà¤Ĩà¤°à¥įà¤¯à¤¾à¤µ", "Ġà°ªà°¾à°ķà±į", "Ġà®¨à®¿à®ķà¯įà®ķà¯ĭ", "Ġà¤Ĩà¤°à¥įà¤¯à¤¾à¤µà¤°à¥įà¤", "Ġà°¨à°¡à°¿à°ªà°¿à°Ĥà°ļà°Ł", "Ġà®¨à®¿à®ķà¯įà®ķà¯ĭà®ª", "Ġà¤Ĩà¤°à¥įà¤¯à¤¾à¤µà¤°à¥įà¤¤", "à±ĩà°¨à°¨", "Ġà®¨à®¿à®ķà¯įà®ķà¯ĭà®ªà®¾à®°à¯į", "Ġà¤Ĩà¤°à¥įà¤¯à¤¾à¤µà¤°à¥įà¤¤,", "à°ļà±įà°ļà°¨à°¿", "Ġà®¤à¯Ģà®µ", "Ġà¤¹à¤¿à¤¨à¥įà¤¦,", "Ġà°¨à°¿à°ª", "Ġà®¤à¯Ģà®µà¯ģà®ķà®³à®¾à®©à®µà¯Ī", "Ġà¤¹à¤¿à¤¨à¥įà¤¦à¥ģà¤¸à¥įà¤¤à¤¾à¤¨,", "Ġà°¨à°¿à°ªà±ģà°", "Ġà®ĩà®¨à¯įà®¤à¯ĭà®©à¯ĩà®ļà®¿à®¯à®¾à®µà¯ģà®Łà®©à¯į", "Ġà¤ľà¤Ĥà¤¬", "Ġà°¨à°¿à°ªà±ģà°£", "Ġà®ķà®Łà®²à¯į", "Ġà¤ľà¤Ĥà¤¬à¥Ĥà¤¦", "Ġà°¨à°¿à°ªà±ģà°£à±ģà°²à±ģ", "Ġà®İà®²à¯įà®²à¯Īà®¯", "Ġà¤ľà¤Ĥà¤¬à¥Ĥà¤¦à¥įà¤µà¥Ģà¤ª", "Ġà°¸à±Ĥà°ļà°¿à°Ĥà°ļà°¿à°¨", "Ġà®İà®²à¯įà®²à¯Īà®¯à¯Īà®ªà¯į", "Ġà¤Ĩà¤¦à¤¿", "Ġà°¸à±Ĥà°ļà°¿à°Ĥà°ļà°¿à°¨à°Łà±įà°²à±ģ", "Ġà®ķà¯Ĭà®³", "Ġà¤ħà¤¤à¥įà¤¯à¤Ĥ", "à°ļà°¨", "Ġà®ķà¯Ĭà®³à¯įà®ķ", "Ġà¤ħà¤¤à¥įà¤¯à¤Ĥà¤¤", "Ġà°ªà±įà°°à°¯à±ĭ", "Ġà®ķà¯Ĭà®³à¯įà®ķà®¿à®©à¯įà®±à®©.", "Ġà¤¸à¤®à¥ĥ", "Ġà°ªà±įà°°à°¯à±ĭà°ľ", "Ġà®¤à¯ģà®£à¯Īà®ķà¯įà®ķà®£à¯įà®Łà®¤à¯įà®¤à®¿à®±à¯įà®ķà¯ģ", "Ġà¤¸à¤®à¥ĥà¤¦à¥įà¤§", "Ġà°®à°¨à°¦à±ĩà°¶à°Ĥ", "Ġà®ķà¯ģà®±à¯Īà®¨à¯įà®¤", "Ġà¤ľà¤¿à¤¸à¤®à¥ĩà¤Ĥ", "Ġà°īà°Ĥà°¡à°Ł", "Ġà®ķà¯ģà®±à¯Īà®¨à¯įà®¤à®¤à¯ģ", "Ġà¤¸à¥įà¤µà¤¤à¤Ĥà¤¤à¥įà¤°à¤¤à¤¾", "Ġà°ķà±ĩà°µ", "Ġà®¤à®©à®¿à®®", "Ġà¤¸à¤Ĥà¤Ĺà¥įà¤°", "Ġà°ķà±ĩà°µà°²", "Ġà®¤à®©à®¿à®®à¯Īà®ªà¯įà®ªà®Łà¯ģà®¤à¯įà®¤à®ªà¯įà®ªà®Łà¯įà®Ł", "Ġà¤¸à¤Ĥà¤Ĺà¥įà¤°à¤¾à¤®", "Ġà°ķà±ĩà°µà°²à°Ĥ", "Ġà®¤à®©à®¿à®®à¯Īà®ªà¯įà®ªà®Łà¯ģà®¤à¯įà®¤à®ªà¯įà®ªà®Łà¯įà®Łà®¤à®©à¯į", "Ġà¤ħà¤¨à¥ĩ", "Ġà°µà°¾à°¯", "Ġà®µà¯ĩà®Łà¯įà®Ł", "Ġà¤ħà¤¨à¥ĩà¤ķ", "Ġà°µà°¾à°¯à±ģ", "Ġà®µà¯ĩà®Łà¯įà®Łà¯Īà®¯", "Ġà¤®à¤¹à¤¤", "Ġà°µà°¿à°®", "Ġà®µà¯ĩà®Łà¯įà®Łà¯Īà®¯à®¾à®Ł", "Ġà¤®à¤¹à¤¤à¥įà¤µ", "Ġà°µà°¿à°®à°¾à°¨", "Ġà®µà¯ĩà®Łà¯įà®Łà¯Īà®¯à®¾à®Łà®¿", "Ġà¤®à¤¹à¤¤à¥įà¤µà¤ª", "Ġà°¨à°Ĺà°°", "à®ļà¯ĩ", "Ġà¤®à¤¹à¤¤à¥įà¤µà¤ªà¥Ĥà¤°à¥įà¤£", "Ġà°ĩà°¤à°°à°", "à®ļà¯ĩà®ķà®°", "Ġà¤ļà¤°à¤£", "Ġà°ĩà°¤à°°à°¦à±ĩà°¶", "à®ļà¯ĩà®ķà®°à®¿à®¤à¯įà®¤à¯ģ", "Ġà¤¶à¤¾à¤®", "Ġà°ľà°²", "Ġà®īà®£à¯įà®ª", "Ġà¤¶à¤¾à¤®à¤¿à¤²", "Ġà°®à±ģà°¡à°¿", "Ġà®īà®£à¯įà®ªà®µà®°à¯įà®ķà®³", "Ġà¤²à¤Ĺà¤Ń", "Ġà°ĸà°¨", "Ġà®īà®£à¯įà®ªà®µà®°à¯įà®ķà®³à®¾à®ķ", "Ġà¤²à¤Ĺà¤Ńà¤Ĺ", "Ġà°ĸà°¨à°¿à°ľ", "Ġà®ķà®¾à®²à®®à®¾à®ķ", "Ġà°ĸà°¨à°¿à°ľà°¾à°²à±ģ", "Ġà®µà®¾à®´à¯įà®¨à¯įà®¤à¯ģ", "Ġ142", "Ġà®®à®°à®ªà®£à¯ģ", "Ġ(à¤ª", "Ġà°ķà±ĭà°Łà±įà°²à°ķà±ģ", "Ġà®°à¯Ģà®¤à®¿à®¯à®¿à®²à¯į", "Ġ(à¤ªà¥įà¤°", "Ġà°¸à±įà°¥à°¾à°¨à°Ĥà°²à±ĭ,", "Ġà®µà¯ĩà®±à¯įà®±à¯ģà®®à¯Īà®ķà®³à¯Ī", "Ġ(à¤ªà¥įà¤°à¤¾à¤ļà¥Ģà¤¨", "Ġ32,", "Ġà®īà®Łà¯Īà®¯à®¤à®¾à®ķ", "Ġà¤Ńà¤¾à¤°à¤¤)", "87", "Ġà®ĩà®ªà¯įà®ªà®ķ", "Ġà¤¹à¥ĭà¤®", "87,", "Ġà®ĩà®ªà¯įà®ªà®ķà¯ģà®¤", "Ġà¤¹à¥ĭà¤®à¥ĭ", "26", "Ġà®ĩà®ªà¯įà®ªà®ķà¯ģà®¤à®¿à®¯à¯Ī", "Ġà¤¸à¥ĩà¤ª", "263", "Ġà®Ĩà®ķà¯įà®ķà®¿à®¯", "Ġà¤¸à¥ĩà¤ªà¤¿à¤¯", "Ġà°ļ.", "Ġà®Ĩà®ķà¯įà®ķà®¿à®¯à¯ģà®³à¯įà®³à®¤à¯ģ.", "Ġà¤¸à¥ĩà¤ªà¤¿à¤¯à¤Ĥ", "à°ķà°¿.", "Ġà®®à®°à®ªà®¿à®¯à®±", "Ġà¤¸à¥ĩà¤ªà¤¿à¤¯à¤Ĥà¤¸", "à°®à±Ģ", "Ġà®®à®°à®ªà®¿à®¯à®±à¯į", "Ġà¤ħà¤«à¥įà¤°à¥Ģ", "Ġà°µà°¿à°¸à±įà°¤à±Ģà°°à±įà°£", "Ġà®ªà®²à¯įà®µà®ķà¯Īà®®à¯Īà®¯", "Ġà¤ħà¤«à¥įà¤°à¥Ģà¤ķà¤¾", "Ġà°µà°¿à°¸à±įà°¤à±Ģà°°à±įà°£à°Ĥà°¤à±ĭ", "Ġà®ªà®²à¯įà®µà®ķà¯Īà®®à¯Īà®¯à®¿à®²à¯į", "Ġà¤ªà¤¹à¥ģà¤", "Ġà°µà±Īà°¶", "Ġà®Ĩà®ªà¯įà®ªà®¿à®°à®¿à®ķà¯įà®ķà®¾à®µà¯ģà®ķà¯įà®ķà¯ģ", "Ġà¤ªà¤¹à¥ģà¤ģ", "Ġà°µà±Īà°¶à°¾à°²", "Ġà®ħà®Łà¯ģà®¤à¯įà®¤", "Ġà¤ªà¤¹à¥ģà¤ģà¤ļ", "Ġà°µà±Īà°¶à°¾à°²à±įà°¯", "Ġà®ħà®Łà¯ģà®¤à¯įà®¤à¯ģ", "Ġà¤ªà¤¹à¥ģà¤ģà¤ļà¥ĩ", "Ġà°µà±Īà°¶à°¾à°²à±įà°¯à°Ĥà°²à±ĭ", "Ġà®ĩà®°à®£à¯įà®Łà®¾à®µà®¤à¯ģ", "Ġà¤ľà¥įà¤ŀ", "Ġà°ıà°¡à°µà°¸à±įà°", "Ġà®ĩà®Łà®¤à¯įà®¤à®¿à®²à¯į", "Ġà¤ľà¥įà¤ŀà¤¾à¤¤", "Ġà°ıà°¡à°µà°¸à±įà°¥à°¾à°¨", "Ġà®ķà®¾à®°à®£à®®à®¾à®ķ", "Ġ30", "Ġà°ıà°¡à°µà°¸à±įà°¥à°¾à°¨à°Ĥà°²à±ĭ", "Ġà®¤à¯ģà®£à¯Īà®ķà¯įà®ķà®£à¯įà®Łà®¤à¯įà®¤à®¿à®²à¯į", "Ġà°¸à±įà°µà±ĩà°ļ", "Ġà®ķà¯ģà®Łà®¿à®¯à®®à®°à¯įà®¨à¯įà®¤", "Ġà¤ªà¥ģà¤°à¤¾à¤¨à¤¾", "Ġà°¸à±įà°µà±ĩà°ļà±įà°", "Ġà®µà®¾à®´à¯įà®µà®¾à®©à®¤à¯ģ", "Ġà¤Ńà¥Ģà¤®", "Ġà°¸à±įà°µà±ĩà°ļà±įà°Ľ", "Ġà¤Ńà¥Ģà¤®à¤¬", "Ġà°¸à±įà°µà±ĩà°ļà±įà°Ľà°¾à°¯à±ģà°¤", "Ġà®µà®Łà®¿à®", "Ġà¤Ńà¥Ģà¤®à¤¬à¥ĩà¤Ł", "Ġà°ķà°²à°¿à°Ĺà°¿,", "Ġà®µà®Łà®¿à®¨", "Ġà¤Ńà¥Ģà¤®à¤¬à¥ĩà¤Łà¤ķà¤¾", "Ġà°ªà°¾à°°à±įà°²", "Ġà®µà®Łà®¿à®¨à®¿à®²", "Ġà¤Ńà¥Ģà¤®à¤¬à¥ĩà¤Łà¤ķà¤¾,", "Ġà°ªà°¾à°°à±įà°²à°®à±Ĩ", "Ġà®µà®Łà®¿à®¨à®¿à®²à®¤à¯įà®¤à®¿à®©à¯į", "Ġà¤ªà¥įà¤°à¤¦à¥ĩà¤¶", "Ġà°ªà°¾à°°à±įà°²à°®à±Ĩà°Ĥà°Ł", "Ġà®İà®²à¯įà®²à¯Īà®ķà®³à®¿à®²à¯į", "Ġà¤Ĺà¥ģà¤", "Ġà°ªà°¾à°°à±įà°²à°®à±Ĩà°Ĥà°Łà°°à±Ģ", "Ġà®ªà®°à®¿à®£à®¾à®®à®®à¯į", "Ġà¤Ĺà¥ģà¤«", "Ġà°¸à±Īà°¨", "Ġà®¨à®¾à®ķà®°à®¿à®ķà®®à®¾à®ķà®ªà¯į", "Ġà¤Ĺà¥ģà¤«à¤¾à¤", "Ġà°¸à±Īà°¨à°¿à°ķ", "à®µà®¤à¯ģ", "Ġà¤Ĺà¥ģà¤«à¤¾à¤ı", "Ġà°Ĵà°ķà°Łà°¿à°Ĺà°¾,", "Ġà®Ĩà®¯à®¿à®°", "Ġà¤Ĺà¥ģà¤«à¤¾à¤ıà¤", "Ġà°ħà°£à±įà°µ", "Ġà®Ĩà®¯à®¿à®°à®®à¯į", "Ġà¤Ĺà¥ģà¤«à¤¾à¤ıà¤ģ", "Ġà°ħà°£à±įà°µà°¸à±įà°¤", "à®Ĳà®°à¯ĭ", "Ġà¤ªà¥įà¤°à¤®à¤¾à¤£", "Ġà°ħà°£à±įà°µà°¸à±įà°¤à±įà°°", "à®Ĳà®°à¯ĭà®ªà¯įà®ªà®¿à®¯", "Ġà¤Ĩà¤ľ", "Ġà°ķà°²à°¿à°Ĺà°¿à°¨", "Ġà®®à¯Ĭà®´à®¿à®¯à®¾à®©", "Ġà¤¦à¥ĩà¤ĸà¤¨à¥ĩ", "Ġà°¶à°ķà±įà°¤à°¿à°Ĺà°¾", "Ġà®ļà®®à®ļà¯ģà®ķà®¿à®°à¯ģà®¤à®¤à¯įà®¤à®¿à®©à¯į", "Ġà¤®à¤¿à¤²à¤¤à¤¾", "Ġà°¦à°ķà±įà°·à°£", "Ġà®µà®´à®ķà¯įà®ķ", "Ġà¤ªà¥įà¤°à¤¥", "Ġà°¦à°ķà±įà°·à°£à°¾à°¸", "Ġà®µà®´à®ķà¯įà®ķà®¿à®²à¯į", "Ġà¤ªà¥įà¤°à¤¥à¤®", "Ġà°¦à°ķà±įà°·à°£à°¾à°¸à°¿à°¯à°¾à°²à±ĭ", "Ġà®ĩà®²à¯įà®²", "Ġà¤¸à¥įà¤¥à¤¾à¤Ī", "Ġà°ıà°¡à±ģ", "Ġà®ĩà®²à¯įà®²à®¾à®¤", "Ġà¤¬à¤¸à¥įà¤¤", "Ġà°¸à°®à±ģà°¦à±įà°°à°", "Ġà®µà®Łà®¿à®µà®®à®¾à®©à®¤à¯ģ", "Ġà¤¬à¤¸à¥įà¤¤à¤¿à¤¯", "Ġà°¸à°®à±ģà°¦à±įà°°à°¤", "Ġà®ĩà®¨à¯įà®¤à®¿à®¯à®¾à®µà¯ģà®ķà¯įà®ķà¯ģà®³à¯į", "Ġà¤¬à¤¸à¥įà¤¤à¤¿à¤¯à¥ĭà¤Ĥ", "Ġà°¸à°®à±ģà°¦à±įà°°à°¤à±Ģ", "Ġà®ªà®°à®µ", "Ġà°¸à°®à±ģà°¦à±įà°°à°¤à±Ģà°°à°®", "Ġà®ªà®°à®µà®¿à®¯à®¤à¯ģ.", "Ġ9000", "Ġà°¸à°®à±ģà°¦à±įà°°à°¤à±Ģà°°à°®à±ģ", "Ġà®ĩà®¤à®±à¯įà®ķà®¾à®©", "Ġà¤¸à¥įà¤µà¤°", "Ġà°īà°Ĥà°¡à°¿,", "Ġà®Ĩà®¤à®¾à®°à®®à®¾à®©à®¤à¯ģ", "Ġà¤¸à¥įà¤µà¤°à¥ģà¤ª", "Ġà°īà°ªà°ĸà°Ĥà°¡à°®", "Ġà®ĩà®¨à¯įà®¨à®¾à®Ł", "Ġ6,", "Ġà°īà°ªà°ĸà°Ĥà°¡à°®à±ģà°²à±ĭ", "Ġà®ĩà®¨à¯įà®¨à®¾à®Łà¯įà®ķà®³à®¿à®²à¯į", "Ġà°ķà±Ĥà°¡à±ģà°ķà±Ĭà°¨à°¿", "Ġà®µà¯ĩà®¤à®¤à¯įà®¤à®¿à®©à¯į", "Ġà¤®à¤¨à¥ģà¤·", "Ġà°Ńà°¾à°°à°¤à°¦à±ĩà°¶à°Ĥ,", "Ġà®ªà®¾à®Łà®²à¯įà®ķà®³à®¿à®²à¯į", "Ġà¤®à¤¨à¥ģà¤·à¥įà¤¯", "Ġà°°à°¹à°¦à°¾à°°à±ģà°²à°¨à±ģ", "Ġà®ķà®¾à®£", "Ġà¤ĸà¥ĩ", "Ġà°¹à°¿à°®à°¾à°²à°¯à°¾à°²à±ģ,", "Ġà®ķà®¾à®£à®ªà¯įà®ªà®Łà¯ģà®ķà®¿à®±à®¤à¯ģ.", "Ġà¤ĸà¥ĩà¤¤à¥Ģ", "Ġà°®à°¹à°¾à°¸", "Ġà®īà®±à¯ģà®¤à®¿à®¯à¯ģà®Łà®©à¯į", "Ġà¤ķà¤°à¤¨à¤¾,", "Ġà°®à°¹à°¾à°¸à°®", "Ġà®ķà®µà®©", "Ġà¤ľà¤¾à¤¨", "Ġà°®à°¹à°¾à°¸à°®à±ģà°¦", "Ġà®ķà®µà®©à®®à®¾à®ķ", "Ġà¤ľà¤¾à¤¨à¤µ", "Ġà°®à°¹à°¾à°¸à°®à±ģà°¦à±įà°°à°Ĥ,", "Ġà®®à®©à®ªà¯įà®ª", "Ġà¤ľà¤¾à¤¨à¤µà¤°à¥ĭà¤Ĥ", "Ġà°ħà°°à±ĩà°", "Ġà®®à®©à®ªà¯įà®ªà®¾à®Ł", "Ġà¤ªà¤¾à¤²à¤¨à¤¾", "Ġà°ħà°°à±ĩà°¬", "Ġà®®à®©à®ªà¯įà®ªà®¾à®Łà®®à¯į", "Ġà¤ĺà¤°à¥ĭà¤Ĥ", "Ġà°ħà°°à±ĩà°¬à°¿à°¯à°¾", "Ġà®ļà¯Ĩà®¯à¯įà®¯à®ªà¯įà®ªà®Łà¯įà®Ł", "Ġà¤®à¥ĩ", "Ġà°¸à°®à±ģà°¦à±įà°°à°Ĥ,", "Ġà®µà®¾à®¯", "Ġà¤®à¥ĩà¤¹", "Ġà°¤à±Ĥà°°à±įà°ªà±ģà°¨", "Ġà®µà®¾à®¯à¯į", "Ġà¤®à¥ĩà¤¹à¤°", "Ġà°¬à°Ĥà°Ĺ", "Ġà®µà®´à®¿à®ªà¯į", "Ġà¤®à¥ĩà¤¹à¤°à¤Ĺ", "Ġà°¬à°Ĥà°Ĺà°¾à°³", "Ġà®ªà®¾à®°à®®à¯įà®ªà®°à®¿à®¯à®¤à¯įà®¤", "Ġà¤®à¥ĩà¤¹à¤°à¤Ĺà¤¢à¤¼", "Ġà°¬à°Ĥà°Ĺà°¾à°³à°¾à°ĸ", "Ġà®ªà®¾à®°à®®à¯įà®ªà®°à®¿à®¯à®¤à¯įà®¤à®¾à®²à¯į", "Ġà¤ķà¤¿", "Ġà°¬à°Ĥà°Ĺà°¾à°³à°¾à°ĸà°¾à°¤à°Ĥ", "Ġà®ªà®¾à®¤à¯ģà®ķà®¾à®ķà¯įà®ķà®ªà¯įà®ªà®Łà¯įà®Łà¯ģ", "Ġà¤ħà¤Ń", "Ġà°İà°²à±įà°²", "Ġà®¤à¯ĭà®±à¯įà®±", "Ġà¤ħà¤Ńà¥Ģ", "Ġà°İà°²à±įà°²à°²", "Ġà®¤à¯ĭà®±à¯įà®±à®¤à¯įà®¤à¯Ī", "Ġà¤µà¤¿à¤ķà¤¸", "Ġà°İà°²à±įà°²à°²à±ģà°Ĺà°¾", "Ġà®µà¯ĩà®¤à®®à®¾à®©à®¤à¯ģ", "Ġà¤µà¤¿à¤ķà¤¸à¤¿à¤¤", "Ġà°ªà°¾à°ķà°¿à°¸à±įà°¤à°¾à°¨à±į,", "Ġà®ªà®¤à®¿à®µà®¿à®Ł", "Ġà°®à°¯", "Ġà®ªà®¤à®¿à®µà®¿à®Łà¯ģà®ķ", "Ġ2600", "Ġà°®à°¯à°¨", "Ġà®ªà®¤à®¿à®µà®¿à®Łà¯ģà®ķà®¿à®±à®¤à¯ģ.", "Ġ1900", "Ġà°®à°¯à°¨à±įà°®", "Ġà®ĩà®¤à®©à®¾à®²à¯į", "Ġà¤ļà¤°à¤®", "Ġà°®à°¯à°¨à±įà°®à°¾à°°", "Ġà®®à¯Ĭà®´à®¿à®ķà®³à®¾à®©à®µà¯Ī", "Ġà¤®à¥ĭà¤¹", "Ġà°®à°¯à°¨à±įà°®à°¾à°°à±į,", "Ġà®®à¯ĩà®±à¯įà®ķà¯ģà®ªà¯į", "Ġà¤®à¥ĭà¤¹à¤¨", "Ġà°¬à°Ĥà°Ĺà±įà°²à°¾à°¦à±ĩà°¶à±į,", "Ġà®ĩà®Łà®®", "Ġà¤®à¥ĭà¤¹à¤¨à¤ľ", "Ġà°Ńà±Ĥà°Łà°¾à°¨", "Ġà®ĩà®Łà®®à®¾à®±à¯įà®±", "Ġà¤®à¥ĭà¤¹à¤¨à¤ľà¥ĭ", "Ġà°Ńà±Ĥà°Łà°¾à°¨à±į,", "Ġà®ĩà®Łà®®à®¾à®±à¯įà®±à®®à¯į", "Ġà¤®à¥ĭà¤¹à¤¨à¤ľà¥ĭà¤¦", "Ġà°Ĩà°«", "Ġà¤®à¥ĭà¤¹à¤¨à¤ľà¥ĭà¤¦à¤¡à¤¼", "Ġà°Ĩà°«à±įà°", "Ġà®ļà®¾à®¤à®¿à®¯", "Ġà¤®à¥ĭà¤¹à¤¨à¤ľà¥ĭà¤¦à¤¡à¤¼à¥ĭ", "Ġà°Ĩà°«à±įà°ĺ", "Ġà®ļà®¾à®¤à®¿à®¯à®¾à®²à¯į", "Ġà¤®à¥ĭà¤¹à¤¨à¤ľà¥ĭà¤¦à¤¡à¤¼à¥ĭ,", "Ġà°Ĩà°«à±įà°ĺà°¾à°¨", "Ġà®µà®¿à®²à®ķà¯įà®ķ", "Ġà¤¹à¤¡à¤¼", "Ġà°Ĩà°«à±įà°ĺà°¾à°¨à°¿à°¸à±įà°¤", "Ġà®µà®¿à®²à®ķà¯įà®ķà®²à®¾à®©à®¤à¯ģ", "Ġà¤¹à¤¡à¤¼à¤ª", "Ġà°Ĩà°«à±įà°ĺà°¾à°¨à°¿à°¸à±įà°¤à°¾à°¨à±į", "Ġà®ļà®®à®¯à®¤à¯įà®¤à®¿à®±à¯įà®ķà¯ģà®³à¯į", "Ġà¤¹à¤¡à¤¼à¤ªà¥įà¤ª", "Ġà°¦à±ĩà°¶à°¾à°²à°¤à±ĭ", "Ġà®īà®°à¯ģà®µà®¾à®ķà®¤à¯į", "Ġà¤¹à¤¡à¤¼à¤ªà¥įà¤ªà¤¾,", "Ġà°¸à°°à°¿à°¹à°¦à±įà°¦à±ģà°²à°¨à±ģ", "Ġà®ļà¯Īà®©à®®à¯į", "Ġà¤§à¥ĭà¤²", "Ġà°ªà°Ĥà°ļà±ģà°ķà±ģà°Ĥà°Ł", "Ġà®¤à¯ĭà®©à¯įà®±à®¿à®©.", "Ġà¤§à¥ĭà¤²à¤¾à¤µà¥Ģà¤°", "Ġà°ªà°Ĥà°ļà±ģà°ķà±ģà°Ĥà°Łà±ĭ", "Ġà®ļà®®à¯Ĥà®ķà®ªà¯į", "Ġà¤§à¥ĭà¤²à¤¾à¤µà¥Ģà¤°à¤¾,", "Ġà°ªà°Ĥà°ļà±ģà°ķà±ģà°Ĥà°Łà±ĭà°Ĥà°¦à°¿.", "Ġà®¨à®¿à®²à¯Īà®ķà®³à®¾à®©à®µà¯Ī", "Ġà¤ķà¤¾à¤²à¥Ģ", "Ġà°¶à±įà°°à±Ģà°²à°Ĥà°ķ", "Ġà®®à®°à®ªà¯ģ", "Ġà¤ķà¤¾à¤²à¥Ģà¤¬", "Ġà°¶à±įà°°à±Ģà°²à°Ĥà°ķ,", "Ġà®µà®´à®¿à®¯à¯ģà®Łà®©à¯į", "Ġà¤ķà¤¾à¤²à¥Ģà¤¬à¤Ĥà¤Ĺà¤¾", "Ġà°®à°¾à°²", "Ġà®¤à¯Ĭà®Łà®°à¯įà®ªà®±à¯įà®±", "Ġà¤ľà¥Īà¤¸à¥ĩ", "Ġà°®à°¾à°²à±įà°¦", "Ġà®¤à¯Ĭà®Łà®°à¯įà®ªà®±à¯įà®±à®µà¯Ī", "Ġà¤Ĩà¤¸", "Ġà°®à°¾à°²à±įà°¦à±Ģà°µ", "Ġà®ħà®±à®¿à®µà®¿à®¤à¯įà®¤", "Ġà¤Ĩà¤¸à¤ª", "Ġà°®à°¾à°²à±įà°¦à±Ģà°µà±ģà°²à±ģ,", "Ġà®ħà®±à®¿à®µà®¿à®¤à¯įà®¤à®©.", "Ġà¤Ĩà¤¸à¤ªà¤¾à¤¸", "Ġà°ĩà°Ĥà°¡à±ĭà°¨", "Ġà®Ĵà®©à¯įà®±à®¿à®£à¯Īà®ªà¯įà®ª", "Ġà¤ķà¥ĩà¤Ĥà¤¦à¥įà¤°à¤¿à¤¤", "Ġà°ĩà°Ĥà°¡à±ĭà°¨à±ĩà°", "Ġà®Ĵà®©à¯įà®±à®¿à®£à¯Īà®ªà¯įà®ªà¯ģà®ķà®³à®¾à®©à®µà¯Ī", "Ġà¤µà¤¿à¤Ńà¤¿à¤¨", "Ġà°ĩà°Ĥà°¡à±ĭà°¨à±ĩà°¸", "Ġà®īà®±à¯ģà®¤à®¿à®¯à®¾à®ķ", "Ġà¤µà¤¿à¤Ńà¤¿à¤¨à¥įà¤¨", "Ġà°ĩà°Ĥà°¡à±ĭà°¨à±ĩà°¸à°¿à°¯à°¾", "Ġà®ªà¯Ĭà®°à¯ģà®¨à¯įà®¤à®¿à®¯", "Ġà¤ªà¥įà¤°à¤ķà¤¾à¤°", "Ġà°¦à°Ĺà±įà°Ĺ", "Ġà®ªà¯Ĭà®°à¯ģà®¨à¯įà®¤à®¿à®¯à®¿à®°à®¾à®¤", "Ġà¤¨à¤¿à¤°à¥įà¤µ", "Ġà°¦à°Ĺà±įà°Ĺà°°à°²à±ĭ", "Ġà®ªà¯ĩà®°à®°à®ļà¯ģà®ķà®³à¯Ī", "Ġà¤¨à¤¿à¤°à¥įà¤µà¤¾à¤¹", "à°¦à±ĩà°¶à°¾à°²à±ģ.", "Ġà®ķà¯Ĭà®£à¯įà®Łà®µ", "Ġà¤¨à¤¿à¤°à¥įà¤Ń", "Ġà°²à±ĭà°¯", "Ġà®ķà¯Ĭà®£à¯įà®Łà®µà¯Īà®¯", "Ġà¤¨à¤¿à¤°à¥įà¤Ńà¤°", "Ġà°¨à°¾à°Ĺà°°à°¿à°ķà°¤à°ķà±ģ", "Ġà®ķà¯Ĭà®£à¯įà®Łà®µà¯Īà®¯à®¾à®ķà®¤à¯į", "Ġà¤¥à¥Ģ,", "Ġà°ªà±ģà°Łà±įà°Łà°¿à°²à±įà°²", "Ġà®¤à¯ĭà®©à¯įà®±à®ļà¯į", "Ġà¤¯à¤¹à¤¾à¤ģ", "Ġà°ªà±ģà°Łà±įà°Łà°¿à°²à±įà°²à±ģ.", "Ġà®ļà¯Ĩà®¯à¯įà®¤à®©.", "Ġà¤µà¥įà¤¯à¤¾à¤ªà¤ķ", "Ġà°¹à°¿à°Ĥà°¦à±Ĥ,", "Ġà®ĩà®ªà¯įà®ªà¯ĩà®°à®°à®ļà¯ģà®ķà®³à®¿à®©à¯į", "Ġà¤¬à¤¾à¤ľ", "Ġà°¬à±Įà°¦à±įà°§,", "Ġà®Ĵà®Łà¯įà®Ł", "Ġà¤¬à¤¾à¤ľà¤¾à¤°", "Ġà°ľà±Īà°¨,", "Ġà®Ĵà®Łà¯įà®Łà¯ģ", "Ġà¤¶à¤¿à¤²", "Ġà°¸à°¿à°ķà±įà°ķà±ģ", "Ġà®®à¯Ĭà®¤à¯įà®¤", "Ġà¤¶à¤¿à¤²à¥įà¤ª", "Ġà°®à°¤à°®à±ģà°²à°ķà±ģ", "Ġà®ļà®ķà®¾à®ªà¯įà®¤à®®à®¾à®©à®¤à¯ģ", "Ġà¤īà¤¤à¥įà¤ªà¤¾à¤¦", "Ġà°ľà°¨à±įà°®à°¨", "Ġà®ªà®Łà¯Īà®ªà¯įà®ª", "Ġà¤īà¤¤à¥įà¤ªà¤¾à¤¦à¤¨", "Ġà°ľà°¨à±įà°®à°¨à°¿à°ļà±įà°ļ", "Ġà®ªà®Łà¯Īà®ªà¯įà®ªà®¾à®±à¯įà®±", "Ġà¤¹à¥ĭà¤¤à¤¾", "Ġà°ľà°¨à±įà°®à°¨à°¿à°ļà±įà°ļà°¿à°Ĥà°¦à°¿.", "Ġà®ªà®Łà¯Īà®ªà¯įà®ªà®¾à®±à¯įà®±à®²", "Ġ2000", "Ġà°¬à°¹à±ģà°Ń", "Ġà®ªà®Łà¯Īà®ªà¯įà®ªà®¾à®±à¯įà®±à®²à¯Īà®ķà¯į", "Ġ500", "Ġà°¬à°¹à±ģà°Ńà°¾à°·", "Ġà®ªà¯Ĩà®£à¯įà®ķà®³à®¿à®©à¯į", "Ġà¤¤à¤¾à¤®", "Ġà°¬à°¹à±ģà°Ńà°¾à°·à°¾,", "Ġà®µà¯Ģà®´", "Ġà¤¤à¤¾à¤®à¥įà¤°", "Ġà°¬à°¹à±ģà°³", "Ġà®µà¯Ģà®´à¯įà®ļ", "Ġà¤ªà¤¾à¤·à¤¾à¤£", "Ġà°ľà°¾à°¤à°¿", "Ġà®µà¯Ģà®´à¯įà®ļà¯įà®ļà®¿à®¯à®Łà¯Īà®¨à¯įà®¤", "Ġà¤²à¥Į", "Ġà°¸à°Ĥà°ĺà°®à±ģ.", "Ġà®µà¯Ģà®´à¯įà®ļà¯įà®ļà®¿à®¯à®Łà¯Īà®¨à¯įà®¤à®¤", "Ġà¤²à¥Įà¤¹", "Ġà°µà°¨", "Ġà®µà¯Ģà®´à¯įà®ļà¯įà®ļà®¿à®¯à®Łà¯Īà®¨à¯įà®¤à®¤à¯Īà®¯à¯ģà®®à¯į", "Ġà¤ľà¥ģà¤", "Ġà°µà°¨à±įà°¯", "Ġà®ķà®£à¯įà®Łà®¤à¯ģ.", "Ġà¤ľà¥ģà¤¡à¤¼", "Ġà°µà°¨à±įà°¯à°ªà±įà°°", "Ġà®¤à¯Ģà®£à¯įà®Ł", "Ġà¤ľà¥ģà¤¡à¤¼à¥ĩ", "Ġà°µà°¨à±įà°¯à°ªà±įà°°à°¾à°£", "Ġà®¤à¯Ģà®£à¯įà®Łà®¾à®®", "Ġà¤Ĺà¥įà¤°", "Ġà°µà°¨à±įà°¯à°ªà±įà°°à°¾à°£à±ģà°²", "Ġà®¤à¯Ģà®£à¯įà®Łà®¾à®®à¯Īà®¯à¯Ī", "Ġà¤Ĺà¥įà¤°à¤Ĥà¤", "Ġà°µà±Īà°µ", "Ġà®Ĵà®©à¯įà®±à®¿à®£à¯Īà®ķà¯įà®ķà®ªà¯įà®ªà®Łà¯įà®Ł", "Ġà¤Ĺà¥įà¤°à¤Ĥà¤¥", "Ġà°µà±Īà°µà°¿à°§", "Ġà®¨à®®à¯įà®ª", "Ġà¤Ĺà¥įà¤°à¤Ĥà¤¥,", "Ġà°µà±Īà°µà°¿à°§à±įà°¯à°Ĥ", "Ġà®¨à®®à¯įà®ªà®¿à®ķà¯įà®ķ", "Ġà¤µà¥ĩà¤¦", "Ġà°ľà°¨à°¾à°Ńà°¾à°²à±ĭ", "Ġà®¨à®®à¯įà®ªà®¿à®ķà¯įà®ķà¯Ī", "Ġà¤µà¥ĩà¤¦à¥ĭà¤Ĥ", "Ġà®ħà®®à¯Īà®ªà¯įà®ªà®¾à®ķ", "Ġà¤°à¤ļà¤¨", "Ġà°ıà°ªà±įà°°", "Ġà®īà®°à¯ģà®µà®¾à®ķà¯įà®ķà®¿à®¯à®¤à®¿à®²à¯ģà®®à¯į", "Ġà¤°à¤ļà¤¨à¤¾à¤", "Ġà°ıà°ªà±įà°°à°¿à°²", "Ġà®ªà®Ļà¯įà®ķà¯ģ", "Ġà¤°à¤ļà¤¨à¤¾à¤ķ", "Ġà°ıà°ªà±įà°°à°¿à°²à±į", "Ġà®µà®ķà®¿à®¤à¯įà®¤à®¤à¯ģ.", "Ġà¤°à¤ļà¤¨à¤¾à¤ķà¤¾à¤²", "Ġà°¦à°¾à°Łà±ĩà°", "Ġà®İà®´à¯ģà®¤à¯įà®¤", "Ġà¤Ĭ", "Ġà°¦à°¾à°Łà±ĩà°¸à°¿à°Ĥà°¦à°¿.", "Ġà®İà®´à¯ģà®¤à¯įà®¤à¯ģ", "Ġà¤Ĭà¤ª", "Ġà°¸à°°à°¿à°¹à°¦à±įà°¦à±ģà°²", "Ġà®®à¯ģà®±à¯Īà®ķà®³", "Ġà¤Ĭà¤ªà¤°à¥Ģ", "Ġà°¸à°°à°¿à°¹à°¦à±įà°¦à±ģà°²à°²à±ĭ", "Ġà®®à¯ģà®±à¯Īà®ķà®³à¯Īà®¯à¯ģà®®à¯į", "Ġà¤ĩà¤¤à¤¿à¤¹à¤¾à¤¸à¤ķà¤¾à¤°", "Ġà°ķà±Ĭà°¦à±įà°¦", "Ġà®®à¯ģà®±à¯Īà®ķà®³à¯Īà®¯à¯ģà®®à¯į,", "Ġà¤ĩà¤¤à¤¿à¤¹à¤¾à¤¸à¤ķà¤¾à¤°à¥ĭà¤Ĥ", "Ġà°ķà±Ĭà°¦à±įà°¦à°¿à°", "Ġà®ªà®£à¯įà®ªà®¾à®Łà¯ģà®ķà®³", "Ġà¤®à¤¾à¤¨à¤¨à¤¾", "Ġà°ķà±Ĭà°¦à±įà°¦à°¿à°Ńà°¾à°Ĺ", "Ġà®ªà®£à¯įà®ªà®¾à®Łà¯ģà®ķà®³à¯Īà®¯à¯ģà®®à¯į", "à¤Ĩà¤°à¥įà¤¯", "Ġà°ķà±Ĭà°¦à±įà°¦à°¿à°Ńà°¾à°Ĺà°Ĥ", "Ġà®¤à¯Ĩà®©à¯įà®ķà®¿à®´à®ķà¯įà®ķà®¾à®ļà®¿à®¯à®¾à®µà®¿à®©à¯į", "à¤Ĩà¤°à¥įà¤¯à¤¨", "Ġà°®à°¿à°¨", "Ġà®ĩà®°à®¾à®ļà¯įà®ļà®¿à®¯à®Ļà¯įà®ķà®³à¯ģà®ķà¯įà®ķà¯ģà®ªà¯į", "Ġà¤ªà¥įà¤°à¤¥à¤¾", "Ġà°®à°¿à°¨à°¹", "Ġà®ªà®°à®ªà¯įà®ªà®¿à®©.", "Ġà¤Ľà¥ĭà¤Łà¥ĩ", "Ġà°®à°¿à°¨à°¹à°¾à°¯", "Ġà®ļà®ķà®¾à®ªà¯įà®¤à®¤à¯įà®¤à®¿à®©à¯į", "à¤Ľ", "Ġà°®à°¿à°¨à°¹à°¾à°¯à°¿à°Ĥà°ļà°¿,", "Ġà®ķà®¿à®±", "à¤Ľà¥ĭà¤Łà¥ĩ", "Ġà°¸à°°à°¿à°¹à°¦à±įà°¦à±ģà°²à±ģ", "Ġà®ķà®¿à®±à®¿à®¤à¯įà®¤", "Ġà°¦à°¾à°Łà°¿à°¨", "Ġà®ķà®¿à®±à®¿à®¤à¯įà®¤à®µ", "Ġà¤°à¤¾à¤ľà¤¶", "Ġà°ªà±įà°°à°¾à°Ĥà°¤à°¾à°²à°¤à±ĭ", "Ġà®ķà®¿à®±à®¿à®¤à¯įà®¤à®µà®®à¯į,", "Ġà¤°à¤¾à¤ľà¤¶à¤¾à¤¹", "Ġà°ªà°¾à°Łà±ģ", "Ġà®ĩà®ļà¯ģà®²à®¾à®®à¯į,", "Ġà¤°à¤¾à¤ľà¤¶à¤¾à¤¹à¥Ģ", "Ġà°Ĵà°ķà±ĩ", "Ġà®¯", "Ġà¤¸à¤®à¥įà¤®", "Ġà°ļà°ķ", "Ġà®¯à¯Ĥ", "Ġà¤¸à¤®à¥įà¤®à¤¿à¤²", "Ġà°ļà°ķà±įà°°à°", "Ġà®¯à¯Ĥà®¤", "Ġà¤¸à¤®à¥įà¤®à¤¿à¤²à¤¿à¤¤", "Ġà°ļà°ķà±įà°°à°µ", "Ġà®¯à¯Ĥà®¤à®®à¯į", "Ġà¤ľà¤¿à¤¨à¥įà¤¹à¥ĩ", "Ġà°ļà°ķà±įà°°à°µà°°à±įà°¤", "Ġà®ļà®°", "Ġà¤®à¤¹à¤¾à¤ľ", "Ġà°ļà°ķà±įà°°à°µà°°à±įà°¤à°¿", "Ġà®ļà®°à®¤", "Ġà¤®à¤¹à¤¾à¤ľà¤¨", "Ġà°µà±ģà°¨à±įà°¨", "Ġà®ļà®°à®¤à¯ģà®ļ", "Ġà¤®à¤¹à¤¾à¤ľà¤¨à¤ª", "Ġà°µà±ģà°¨à±įà°¨à°¾,", "Ġà®ļà®°à®¤à¯ģà®ļà®®à¯į", "Ġà¤®à¤¹à¤¾à¤ľà¤¨à¤ªà¤¦", "Ġà°¤à°¦", "Ġà®®à¯ĩà®±à¯įà®ķà¯ģà®ķà¯į", "Ġà¤¬à¤¢à¤¼à¤¤à¥ĩ", "Ġà°¤à°¦à±ģà°ª", "Ġà®ķà®Łà®±à¯įà®ķ", "à¤µà¥Īà¤¦à¤¿à¤ķ", "Ġà°¤à°¦à±ģà°ªà°°à°¿", "Ġà®ķà®Łà®±à¯įà®ķà®°", "Ġà¤īà¤¦", "Ġà°µà°¿à°¡", "Ġà®ķà®Łà®±à¯įà®ķà®°à¯Īà®ķà®³à®¿à®²à¯į", "Ġà¤īà¤¦à¤¯", "Ġà°µà°¿à°¡à°¿à°ªà±ĭà°¯à°¿à°Ĥà°¦à°¿.", "Ġà®¨à®¿à®±à¯ģà®µà®ªà¯įà®ªà®Łà¯įà®Łà®©.", "Ġà¤®à¤¹à¤¾à¤µà¥Ģà¤°", "Ġà°ķà±įà°°à°®", "Ġà®¨à®Łà¯ģ", "Ġà¤ħà¤¸à¥įà¤¤", "Ġà°ķà±įà°°à°®à°Ĥà°Ĺà°¾", "Ġà®Ĩà®ļà®¿à®¯à®¾à®µ", "Ġà¤ħà¤¸à¥įà¤¤à¤¿à¤¤", "Ġà°°à°¾à°ľà±įà°¯à°¾à°²à°¨à±ģ", "Ġà®Ĩà®ļà®¿à®¯à®¾à®µà¯Ī", "Ġà¤ħà¤¸à¥įà¤¤à¤¿à¤¤à¥įà¤µ", "Ġà°¸à±įà°µà°¾à°§", "Ġà®Ĩà®ļà®¿à®¯à®¾à®µà¯Īà®ļà¯į", "Ġà¤Ĩà¤", "Ġà°¸à±įà°µà°¾à°§à±Ģà°¨", "Ġà®®à¯ģà®ļà¯ģà®²à®¿à®®à¯į", "Ġà¤Ĩà¤¯à¤¾", "Ġà°¸à±įà°µà°¾à°§à±Ģà°¨à°Ĥ", "Ġà®µà®Łà®ķà¯įà®ķà¯ģà®ļà¯į", "Ġà¤Ĺà¥Į", "Ġà°ļà±ĩà°¸à±ģà°ķà±ĭà°µà°¡", "Ġà®ļà®®à®µà¯Ĩà®³à®¿à®ķà®³à¯į", "Ġà¤Ĺà¥Įà¤¤à¤®", "Ġà°ļà±ĩà°¸à±ģà°ķà±ĭà°µà°¡à°Ĥà°¤à±ĭ", "Ġà®®à¯Ģ", "Ġà¤¬à¥ģà¤¦", "Ġà°¬à±įà°°à°¿à°Łà±Ģà°·à±į", "Ġà®®à¯Ģà®¤à¯ģ", "Ġà¤¬à¥ģà¤¦à¥įà¤§", "Ġà°ªà°°à°¿à°ªà°¾à°²à°¨", "Ġà®µà®¿à®Łà¯įà®Łà¯ģ", "Ġà¤¶à¤¿à¤ķà¥įà¤·à¤¾à¤ĵà¤Ĥ", "Ġà°¨à±ĩà°°à±ģà°Ĺà°¾", "Ġà®µà®¿à®Łà¯įà®Łà¯ģà®¤à¯į", "Ġà¤®à¤§à¥įà¤¯à¤®", "Ġà°¯à±ģà°¨", "Ġà®¤à®¾à®ķà¯įà®ķà¯ģà®¤", "Ġà¤ħà¤¨à¥ģà¤", "Ġà°¯à±ģà°¨à±Ī", "Ġà®¤à®¾à®ķà¯įà®ķà¯ģà®¤à®²à¯į", "Ġà¤ħà¤¨à¥ģà¤¯", "Ġà°¯à±ģà°¨à±Īà°Łà±Ĩ", "Ġà®ĵà®Łà¯įà®Ł", "Ġà¤ħà¤¨à¥ģà¤¯à¤¾à¤¯", "Ġà°¯à±ģà°¨à±Īà°Łà±Ĩà°¡", "Ġà®ĵà®Łà¯įà®Łà®®à¯į", "Ġà¤ħà¤¨à¥ģà¤¯à¤¾à¤¯à¤¿à¤", "Ġà°¯à±ģà°¨à±Īà°Łà±Ĩà°¡à±į", "Ġà®¨à®Łà®¤à¯įà®¤à®¿à®©.", "Ġà¤ħà¤¨à¥ģà¤¯à¤¾à¤¯à¤¿à¤ĵ", "Ġà°ķà°¿à°Ĥà°Ĺ", "Ġà®ĩà®±à¯ģà®¤", "Ġà¤ħà¤¨à¥ģà¤¯à¤¾à¤¯à¤¿à¤ĵà¤Ĥ", "Ġà°ķà°¿à°Ĥà°Ĺà±įà°¡", "Ġà®ĩà®±à¯ģà®¤à®¿à®¯à®¾à®ķ", "Ġà¤ķà¤¿à¤¯à¤¾;", "Ġà°ķà°¿à°Ĥà°Ĺà±įà°¡à°®", "Ġà®¤à®¿à®²à¯įà®²", "Ġà¤²à¥ĩà¤ĸà¤¨", "Ġà°ķà°¿à°Ĥà°Ĺà±įà°¡à°®à±į", "Ġà®¤à®¿à®²à¯įà®²à®¿", "Ġà¤¸à¤®à¥įà¤ªà¤¦", "Ġà°ªà°¾à°²à°¨à°²à±ĭà°ķà°¿", "Ġà®ļà¯ģà®²", "Ġà¤¸à¤®à¥įà¤ªà¤¦à¤¾", "Ġà°¨à°¾à°¯à°ķà°¤à±įà°µà°¾à°¨", "Ġà®ļà¯ģà®²à¯įà®¤", "Ġà¤¤à¥įà¤¯", "Ġà°ķà±ĭà°¸", "Ġà®ļà¯ģà®²à¯įà®¤à®¾à®©", "Ġà¤¤à¥įà¤¯à¤¾à¤Ĺ", "Ġà°ķà±ĭà°¸à°Ĥ", "Ġà®ļà¯ģà®²à¯įà®¤à®¾à®©à®ķ", "Ġà¤®à¤¾à¤¨à¤¾,", "Ġà°ħà°¹à°¿à°Ĥà°", "Ġà®ļà¯ģà®²à¯įà®¤à®¾à®©à®ķà®¤à¯įà®¤à¯Ī", "Ġà¤®à¤ł", "Ġà°ħà°¹à°¿à°Ĥà°¸", "Ġà®ĩà®ļà¯ģà®²à®¾à®®", "Ġà¤ªà¤°à¤Ĥà¤ªà¤°à¤¾à¤ĵà¤Ĥ", "Ġà°ħà°¹à°¿à°Ĥà°¸à°¾à°¯à±ģà°¤", "Ġà®ĩà®ļà¯ģà®²à®¾à®®à®¿à®©à¯į", "Ġà¤ħà¤Ĥà¤¦", "Ġà°ªà±ĭà°°", "Ġà®¨à®¾à®Łà¯ģà®ķà®³à®¿à®©à¯į", "Ġà¤ħà¤Ĥà¤¦à¤°", "Ġà°ªà±ĭà°°à°¾à°Ł", "Ġà®ªà®£à¯įà®ªà®¾à®Łà¯įà®Łà¯ģà®¤à¯į", "Ġà¤īà¤Ń", "Ġà°ªà±ĭà°°à°¾à°Łà°Ĥ", "Ġà®¤à®¾à®ķà¯įà®ķà®®à¯į", "Ġà¤īà¤Ńà¤°à¤¾", "Ġà°Ĩà°µà°¿à°°", "Ġà®ĩà®£à¯Īà®¯", "Ġà¤¹à¤¿à¤¸", "Ġà°Ĩà°µà°¿à°°à±įà°", "Ġà®ĩà®£à¯Īà®¯à®¤à¯įà®¤à®¿à®±à¯įà®ķà¯ģà®³à¯į", "Ġà¤¹à¤¿à¤¸à¥įà¤", "Ġà°Ĩà°µà°¿à°°à±įà°Ń", "Ġà®ĩà®´à¯ģà®¤à¯įà®¤", "Ġà¤¹à¤¿à¤¸à¥įà¤¸", "Ġà°Ĩà°µà°¿à°°à±įà°Ńà°µ", "Ġà®ĩà®´à¯ģà®¤à¯įà®¤à®©.", "Ġà¤¹à¤¿à¤¸à¥įà¤¸à¥ĭà¤Ĥ", "Ġà°Ĩà°µà°¿à°°à±įà°Ńà°µà°¿à°Ĥà°ļà°¿à°Ĥà°¦à°¿.", "Ġà®µà®¿à®ļ", "Ġà¤ħà¤ªà¤¨à¤¾", "Ġà°®à°¾à°°à±įà°ķ", "Ġà®µà®¿à®ļà®¯", "Ġà¤ħà¤§à¤¿à¤ª", "Ġà°®à°¾à°°à±įà°ķà±Ĩà°Ł", "Ġà®¨à®ķà®°à®ªà¯į", "Ġà¤ħà¤§à¤¿à¤ªà¤¤à¥įà¤¯", "Ġà°®à°¾à°°à±įà°ķà±Ĩà°Łà±į", "Ġà®ķà®¾à®²à®®à¯į", "Ġà¤ķà¥įà¤·à¥ĩà¤¤à¥įà¤°à¥ĭà¤Ĥ", "Ġà°Ĩà°§à°¾à°°à°¿à°¤", "Ġà®¨à¯Ģà®Łà®¿à®¤à¯įà®¤à¯ģ", "Ġà¤ħà¤²", "Ġà°¸à°Ĥà°¸à±įà°ķà°°à°£à°²à±ģ", "Ġà®ĩà®°à¯ģà®¨à¯įà®¤,", "Ġà¤ħà¤²à¤Ĺ", "Ġà°ħà°¨à±ģà°", "Ġà®ķà¯Ĥà®±à¯ģà®ķà®³à®¿à®©à¯į", "Ġà¤īà¤¨à¥įà¤¨", "Ġà°ħà°¨à±ģà°¸", "Ġà®¤à¯Ĭà®ķà¯ģà®¤", "Ġà¤īà¤¨à¥įà¤¨à¤¤à¤¿", "Ġà°ħà°¨à±ģà°¸à°°", "Ġà®¤à¯Ĭà®ķà¯ģà®¤à®¿à®¯à®¾à®©", "Ġà¤īà¤ļ", "Ġà°ħà°¨à±ģà°¸à°°à°¿à°¸à±įà°¤", "Ġà®ĩà®¨à¯įà®¤à¯ģà®ªà¯į", "Ġà¤īà¤ļà¥įà¤", "Ġà°ħà°¨à±ģà°¸à°°à°¿à°¸à±įà°¤à±Ĥ", "Ġà®ªà®£à¯įà®ªà®¾à®Łà¯įà®Łà¯Ī", "Ġà¤īà¤ļà¥įà¤ļ", "Ġà°ħà°¨à±ģà°¸à°°à°¿à°¸à±įà°¤à±Ĥ,", "Ġà®ļà¯Ģ", "Ġà¤ķà¥įà¤¯à¥ĭà¤Ĥ", "Ġà°Ĵà°ķà°Łà°¿", "Ġà®ļà¯Ģà®ķà¯įà®ķà®¿à®¯", "Ġà¤ķà¥įà¤¯à¥ĭà¤Ĥà¤ķà¤¿", "Ġà°ħà°¯à°¿à°Ĥà°¦à°¿.", "Ġà®ļà¯Ģà®ķà¯įà®ķà®¿à®¯à®®à¯į", "Ġà¤ħà¤¶", "Ġà°ħà°¯à°¿à°¤", "Ġà®ļà®®à®¯à®¤à¯įà®¤à¯Ī", "Ġà¤ħà¤¶à¥ĭ", "Ġà°ħà°¯à°¿à°¤à±ĩ,", "Ġà®¨à®¿à®°à®¾à®ķà®°", "Ġà¤ħà¤¶à¥ĭà¤ķ", "Ġà°ªà±ĩà°¦", "Ġà®¨à®¿à®°à®¾à®ķà®°à®¿à®¤à¯įà®¤à®¤à¯ģ.", "Ġà¤§à¤®", "Ġà°ªà±ĩà°¦à°°à°¿à°ķ", "Ġ152", "Ġà¤§à¤®à¥įà¤®", "Ġà°ªà±ĩà°¦à°°à°¿à°ķà°Ĥ,", "Ġ1526", "Ġà¤¶à¤¸à¥įà¤¤", "Ġà°¨à°¿à°°à°ķ", "Ġà®¤à¯Ĭà®Łà®Ļà¯įà®ķà®ªà¯įà®ªà®Łà¯įà®Łà®¤à¯ģ.", "Ġà¤¶à¤¸à¥įà¤¤à¥įà¤°", "Ġà°¨à°¿à°°à°ķà±įà°·", "Ġà®ħà®®à¯Ī", "Ġà¤®à¥ģà¤ķà¥įà¤¤", "Ġà°¨à°¿à°°à°ķà±įà°·à°°à°¾à°¸à±įà°¯à°¤", "Ġà®ħà®®à¯Īà®¤", "18", "Ġà°¨à°¿à°°à°ķà±įà°·à°°à°¾à°¸à±įà°¯à°¤,", "Ġà®ħà®®à¯Īà®¤à®¿à®¯à®¾à®©", "180", "Ġà°ħà°µà°¿à°¨à±Ģ", "Ġà®¨à¯Ĥà®±à¯įà®±à®¾à®£à¯įà®Łà¯ģà®ķà®³à¯Ī", "Ġà¤Īà¤¸à¤µà¥Ģ", "Ġà°ħà°µà°¿à°¨à±Ģà°¤à°¿,", "Ġà®¨à¯Ĥà®±à¯įà®±à®¾à®£à¯įà®Łà¯ģà®ķà®³à¯Īà®¤à¯į", "Ġà¤Ĩà¤°", "Ġà°ªà±ĭà°·", "Ġà®¤à¯Ĭà®Łà®Ļà¯įà®ķà®¿", "Ġà¤Ĩà¤°à¤®à¥įà¤Ń", "Ġà°ªà±ĭà°·à°ķ", "Ġà®µà¯Īà®¤à¯įà®¤à®¤à¯ģ.", "Ġà¤Ĩà¤ķà¥įà¤°à¤®", "Ġà°ªà±ĭà°·à°ķà°¾à°¹", "Ġà®Ĵà®³", "Ġà¤Ĩà¤ķà¥įà¤°à¤®à¤£", "Ġà°ªà±ĭà°·à°ķà°¾à°¹à°¾à°°", "Ġà®Ĵà®³à®¿à®°", "Ġà¤ľà¤¿à¤¨à¤ķà¥ĩ", "Ġà°²à±ĭà°ª", "Ġà®Ĵà®³à®¿à®°à¯ģà®®à¯į", "Ġà¤¯à¥Ĥ", "Ġà°²à±ĭà°ªà°Ĥ", "Ġà®®à®°à®ªà¯Ī", "Ġà¤¯à¥Ĥà¤¨", "Ġà°¸à°µ", "Ġà®µà®¿à®Łà¯įà®Łà¯ģà®ļà¯į", "Ġà¤¯à¥Ĥà¤¨à¤¾à¤¨", "Ġà°¸à°µà°¾à°³", "Ġà®ļà¯Ĩà®©à¯įà®±à®¤à¯ģ.", "Ġà¤¯à¥Ĥà¤¨à¤¾à¤¨à¥Ģ,", "Ġà°¸à°µà°¾à°³à±įà°²à°¨à±ģ", "Ġà®ªà®¿à®°à®¿à®¤à¯įà®¤à®¾à®©à®¿à®¯à®ķà¯į", "Ġà¤¶à¤ķ", "Ġà°İà°¦", "Ġà®ķà®¿à®´à®ķà¯įà®ķà®¿à®¨à¯įà®¤", "Ġà¤¶à¤ķ,", "Ġà°İà°¦à±ģà°°", "Ġà®ķà®¿à®´à®ķà¯įà®ķà®¿à®¨à¯įà®¤à®¿à®¯", "Ġà¤ªà¤¾à¤°à¥įà¤¥", "Ġà°İà°¦à±ģà°°à±įà°ķ", "Ġà®¨à®¿à®±à¯ģà®µà®©", "Ġà¤ªà¤¾à¤°à¥įà¤¥à¥Ģ", "Ġà°İà°¦à±ģà°°à±įà°ķà±Ĭ", "Ġà®¨à®¿à®±à¯ģà®µà®©à®¤à¯įà®¤à®¿à®©à¯į", "Ġà¤ķà¥ģà¤·à¤¾à¤£", "Ġà°İà°¦à±ģà°°à±įà°ķà±Ĭà°Ĥà°Ł", "Ġà®µà®¿à®°à®¿à®µà®Łà¯Īà®¨à¯įà®¤à®¤à¯ģ.", "Ġà¤¸à¥įà¤µà¤°à¥įà¤", "Ġà°İà°¦à±ģà°°à±įà°ķà±Ĭà°Ĥà°Łà±ģà°¨à±įà°¨à°¦à°¿.", "Ġà®ķà¯ģà®Łà®¿à®¯à¯ĩà®±à¯įà®±", "Ġà¤¸à¥įà¤µà¤°à¥įà¤£", "Ġà°ªà±ģà°Łà±įà°Łà±ģà°ª", "Ġà®ķà¯ģà®Łà®¿à®¯à¯ĩà®±à¯įà®±à®ªà¯į", "Ġà¤¸à¥įà¤µà¤°à¥įà¤£à¤¿à¤®", "Ġà°ªà±ģà°Łà±įà°Łà±ģà°ªà±Ĥà°°à±įà°µ", "Ġà®®à®¾à®±à¯įà®±à®¿à®¯à®¤à¯ģ.", "Ġà¤ķà¤¹", "Ġà°ªà±ģà°Łà±įà°Łà±ģà°ªà±Ĥà°°à±įà°µà±ĭ", "Ġà®ĩà®±à¯Īà®¯à®¾à®£", "Ġà¤ķà¤¹à¤²", "Ġà°ªà±ģà°Łà±įà°Łà±ģà°ªà±Ĥà°°à±įà°µà±ĭà°¤à±įà°¤à°°", "Ġà®ĩà®±à¯Īà®¯à®¾à®£à¯įà®®à¯Īà®¯", "Ġà¤ķà¤¹à¤²à¤¾à¤¯à¤¾", "Ġà°ªà±ģà°Łà±įà°Łà±ģà°ªà±Ĥà°°à±įà°µà±ĭà°¤à±įà°¤à°°à°¾à°²à±ģ", "Ġà®ĩà®±à¯Īà®¯à®¾à®£à¯įà®®à¯Īà®¯à¯Īà®¯à¯ģà®®à¯į", "Ġà¤Īà¤¸à¥įà¤µà¥Ģ", "Ġà°īà°¨à±įà°¨à°Łà±įà°²à±ģ", "Ġà®īà®±à¯ģà®¤à®¿", "Ġà¤ªà¥įà¤°à¤¾à¤¯", "Ġà°ļà±Ĩà°ªà±įà°ª", "Ġà®ļà¯Ĩà®¯à¯įà®¤à®¤à¯ģ.", "Ġà¤ªà¥įà¤°à¤¾à¤¯à¤¦", "Ġà°ļà±Ĩà°ªà±įà°ªà±ģà°ķà±ĭà°µ", "Ġà¤ªà¥įà¤°à¤¾à¤¯à¤¦à¥įà¤µà¥Ģà¤ª", "Ġà°ļà±Ĩà°ªà±įà°ªà±ģà°ķà±ĭà°µà°ļà±įà°ļà±ģ.", "Ġà¤ļà¥ĩ", "Ġà°®à±Ĭà°¦à°Łà°¿à°¦", "Ġà¤ļà¥ĩà¤°", "Ġà°®à±Ĭà°¦à°Łà°¿à°¦à°¿", "Ġà®ķà¯ģà®Łà¯ģà®®à¯įà®ªà®¤à¯įà®¤à®¿à®©à¯į", "Ġà¤°à¤¾à¤ľà¤µà¤Ĥà¤¶,", "Ġà°¦à±įà°µà±Ģà°ªà°Ĥ.", "Ġà®®à¯ģà®©à¯įà®©à¯ĭà®Ł", "Ġà¤ªà¤¾à¤Ĥà¤¡à¥įà¤¯", "Ġà°µà±ĩà°¦", "Ġà®®à¯ģà®©à¯įà®©à¯ĭà®Łà®¿à®¯à®¾à®©", "Ġà¤ľà¤¿à¤¨à¥įà¤¹à¥ĭà¤Ĥ", "Ġà°µà±ĩà°¦à°¾à°²à°²à±ĭ", "Ġà®¤à®¾à®ķà¯įà®ķà®¤à¯įà®¤à¯Ī", "Ġà¤ľà¤¿à¤¨à¥įà¤¹à¥ĭà¤Ĥà¤¨à¥ĩ", "Ġà°ĩà°µ", "Ġà®ıà®±à¯įà®ª", "Ġà¤°à¥ĭ", "Ġà°ĩà°µà±įà°µ", "Ġà®ıà®±à¯įà®ªà®Łà¯ģà®¤à¯įà®¤", "Ġà¤°à¥ĭà¤®", "Ġà°ĩà°µà±įà°µà°¬à°¡à°¿à°¨", "Ġà®ıà®±à¯įà®ªà®Łà¯ģà®¤à¯įà®¤à®¿à®¯", "Ġà¤µà¥įà¤¯à¤¾à¤ªà¤¾à¤°", "Ġà°ĩà°ªà±įà°ªà°Łà°¿à°ķ", "Ġà®ĩà®¯à®ķà¯įà®ķà®®à®¾à®©à®¤à¯ģ", "Ġà¤µà¥įà¤¯à¤¾à¤ªà¤¾à¤°à¤¿à¤ķ", "Ġà°ĩà°ªà±įà°ªà°Łà°¿à°ķà±Ģ", "Ġà®ħà®ķ", "Ġà¤¸à¤Ĥà¤¬", "Ġà°ªà±įà°°à°¾à°°à±įà°", "Ġà®ħà®ķà®¿à®®", "Ġà¤¸à¤Ĥà¤¬à¤Ĥà¤", "Ġà°ªà±įà°°à°¾à°°à±įà°¥", "Ġà®ħà®ķà®¿à®®à¯įà®ļ", "Ġà¤¸à¤Ĥà¤¬à¤Ĥà¤§", "Ġà°ªà±įà°°à°¾à°°à±įà°¥à°¨", "Ġà®ħà®ķà®¿à®®à¯įà®ļà¯Ī", "Ġà¤µà¥įà¤¯à¤¾à¤ªà¤°", "Ġà°ªà±įà°°à°¾à°°à±įà°¥à°¨à°²à°²à±ĭ", "Ġà®µà®´à®¿à®¯", "Ġà¤ļà¥Į", "Ġà°īà°ªà°¯à±ĭà°Ĺà°¿à°¸à±įà°¤à°¾à°°à±ģ", "Ġà®µà®´à®¿à®¯à®¿à®²à®¾à®©", "Ġà¤ļà¥Įà¤", "Ġ(à°ī", "Ġà®İà®¤à®¿à®°à¯įà®ªà¯įà®ª", "Ġà¤ļà¥Įà¤¥", "Ġ(à°īà°¦", "Ġà®İà®¤à®¿à®°à¯įà®ªà¯įà®ªà¯ģà®ķà¯įà®ķà®¾à®ķ", "Ġà¤ļà¥Įà¤¥à¥Ģ", "Ġ(à°īà°¦à°¾", "Ġà®ħà®±à®¿à®¯à®ªà¯įà®ªà®Łà¯ģà®ķà®¿à®±à®¤à¯ģ.", "à¤ªà¤¾à¤ģ", "Ġ(à°īà°¦à°¾:", "Ġà®Ĩà®Łà¯įà®ļà®¿à®¯à¯Ī", "à¤ªà¤¾à¤ģà¤ļ", "Ġà°¦à±įà°µà±Ģà°ªà±ĩ,", "Ġà®®à¯ģà®Łà®¿à®¤à¯įà®¤à¯ģ", "à¤ªà¤¾à¤ģà¤ļà¤µà¥Ģ", "Ġà°®à±ĩà°°", "Ġà®µà¯Īà®¤à¯įà®¤à®¤", "Ġà¤µà¥ĥ", "Ġà°®à±ĩà°°à±ĭ", "Ġà®µà¯Īà®¤à¯įà®¤à®¤à®¿à®²à¯į", "Ġà¤µà¥ĥà¤¹", "Ġà°®à±ĩà°°à±ĭà°", "Ġà®®à¯ģà®ķà¯įà®ķà®¿à®¯à®®à®¾à®©", "Ġà¤µà¥ĥà¤¹à¤¦", "Ġà°®à±ĩà°°à±ĭà°ĥ", "Ġà®Ĩà®ķà¯įà®ķ", "Ġà¤µà¥ĥà¤¹à¤¦à¥į", "Ġà°¦à°ķà±įà°·à°¿à°£à°¦", "Ġà®Ĩà®ķà¯įà®ķà®ķà¯į", "Ġà¤ªà¥įà¤°à¤¶à¤¾à¤¸", "Ġà°¦à°ķà±įà°·à°¿à°£à°¦à°¿à°Ĺ", "Ġà®ķà¯Ĥà®±à®¾à®ķ", "Ġà¤ªà¥įà¤°à¤¶à¤¾à¤¸à¤¨", "Ġà°¦à°ķà±įà°·à°¿à°£à°¦à°¿à°Ĺà±įà°", "Ġà®ªà®¿à®°à®¿à®¤à¯įà®¤à®¾à®©à®¿à®¯à®¾à®µ", "Ġà¤¨à¤¿à¤°à¥įà¤§", "Ġà°¦à°ķà±įà°·à°¿à°£à°¦à°¿à°Ĺà±įà°Ńà°¾à°Ĺ", "Ġà®ªà®¿à®°à®¿à®¤à¯įà®¤à®¾à®©à®¿à®¯à®¾à®µà®¿à®©à¯į", "Ġà¤¨à¤¿à¤°à¥įà¤§à¤¾à¤°", "Ġà°¦à°ķà±įà°·à°¿à°£à°¦à°¿à°Ĺà±įà°Ńà°¾à°Ĺà±ĩ,", "Ġà®ĩà®¨à¯įà®¤à¯ģà®ķ", "Ġà¤¨à¤¿à¤°à¥įà¤§à¤¾à¤°à¤£", "Ġà°¶à±įà°°à±Ģà°¶", "Ġà®ĩà®¨à¯įà®¤à¯ģà®ķà¯įà®ķà®³", "Ġà¤ľà¤Ł", "Ġà°¶à±įà°°à±Ģà°¶à±Īà°²", "Ġà®ĩà®¨à¯įà®¤à¯ģà®ķà¯įà®ķà®³à¯Īà®ªà¯į", "Ġà¤ľà¤Łà¤¿à¤²", "Ġà°¶à±įà°°à±Ģà°¶à±Īà°²à°¸", "Ġà®®à¯ģà®ļà¯ģà®²à®¿à®®à¯įà®ķà®³à¯Ī", "Ġà¤¬à¤¨à¤¾à¤Ī;", "Ġà°¶à±įà°°à±Ģà°¶à±Īà°²à°¸à±įà°¯", "Ġà®ļà¯ģà®¤à®¨à¯įà®¤à®¿à®°à®®à®¾à®©", "Ġà¤ªà¥įà¤°à¤ļà¤²à¤¨", "Ġà°ªà±įà°°à°¦à±ĩà°¶à±ĩ,", "Ġà®ªà®ķà¯ģà®¤à®¿à®ķà®³à®¾à®ķà®ªà¯į", "Ġà¤µà¤¿à¤ľà¥įà¤ŀ", "Ġà°ķà±ĥà°·à±įà°£à°¾", "Ġà®ªà¯Ĩà®°à¯ģà®®", "Ġà¤µà¤¿à¤ľà¥įà¤ŀà¤¾à¤¨,", "Ġà°Ĺà±ĭà°¦à°¾à°µà°°à±Ģ", "Ġà®ªà¯Ĩà®°à¯ģà®®à®³à®µ", "Ġà¤ķà¤²à¤¾,", "Ġà°¸à±įà°¥à°¾à°¨à±ĩ.", "Ġà®ªà¯Ĩà®°à¯ģà®®à®³à®µà®¿à®²à®¾à®©", "Ġà¤¸à¤¾à¤¹à¤¿à¤¤à¥įà¤¯,", "Ġà°¸à±įà°¥à°¾à°¨à±ĩ..", "Ġà®īà®¯à®¿à®°à®¿à®´", "Ġà¤Ĺà¤£à¤¿à¤¤", "Ġà°¸à±įà°¥à°¾à°¨à±ĩ...", "Ġà®īà®¯à®¿à®°à®¿à®´à®ªà¯įà®ª", "Ġà¤Ĺà¤£à¤¿à¤¤,", "Ġà°¸à±įà°¥à°¾à°¨à±ĩ...).", "Ġà®īà®¯à®¿à®°à®¿à®´à®ªà¯įà®ªà¯ģ", "Ġà¤ĸà¤Ĺà¥ĭà¤²", "Ġà°ħà°Ĥà°Łà±ĩ", "Ġà®ħà®¤à®±à¯įà®ķà¯ģ", "Ġà¤ĸà¤Ĺà¥ĭà¤²à¤¶à¤¾à¤¸", "Ġ\"à°¨", "Ġà®¨à®Łà®¨à¯įà®¤", "Ġà¤ĸà¤Ĺà¥ĭà¤²à¤¶à¤¾à¤¸à¥įà¤¤à¥įà¤°", "Ġ\"à°¨à±ĩà°°", "Ġà®¨à®Łà®¨à¯įà®¤à®¿à®°à®¾à®¤", "Ġà¤ĸà¤Ĺà¥ĭà¤²à¤¶à¤¾à¤¸à¥įà¤¤à¥įà¤°,", "Ġ\"à°¨à±ĩà°°à±ĩà°¡à±ģ", "Ġà®ĩà®Łà®®à¯į", "Ġà¤ªà¥įà¤°à¥Įà¤¦à¥įà¤¯à¥ĭà¤Ĺà¤¿à¤ķà¥Ģ,", "Ġ\"à°¨à±ĩà°°à±ĩà°¡à±ģ\"", "Ġà®ªà¯Ĩà®¯à®°à¯įà®µ", "Ġà¤¦à¤°à¥įà¤¶", "Ġà°ªà°Ĥà°¡à±ģ", "Ġà®ªà¯Ĩà®¯à®°à¯įà®µà¯ģà®ķà¯įà®ķà¯ģ", "Ġà¤¦à¤°à¥įà¤¶à¤¨", "Ġ\"à°Ĺ", "Ġà®¨à®Łà¯ģà®µ", "Ġà¤ĩà¤¨à¥įà¤¹", "Ġ\"à°Ĺà°¿à°¨à±įà°¨", "Ġà®¨à®Łà¯ģà®µà®¿à®²à¯į", "Ġà¤ĩà¤¨à¥įà¤¹à¥Ģà¤Ĥ", "Ġ\"à°Ĺà°¿à°¨à±įà°¨à±Ĩ", "Ġà¤¶à¤¾à¤¸à¤¨à¤ķà¤¾à¤²", "Ġà°ķà°¾à°¯", "Ġà®ķà¯Ĥà®Łà¯įà®Ł", "Ġà¤«à¤²à¥ĩ", "Ġà°ķà°¾à°¯\",", "Ġà®ķà¯Ĥà®Łà¯įà®Łà®®à¯Īà®ªà¯įà®ª", "à¤«à¥Ĥ", "Ġà°¨à±ĩà°°à±ĩà°¡à±ģ", "Ġà®ķà¯Ĥà®Łà¯įà®Łà®®à¯Īà®ªà¯įà®ªà®¾à®ķ", "à¤«à¥Ĥà¤²à¥ĩ", "Ġà°ªà°Ĥà°¡à±įà°²à±ģ", "Ġà®Ĵà®°à¯ģà®Ļà¯įà®ķ", "à¤«à¥Ĥà¤²à¥ĩ,", "Ġà°īà°Ĥà°Łà°¾à°¯à°¿", "Ġà®Ĵà®°à¯ģà®Ļà¯įà®ķà®¿à®£", "Ġà¤¶à¤¾à¤¸à¥įà¤¤à¥įà¤°", "Ġà°¦à±Ģà°¨à°¿à°ķà°¿", "Ġà®Ĵà®°à¯ģà®Ļà¯įà®ķà®¿à®£à¯Īà®ķà¯įà®ķà®ªà¯įà®ªà®Łà¯įà®Ł", "Ġà¤¶à¤¾à¤¸à¥įà¤¤à¥įà¤°à¥Ģà¤¯", "Ġ\"à°Ńà°¾à°°à°¤à°¦à±ĩà°¶à°Ĥ", "Ġà®ķà¯ģà®Łà®¿à®¯à®°à®ļà®¾à®ķ", "Ġà¤°à¤ļà¤¾", "Ġ\"à°Ńà°¾à°°à°¤à°¦à±ĩà°¶à°Ĥ\"", "Ġà®¨à®¾à®Łà®¾à®³", "Ġà¥¬à¥¦à¥¦", "Ġ\"à°Ńà°°à°¤à°µ", "Ġà®¨à®¾à®Łà®¾à®³à¯ģà®®", "Ġà¥§à¥¨à¥¦à¥¦", "Ġ\"à°Ńà°°à°¤à°µà°°à±įà°·", "Ġà®¨à®¾à®Łà®¾à®³à¯ģà®®à®©à¯įà®±", "Ġà¤ķà¥įà¤·à¥ĩà¤¤à¥įà¤°à¥Ģà¤¯", "Ġ\"à°Ńà°°à°¤à°µà°°à±įà°·à°Ĥ", "Ġà®®à¯Ĥà®²à®®à®¾à®ķ", "Ġà¤īà¤¤à¥įà¤¥à¤¾à¤¨", "Ġ\"à°Ńà°°à°¤à°µà°°à±įà°·à°Ĥ\",", "Ġà®¨à®¿à®°à¯įà®µà®ķà®¿à®ķà¯įà®ķà®ªà¯įà®ªà®Łà¯ģà®ķà®¿à®±à®¤à¯ģ.", "Ġà¤ķà¤¨à¥įà¤¨", "Ġà°¨à°¾à°Ł", "Ġà®¨à®¾à®Łà®¾à®ķà®¤à¯į", "Ġà¤ķà¤¨à¥įà¤¨à¥Į", "Ġà°¨à°¾à°Łà°¿", "Ġà®¤à®¿à®ķà®´", "Ġà¤ķà¤¨à¥įà¤¨à¥Įà¤ľ", "Ġà°µà°ļà±įà°ļà°¿à°¨à°¦", "Ġà®¤à®¿à®ķà®´à¯įà®ķ", "Ġà¤°à¤¾à¤ľà¤¾", "Ġà°µà°ļà±įà°ļà°¿à°¨à°¦à°¿,", "Ġà®¤à®¿à®ķà®´à¯įà®ķà®¿à®±à®¤à¯ģ.", "Ġà¤¹à¤°à¥įà¤·", "Ġ\"à°Ńà°°à°¤à±ģà°¡à±ģ", "Ġà®ħà®®à¯Īà®ªà¯įà®ªà¯ģà®ķà®³", "Ġà¥¬à¥¦à¥¬", "Ġ\"à°Ńà°°à°¤à±ģà°¡à±ģ\"", "Ġà®ħà®®à¯Īà®ªà¯įà®ªà¯ģà®ķà®³à¯Īà®¯à¯ģà®Łà¯Īà®¯", "Ġà¥¬à¥", "Ġ\"à°Ńà°°à°¤à±ģà°¡à±ģ\".", "Ġà®ħà®®à¯Īà®ªà¯įà®ªà¯ģà®ķà®³à¯Īà®¯à¯ģà®Łà¯Īà®¯,", "Ġà¥¬à¥ª", "Ġà°ĩà°¤à°¨à±ģ", "Ġà®®à¯Ĭà®´à®¿à®ķà®³à¯Īà®¯à¯ģà®Łà¯Īà®¯", "Ġà¥¬à¥ªà¥", "Ġà°µà°¿à°¶à±įà°µà°¾à°®", "Ġà®ĩà®©à®Ļà¯įà®ķà®³à¯Īà®¯à¯ģà®Łà¯Īà®¯", "Ġà¥¬à¥ªà¥Ń", "Ġà°µà°¿à°¶à±įà°µà°¾à°®à°¿à°¤à±įà°°", "Ġà®ļà®®à¯Ĥà®ķà®®à®¾à®ķ", "Ġà¤īà¤¸à¤¨à¥ĩ", "Ġà°µà°¿à°¶à±įà°µà°¾à°®à°¿à°¤à±įà°°,", "Ġà®ªà¯Ĩà®¯à®°à®³à®µà¯ģ", "Ġà¤¦à¤ķ", "Ġà°®à±ĩà°¨", "Ġà®¨à®ª", "Ġà¤¦à¤ķà¥įà¤", "Ġà°®à±ĩà°¨à°ķà°²", "Ġà®¨à®ªà®°à¯į", "Ġà¤¦à¤ķà¥įà¤ķ", "Ġà°ķà±ģà°®à°¾à°°à±įà°¤", "Ġà®µà®°à¯ģà®®", "Ġà¤¦à¤ķà¥įà¤ķà¥įà¤¨", "Ġà°ķà±ģà°®à°¾à°°à±įà°¤à±Ĩ", "Ġà®µà®°à¯ģà®®à®¾à®©", "Ġà¤¹à¤°à¤¾", "Ġà°¶à°ķ", "Ġà®µà®°à¯ģà®®à®¾à®©à®®à®¾à®©à®¤à¯ģ", "Ġà¤īà¤¸à¤ķà¥ĩ", "Ġà°¶à°ķà±ģà°Ĥà°", "Ġà¤īà¤¤à¥įà¤¤à¤°à¤¾à¤", "Ġà°¶à°ķà±ģà°Ĥà°¤", "4,", "Ġà¤īà¤¤à¥įà¤¤à¤°à¤¾à¤§", "Ġà°¶à°ķà±ģà°Ĥà°¤à°²", "57", "Ġà¤īà¤¤à¥įà¤¤à¤°à¤¾à¤§à¤¿à¤ķà¤¾à¤°", "Ġà°ķà±ģà°®à°¾à°°à±ģà°¡", "577", "Ġà¤īà¤¤à¥įà¤¤à¤°à¤¾à¤§à¤¿à¤ķà¤¾à¤°à¥Ģ", "Ġà°ķà±ģà°®à°¾à°°à±ģà°¡à±ģ.", "577)", "Ġà¤ļà¤¾à¤¹", "Ġà°¹à°¿à°Ĥà°¦à±Ĥà°¦à±ĩà°¶à°Ĥ,", "à®ĩà®²", "Ġà¤ļà¤¾à¤¹à¤¾", "Ġà°¸à°¿à°Ĥà°§à±Ĥà°¨à°¦à°¿", "à®ĩà®²à®¿à®°à¯ģà®¨à¯įà®¤à¯ģ", "Ġà¤¶à¤¾à¤¸à¤ķà¥ĭà¤Ĥ", "Ġà°ªà±Ĥà°°à±įà°µà°ªà±ģ", "Ġà¤¹à¤¾à¤°", "Ġà°ªà°°à±įà°·", "Ġà¤¹à¤¾à¤°à¤¨à¤¾", "Ġà°ªà°°à±įà°·à°¿à°¯", "Ġà¤ªà¤¡à¤¼", "Ġà°ªà°°à±įà°·à°¿à°¯à°¨à±ģà°²à±ģ,", "86", "Ġà¤ªà¤¡à¤¼à¤¾", "Ġà°Ĺà±įà°°à±Ģà°ķ", "86,", "Ġà¤¤à¥ĭ", "Ġà°Ĺà±įà°°à±Ģà°ķà±ģà°²à±ģ", "013", "Ġà¤ªà¤²à¥įà¤²", "Ġà°¸à°¿à°Ĥà°§à±Ĥà°¨à°¦", "013.", "Ġà¤ªà¤²à¥įà¤²à¥įà¤µà¥ĭà¤Ĥ", "Ġà°¸à°¿à°Ĥà°§à±Ĥà°¨à°¦à°¿à°ķà°¿", "1)", "Ġà¤ªà¤°à¤¾à¤ľà¤¿à¤¤", "Ġà°Ĩà°µà°²", "Ġà®īà®¯à®°à¯įà®¨à¯įà®¤à®¤à¯ģ.", "Ġà¤¦à¤¿à¤¯à¤¾,", "Ġà°ªà±ĩà°°à±ģà°¤à±ĭ", "Ġà®ķà®²à¯įà®µ", "Ġà¤ľà¤¿à¤¨à¤ķà¤¾", "Ġà°ªà°¿à°²à°¿à°ļ", "Ġà®ķà®²à¯įà®µà®¿à®¯à®±", "Ġà¤¸à¥ģà¤¦", "Ġà°ªà°¿à°²à°¿à°ļà°¾à°°à±ģ.", "Ġà®ķà®²à¯įà®µà®¿à®¯à®±à®¿à®µ", "Ġà¤¸à¥ģà¤¦à¥Ĥà¤°", "Ġà°°à±Ĥà°ªà°¾à°Ĥà°¤à°°à°Ĥ", "Ġà®ķà®²à¯įà®µà®¿à®¯à®±à®¿à®µà¯ģ", "Ġà¤ªà¤¾à¤Ĥà¤¡à¥įà¤¯à¥ĭà¤Ĥ", "Ġà°ļà±Ĩà°Ĥà°¦à°¿", "Ġà®µà¯Ģà®¤à®®à®¾à®©à®¤à¯ģ", "Ġà¤ļà¥ĭà¤²à¥ĭà¤Ĥ", "Ġà°¬à±įà°°à°¿à°Łà±Ģà°·à±ģ", "Ġà¤ķà¥ĭà¤", "Ġ(à°Ĩ", "Ġà¤ķà¥ĭà¤Ī", "Ġ(à°Ĩà°Ĥà°Ĺà±įà°²", "Ġà¤¬à¤¨à¤¾à¤¨", "Ġ(à°Ĩà°Ĥà°Ĺà±įà°²à±ĩà°¯", "Ġà¤¬à¤¨à¤¾à¤¨à¥ĩ", "Ġ(à°Ĩà°Ĥà°Ĺà±įà°²à±ĩà°¯à±ģà°²à±ģ", "Ġà®ĩà®¤à¯ĩ", "Ġà¤¸à¤ķà¥įà¤·", "Ġ(à°Ĩà°Ĥà°Ĺà±įà°²à±ĩà°¯à±ģà°²à±ģ)", "Ġà®¨à¯ĩà®°à®¤à¯įà®¤à®¿à®²à¯į,", "Ġà¤¸à¤ķà¥įà¤·à¤®", "Ġà°µà°¾à°°à°¿", "Ġà®¤à¯Ĭà®ķà¯Īà®¯à®¾à®©à®¤à¯ģ", "Ġà¤¨à¤¹", "Ġà°ªà±įà°°à°¾à°®", "Ġà¤¨à¤¹à¥Ģà¤Ĥ", "Ġà°ªà±įà°°à°¾à°®à±ģà°ĸà±įà°¯", "Ġà¤®à¥Ĥ", "Ġà°ªà±įà°°à°¾à°®à±ģà°ĸà±įà°¯à°¤", "10", "Ġà¤®à¥Ĥà¤²", "Ġà°ªà±įà°°à°¾à°®à±ģà°ĸà±įà°¯à°¤à°¨à±ģ", "Ġà®ķà¯ĭà®Ł", "Ġà¤¤à¥ģà¤", "Ġà°ªà±Ĭà°Ĥà°¦à°¿à°¨à°¦à°¿.", "Ġà®ķà¯ĭà®Łà®¿à®¯", "Ġà¤¤à¥ģà¤²", "Ġà°ªà±įà°°à°¸à±įà°¤à±ģà°¤à°®à±ģ", "Ġà®ķà¯ĭà®Łà®¿à®¯à®¿à®²", "Ġà¤¤à¥ģà¤²à¤¨à¤¾", "Ġà°Ĺà±ģà°°à±įà°¤à°¿à°Ĥà°", "Ġà®ķà¯ĭà®Łà®¿à®¯à®¿à®²à®¿à®°à¯ģà®¨à¯įà®¤à¯ģ", "Ġà¤¦à¥ģà¤¸", "Ġà°Ĺà±ģà°°à±įà°¤à°¿à°Ĥà°ª", "Ġà®ķà®¿à®Łà¯įà®Ł", "Ġà¤¦à¥ģà¤¸à¤°", "Ġà°Ĺà±ģà°°à±įà°¤à°¿à°Ĥà°ªà±ģ", "Ġà®ķà®¿à®Łà¯įà®Łà®¤à¯įà®¤", "Ġà¤¦à¥ģà¤¸à¤°à¥ĩ", "Ġà°ħà°µà°¿", "Ġà®ķà®¿à®Łà¯įà®Łà®¤à¯įà®¤à®Łà¯įà®Ł", "Ġà¤ĵ", "Ġà°ĩà°Ĥà°¡à°¿à°¯à°¾,", "Ġà¤ĵà¤°", "Ġà°Ńà°¾à°°à°¤à°¦à±ĩà°¶à°Ĥ.", "Ġà¤¬à¤¢à¤¼à¤¨à¥ĩ", "Ġà°ĩà°Ĥà°ķ", "Ġà®ķà¯ĭà®Łà®¿à®¯à®¾à®ķ", "Ġà¤ķà¥įà¤°à¤®", "Ġà°ĩà°Ĥà°ķà°¾", "Ġà¤ľà¤¾à¤°", "Ġà°¹à°¿à°Ĥà°¦à±Ĥà°¸à±įà°¤", "Ġà®µà®±à®¿à®¯", "Ġà¤ľà¤¾à¤°à¥Ģ", "Ġà°¹à°¿à°Ĥà°¦à±Ĥà°¸à±įà°¤à°¾à°¨à±į", "Ġà®ĩà®°à¯ģà®¨à¯įà®¤à®¤à®¿à®²à®¿à®°à¯ģà®¨à¯įà®¤à¯ģ", "Ġà¤¨à¤¯", "Ġà°ħà°¨à±ģà°¨", "Ġà®µà¯ĩà®ķ", "Ġà¤¨à¤¯à¥ĩ", "Ġà°ħà°¨à±ģà°¨à°¦à°¿", "Ġà®µà¯ĩà®ķà®®à®¾à®ķ", "Ġà¤ķà¤¾à¤°à¤£", "Ġà°°à±Ĥà°ªà°¾à°Ĥà°¤à°°à°®", "Ġà®µà®³à®°à¯ģà®®à¯į", "Ġà¤¬à¤¾à¤Ĥà¤Łà¥ĩ", "Ġà°°à±Ĥà°ªà°¾à°Ĥà°¤à°°à°®à±ĩ.", "Ġà®īà®°à¯ģà®µà®¾à®ķà®¿à®¯", "Ġà¤¸à¤¾à¤®à¤¾à¤¨", "Ġà°ļà°°à°¿à°¤à±įà°°", "Ġà®īà®°à¯ģà®µà®¾à®ķà®¿à®¯à¯ģà®³à¯įà®³à®¤à¯ģ.", "Ġà¤¸à¤¾à¤®à¤¾à¤¨à¥įà¤¯", "Ġà°ªà±įà°°à°¦à±ĩà°¶à±įâĢĮ", "Ġà®¤à®ķ", "Ġà¤ķà¥ĥà¤·à¤ķ", "Ġà°²à±ĭà°¨à°¿", "Ġà®¤à®ķà®µ", "Ġà¤ķà¥ĥà¤·à¤ķà¥ĭà¤Ĥ", "Ġà°Ńà°¿à°Ĥà°", "Ġà®¤à®ķà®µà®²à¯į", "Ġà¤ķà¥ĥà¤·à¤¿", "Ġà°Ńà°¿à°Ĥà°¬", "Ġà®¤à¯Ĭà®´", "Ġà¤¸à¤¹", "Ġà°Ńà°¿à°Ĥà°¬à±Ĩà°Ł", "Ġà®¤à¯Ĭà®´à®¿à®²", "Ġà¤¸à¤¹à¤ľ", "Ġà°Ńà°¿à°Ĥà°¬à±Ĩà°Łà±įà°ķ", "Ġà®¤à¯Ĭà®´à®¿à®²à¯įà®¨", "Ġà¤¸à¥įà¤¥à¤¾à¤¨à¥Ģà¤¯", "Ġà°Ńà°¿à°Ĥà°¬à±Ĩà°Łà±įà°ķà°¾", "Ġà®¤à¯Ĭà®´à®¿à®²à¯įà®¨à¯ģà®Ł", "Ġà¤®à¤¤à¤Ń", "Ġà°µà°¦à±įà°¦", "Ġà®¤à¯Ĭà®´à®¿à®²à¯įà®¨à¯ģà®Łà¯įà®ª", "Ġà¤®à¤¤à¤Ńà¥ĩà¤¦", "Ġà°²à°Ń", "Ġà®¤à¯Ĭà®´à®¿à®²à¯įà®¨à¯ģà®Łà¯įà®ªà®ļà¯į", "Ġà¤¹à¥ĭà¤¨à¥ĩ", "Ġà°²à°Ńà±įà°¯", "Ġà®ļà¯ĩà®µà¯Ī", "Ġà¤²à¤Ĺà¥ĩ", "Ġà°²à°Ńà±įà°¯à°®à±Īà°¨", "Ġà®ļà¯ĩà®µà¯Īà®ķà®³", "Ġà¤ªà¤¹à¤²à¥Ģ", "Ġà°°à°¾à°¤", "Ġà®ļà¯ĩà®µà¯Īà®ķà®³à¯ģà®ķà¯įà®ķà¯ģ", "Ġà¤Ńà¤ľà¤¨", "Ġà°°à°¾à°¤à°¿à°¯", "Ġà®®à¯Īà®¯à®®à®¾à®ķà®µ", "Ġà¤¬à¤¨à¤¾à¤¯à¤¾", "Ġà°°à°¾à°¤à°¿à°¯à±ģà°Ĺ", "Ġà®®à¯Īà®¯à®®à®¾à®ķà®µà¯ģà®®à¯į,", "Ġà¤īà¤¨à¤ķà¥Ģ", "Ġà°°à°¾à°¤à°¿à°¯à±ģà°Ĺà°ªà±ģ", "Ġà®µà®¿à®°à®¿à®µà®Łà¯Īà®¨à¯įà®¤à¯ģ", "Ġà¤¨à¤ķ", "Ġà°¶à°¿à°²", "Ġà®µà®°à¯įà®ķà¯įà®ķà®¤à¯įà®¤à®¿à®©à®°à¯Īà®¯à¯ģà®®à¯į", "Ġà¤¨à¤ķà¤²", "Ġà°¶à°¿à°²à°¾à°Ĺ", "Ġà®¤à®¿à®Łà¯įà®Łà®®à®¿à®Ł", "Ġà¤ªà¥ģà¤¨", "Ġà°¶à°¿à°²à°¾à°Ĺà±ĥ", "Ġà®¤à®¿à®Łà¯įà®Łà®®à®¿à®Łà®ªà¯įà®ªà®Łà¯įà®Ł", "Ġà¤ªà¥ģà¤¨à¤°", "Ġà°¶à°¿à°²à°¾à°Ĺà±ĥà°¹", "Ġà®®à¯ģà®Łà®¿à®ķà¯įà®ķà®ªà¯įà®ªà®Łà¯įà®Ł", "Ġà¤ªà¥ģà¤¨à¤°à¥ģà¤¤", "Ġà°¶à°¿à°²à°¾à°Ĺà±ĥà°¹à°¾à°²à±ģ,", "Ġà®ªà¯ģà®µ", "Ġà¤ªà¥ģà¤¨à¤°à¥ģà¤¤à¥įà¤¥à¤¾à¤¨", "Ġà°ķà±ģà°¡", "Ġà®ªà¯ģà®µà®¿", "Ġà¤ĩà¤¸à¤¨à¥ĩ", "Ġà°ķà±ģà°¡à±įà°¯", "Ġà®¤à®¾à®£à¯įà®Łà®¿à®¯", "Ġà¤Ńà¤¾à¤·à¤¾à¤ĵà¤Ĥ", "Ġà°ķà±ģà°¡à±įà°¯à°ļ", "Ġà®ĩà®²à®ķà¯įà®ķ", "Ġà¤µà¤¿à¤ķà¤¾à¤¸", "Ġà°ķà±ģà°¡à±įà°¯à°ļà°¿à°¤à±įà°°", "Ġà®ĩà®²à®ķà¯įà®ķà¯ģà®ķà®³à¯Ī", "Ġà¤¨à¥ĩà¤¤", "Ġà°ķà±ģà°¡à±įà°¯à°ļà°¿à°¤à±įà°°à°¾à°²à±ģ", "Ġà®ħà®Łà¯Īà®¯", "Ġà¤¨à¥ĩà¤¤à¥ĥà¤¤", "Ġà°®à°¾à°¨", "Ġà®µà®¿à®£", "Ġà¤¨à¥ĩà¤¤à¥ĥà¤¤à¥įà¤µ", "Ġà°®à°¾à°¨à°µ", "Ġà®µà®¿à®£à¯įà®µ", "Ġà¤°à¤¾à¤ľà¤", "Ġà°®à°¾à°¨à°µà±ģà°¨à°¿", "Ġà®µà®¿à®£à¯įà®µà¯Ĩà®³", "Ġà¤°à¤¾à¤ľà¤ĺ", "Ġà°īà°¨", "Ġà®µà®¿à®£à¯įà®µà¯Ĩà®³à®¿à®¤à¯į", "Ġà¤°à¤¾à¤ľà¤ĺà¤°à¤¾à¤¨", "Ġà°īà°¨à°¿à°ķ", "Ġà®¤à®¿à®°à¯Īà®ªà¯įà®ª", "Ġà¤°à¤¾à¤ľà¤ĺà¤°à¤¾à¤¨à¥ĭ", "Ġà°īà°¨à°¿à°ķà°¿à°ķà°¿", "Ġà®¤à®¿à®°à¯Īà®ªà¯įà®ªà®Ł", "Ġà¤°à¤¾à¤ľà¤§", "Ġà°Ĩà°§à°¾à°°", "Ġà®¤à®¿à®°à¯Īà®ªà¯įà®ªà®Łà®Ļà¯įà®ķà®³à¯į,", "Ġà¤°à¤¾à¤ľà¤§à¤¾à¤¨", "Ġà°Ĩà°§à°¾à°°à°¾à°²à±ģ.", "Ġà®ĩà®ļà¯Ī", "Ġà¤°à¤¾à¤ľà¤§à¤¾à¤¨à¥Ģ", "Ġà°¶à°¾à°¶", "Ġà®Ĩà®©", "Ġà¤¸à¥įà¤¤à¤°", "Ġà°¶à°¾à°¶à±įà°µà°¤", "Ġà®Ĩà®©à¯įà®®", "Ġà¤®à¤Ĥà¤¦", "Ġà°¨à°¿à°µà°¾à°¸", "Ġà®Ĩà®©à¯įà®®à¯Ģà®ķà®ªà¯į", "Ġà¤®à¤Ĥà¤¦à¤¿à¤°", "Ġà°¨à°¿à°µà°¾à°¸à°¾à°²à±ģ", "Ġà®ªà¯ĭà®¤à®©à¯Īà®ķà®³", "Ġà¤®à¤Ĥà¤¦à¤¿à¤°à¥ĭà¤Ĥ", "Ġà®ªà¯ĭà®¤à®©à¯Īà®ķà®³à¯į", "Ġà¤¦à¥ĩà¤¶à¥ĭà¤Ĥ", "Ġà®īà®²à®ķà®³", "Ġà¤®à¥įà¤¯à¤¾à¤Ĥ", "Ġà°¸à°Ĥà°µà°¤à±įà°¸à°¾à°°", "Ġà®īà®²à®ķà®³à®¾à®µ", "Ġà¤®à¥įà¤¯à¤¾à¤Ĥà¤®", "Ġà°¸à°Ĥà°µà°¤à±įà°¸à°¾à°°à°¾à°²", "Ġà®īà®²à®ķà®³à®¾à®µà®¿à®¯", "Ġà¤®à¥įà¤¯à¤¾à¤Ĥà¤®à¤¾à¤°", "Ġà°ķà°¿à°Ĥà°¦à°Ł", "Ġà®ªà®Ļà¯įà®ķà¯Ī", "Ġà¤®à¥įà¤¯à¤¾à¤Ĥà¤®à¤¾à¤°,", "Ġà°ķà±įà°°à°¿.", "Ġà®Ĩà®±à¯įà®±à®¿", "Ġà¤¥à¤¾à¤Ī", "Ġà®µà®°à¯ģà®ķà®¿à®©à¯įà®±à®©.", "Ġà¤¥à¤¾à¤Īà¤²", "Ġà°¸à°®à°¯", "Ġà®ªà¯Ĭà®°à¯ģà®³à®¾à®¤à®¾à®°à®ļà¯į", "Ġà¤¥à¤¾à¤Īà¤²à¥Ī", "Ġà°¸à°®à°¯à°Ĥà°²à±ĭ,", "Ġà®¨à®¿à®²à¯Īà®¯à®±à¯įà®±", "Ġà¤¥à¤¾à¤Īà¤²à¥Īà¤Ĥà¤¡", "Ġà°¨à°¿à°¯à±ĭà°²", "Ġà®ªà¯ĭà®¤à®¿à®²à¯ģà®®à¯į", "Ġà¤¥à¤¾à¤Īà¤²à¥Īà¤Ĥà¤¡,", "Ġà°¨à°¿à°¯à±ĭà°²à°¿à°", "Ġà®µà®±à¯ģà®®", "Ġà¤²à¤¾à¤ĵ", "Ġà°¨à°¿à°¯à±ĭà°²à°¿à°¥à°¿à°ķ", "Ġà®µà®±à¯ģà®®à¯Ī", "Ġà¤²à¤¾à¤ĵà¤¸,", "Ġà°¨à°¿à°¯à±ĭà°²à°¿à°¥à°¿à°ķà±į", "Ġà®µà¯Ģà®¤à®¤à¯įà®¤à¯Ī", "Ġà¤ķà¤Ĥà¤¬", "Ġà°ªà°¾à°ķà°¿à°¸à±įà°¤à°¾à°¨à±į", "Ġà®ķà¯ģà®±à¯Īà®¤à¯įà®¤", "Ġà¤ķà¤Ĥà¤¬à¥ĭ", "Ġà°®à±Ĩ", "Ġà®ķà¯ģà®±à¯Īà®¤à¯įà®¤à¯ģà®³à¯įà®³à®¤à¯ģ.", "Ġà¤ķà¤Ĥà¤¬à¥ĭà¤¡", "Ġà°®à±Ĩà°¹", "Ġà®ħà®£à¯ģ", "Ġà¤ķà¤Ĥà¤¬à¥ĭà¤¡à¤¿à¤¯à¤¾", "Ġà°®à±Ĩà°¹à°°à±įà°Ĺ", "Ġà®Ĩà®¯à¯ģà®¤", "Ġà¤ķà¤Ĥà¤¬à¥ĭà¤¡à¤¿à¤¯à¤¾,", "Ġà°®à±Ĩà°¹à°°à±įà°Ĺà°°à±į,", "Ġà®Ĩà®¯à¯ģà®¤à®Ļà¯įà®ķà®³à¯Īà®¯à¯ģà®Łà¯Īà®¯", "Ġà¤µà¤¿à¤¯", "Ġà°īà°ªà°ĸà°Ĥà°¡à°ªà±ģ", "Ġà®¨à®¾à®Łà®¾à®ķà¯ģà®®à¯į.", "Ġà¤µà¤¿à¤¯à¤¤", "Ġà°ķà°¨à°¿à°ª", "Ġà®ħà®³à®µà®¿à®²à¯į", "Ġà¤µà¤¿à¤¯à¤¤à¤¨", "Ġà°ķà°¨à°¿à°ªà°¿à°Ĥà°ļà°¿à°Ĥà°¦à°¿.", "Ġà®ħà®¤à®¿à®ķà®®à®¾à®©", "Ġà¤µà¤¿à¤¯à¤¤à¤¨à¤¾à¤®", "Ġà°µà°¿à°§à°Ĥà°Ĺà°¾", "Ġà®ĩà®°à®¾à®£à¯ģà®µà®ļà¯į", "Ġà¤µà¤¿à¤¯à¤¤à¤¨à¤¾à¤®,", "Ġà°¸à°¿à°Ĥà°§à±ģà°¾à°²à±ĭ", "Ġà®ļà¯Ĩà®²à®µ", "Ġà¤«à¤¿à¤²", "Ġà°¸à°¿à°Ĥà°§à±ģà°¾à°²à±ĭà°¯", "Ġà®ļà¯Ĩà®²à®µà®¿à®©", "Ġà¤«à¤¿à¤²à¥Ģ", "Ġà°ħà°Ńà°¿à°µà±ĥà°¦à±įà°§à°¿,", "Ġà®ļà¯Ĩà®²à®µà®¿à®©à®Ļà¯įà®ķà®³", "Ġà¤«à¤¿à¤²à¥Ģà¤ª", "Ġà°Ĩà°¸", "Ġà®ļà¯Ĩà®²à®µà®¿à®©à®Ļà¯įà®ķà®³à¯Īà®¯à¯ģà®®à¯į", "Ġà¤«à¤¿à¤²à¥Ģà¤ªà¥Ģà¤Ĥ", "Ġà°Ĩà°¸à°¿à°¯à°¾à°²à±ĭ", "Ġà®ªà®¾à®²à®¿à®©à®ªà¯į", "Ġà¤«à¤¿à¤²à¥Ģà¤ªà¥Ģà¤Ĥà¤¸,", "Ġà°¸à°Ĥà°¸à±įà°ķà±ĥ", "Ġà®ªà®¾à®ķ", "Ġà¤®à¤²", "Ġà°¸à°Ĥà°¸à±įà°ķà±ĥà°¤à°¿", "Ġà®ªà®¾à®ķà¯ģà®ª", "Ġà¤®à¤²à¥ĩà¤¶", "Ġà°ĩà°¦", "Ġà®ªà®¾à®ķà¯ģà®ªà®¾à®Łà¯ģ", "Ġà¤®à¤²à¥ĩà¤¶à¤¿à¤¯à¤¾", "Ġà°ĩà°¦à±ĩ", "Ġà®ªà®¾à®ķà¯ģà®ªà®¾à®Łà¯ģ,", "Ġà¤ľà¤¾à¤µ", "Ġà°ªà±Ĥ.", "Ġà®ķà¯ģà®", "Ġà¤ľà¤¾à¤µà¤¾", "Ġà°¶à°¤à°¾à°¬à±įà°¦à°Ĥ,", "Ġà®ķà¯ģà®´", "Ġà¤¸à¤ķ", "Ġà®ķà¯ģà®´à®¨à¯įà®¤", "Ġà¤¸à¤ķà¤¤à¤¾", "Ġà°µà°°à±įà°", "Ġà®ķà¯ģà®´à®¨à¯įà®¤à¯Īà®ķà®³", "Ġà¥§à¥¦", "Ġà°µà°°à±įà°§", "Ġà®ķà¯ģà®´à®¨à¯įà®¤à¯Īà®ķà®³à®¿à®©à¯į", "Ġà¤ĺà¥ģ", "Ġà°µà°°à±įà°§à°¿à°²à±įà°²", "Ġà®Ĭà®Łà¯įà®Ł", "Ġà¤ĺà¥ģà¤®à¤¨", "Ġà°µà°°à±įà°§à°¿à°²à±įà°²à°¿à°¨", "Ġà®Ĭà®Łà¯įà®Łà®ļà¯įà®ļ", "Ġà¤ĺà¥ģà¤®à¤¨à¥įà¤¤à¥ģ", "Ġà°¸à°¿à°Ĥà°§à±ģà°²à±ĭ", "Ġà®Ĭà®Łà¯įà®Łà®ļà¯įà®ļà®¤à¯įà®¤", "Ġà¤µà¤Ĥà¤¶à¥ĭà¤Ĥ", "Ġà°¸à°¿à°Ĥà°§à±ģà°²à±ĭà°¯", "Ġà®Ĭà®Łà¯įà®Łà®ļà¯įà®ļà®¤à¯įà®¤à¯ģà®ķà¯į", "Ġà¤ľà¤¾à¤¤à¤¿à¤¯", "Ġà°¨à°¾à°Ĺà°°à°¿à°ķà°¤.", "Ġà®ķà¯ģà®±à¯Ī", "Ġà¤ľà¤¾à¤¤à¤¿à¤¯à¤¤à¤¾", "Ġà°¨à±ģà°Ĥà°¡", "Ġà®ķà¯ģà®±à¯Īà®ª", "Ġà¤¸à¤Ĥà¤ĺà¤ł", "Ġà°¨à±ģà°Ĥà°¡à°¿,", "Ġà®ķà¯ģà®±à¯Īà®ªà®¾à®Łà¯ģ", "Ġà¤¸à¤Ĥà¤ĺà¤łà¤¿à¤¤", "Ġà°Ńà°¾à°°à°¤à°Ĥà°²à±ĭ,", "Ġà®ķà®¾à®±à¯įà®±", "Ġà¤¤à¥ĩà¤ľ", "Ġà°¸à°¾à°®à±įà°°à°¾à°ľà±įà°¯à°Ĥ,", "Ġà®ķà®¾à®±à¯įà®±à¯ģ", "Ġà¤ĺà¥ĭà¤¡à¤¼", "Ġà°µà°¾à°°à°¸", "Ġà®®à®¾à®ļ", "Ġà¤ĺà¥ĭà¤¡à¤¼à¥ĭà¤Ĥ", "Ġà°µà°¾à°°à°¸à°¤à±įà°µ", "Ġà®®à®¾à®ļà¯ģà®ª", "Ġà¤¯à¥ģà¤ķà¥įà¤¤", "Ġà°µà°¾à°°à°¸à°¤à±įà°µà°¾à°¨à°¿à°ķà°¿", "Ġà®®à®¾à®ļà¯ģà®ªà®¾à®Łà¯įà®Łà®¿à®©à¯į", "Ġà¤¬à¤¡à¤¼à¥Ģ", "Ġà°µà°¿à°²", "Ġà®¨à®¿à®²à¯Īà®ķà®³à¯į", "à¤ªà¤¶à¥įà¤ļà¤¿à¤®à¥Ģ", "Ġà°µà°¿à°²à±ģà°µ", "Ġà®İà®¤à®¿à®°à¯į", "Ġà¥§à¥¨à¥¦à¥¬", "Ġà°µà°¿à°²à±ģà°µà±Īà°¨", "Ġà®ķà¯Ĭà®³à¯įà®³", "Ġà¤ĩà¤¸à¥įà¤²à¤¾à¤®à¥Ģ", "Ġà°¸à±ĩà°µ", "Ġà®ķà¯Ĭà®³à¯įà®³à¯ģà®®à¯į", "Ġà¤ĩà¤¸à¥įà¤²à¤¾à¤®à¥Ģà¤ķ", "Ġà°ħà°¶", "à®ªà¯Ĭ", "Ġà¤īà¤¤à¤°", "Ġà°ħà°¶à±ĭà°ķ", "à®ªà¯Ĭà®°à¯ģà®", "Ġà¤ħà¤§à¤¿à¤ķ", "Ġà°ħà°¶à±ĭà°ķà±ģà°¡à±ģ", "à®ªà¯Ĭà®°à¯ģà®³", "Ġà¤¨à¤¿à¤¯", "Ġà°µà°Ĥà°", "à®ªà¯Ĭà®°à¯ģà®³à®¾à®¤à®¾à®°", "Ġà¤¨à¤¿à¤¯à¤Ĥà¤¤à¥įà¤°", "Ġà°µà°Ĥà°¶", "à®ªà¯Ĭà®°à¯ģà®³à®¾à®¤à®¾à®°à®ļà¯į", "Ġà¤¨à¤¿à¤¯à¤Ĥà¤¤à¥įà¤°à¤¿à¤¤", "Ġà°µà°Ĥà°¶à°Ĥà°²à±ĭà°¨à°¿", "Ġà®ļà®µ", "Ġà¤µà¤¿à¤ĺ", "Ġà°°à°¾à°ľà±ģ.", "Ġà®ļà®µà®¾à®²", "Ġà¤µà¤¿à¤ĺà¤Ł", "Ġà°Ĺà±ģà°ª", "Ġà®ļà®µà®¾à®²à¯įà®ķà®³à®¿à®²à¯į", "Ġà¤µà¤¿à¤ĺà¤Łà¤¨", "Ġà°Ĺà±ģà°ªà±įà°¤", "Ġà®ļà®¿à®²à®µà®¾à®ķà¯ģà®®à¯į.", "Ġà¤µà¤¿à¤ĺà¤Łà¤¨à¤ķà¤¾à¤°à¥Ģ", "Ġà°Ĺà±ģà°ªà±įà°¤à±ģà°²", "Ġà®¨à®¿à®²à®®à¯į", "Ġà¤ªà¥Ī", "Ġà°Ĺà±ģà°ªà±įà°¤à±ģà°²à°ķà°¾à°²", "Ġà®ªà¯Ĩà®°à¯ģà®®à¯įà®ªà®²à¯įà®µ", "Ġà¤ªà¥Īà¤®à¤¾à¤¨", "Ġà°Ĺà±ģà°ªà±įà°¤à±ģà°²à°ķà°¾à°²à°Ĥ", "Ġà®ªà¯Ĩà®°à¯ģà®®à¯įà®ªà®²à¯įà®µà®ķà¯Īà®®", "Ġà¤ªà¥Īà¤®à¤¾à¤¨à¥ĩ", "Ġà°¸à±įà°µà°°à±įà°£", "Ġà®ªà¯Ĩà®°à¯ģà®®à¯įà®ªà®²à¯įà®µà®ķà¯Īà®®à¯Īà®¯à¯Ī", "Ġà¤Ĺà¥Ī", "Ġà°¯à±ģà°Ĺ", "Ġà®¨à®¿à®²à®®à®¾à®ķ", "Ġà¤Ĺà¥Īà¤°", "Ġà°¯à±ģà°Ĺà°Ĥ", "Ġà®¨à®¿à®²à®®à®¾à®ķà¯ģà®®à¯į.", "à¤®à¥ģ", "Ġà°Ĺà°¾", "Ġà®¨à®¾à®©", "à¤®à¥ģà¤¸à¥įà¤²à¤¿à¤®", "Ġà°µà°°à±įà°£", "Ġà®¨à®¾à®©à¯įà®ķ", "à¤®à¥ģà¤¸à¥įà¤²à¤¿à¤®à¥ĭà¤Ĥ", "Ġà°µà°°à±įà°£à°¿à°Ĥà°ļ", "Ġà®¨à®¾à®©à¯įà®ķà¯ģ", "Ġà¤¸à¥įà¤µà¤¯", "Ġà°µà°°à±įà°£à°¿à°Ĥà°ļà°¬à°¡", "Ġà®īà®¯à®¿à®°à®¿à®©à®ªà¯į", "Ġà¤¸à¥įà¤µà¤¯à¤Ĥ", "Ġà°µà°°à±įà°£à°¿à°Ĥà°ļà°¬à°¡à°¿à°Ĥà°¦à°¿.", "Ġà®ªà®²à¯įà®µà®ķà¯Īà®®à¯Īà®¯à¯ģà®Łà¯Īà®¯", "Ġà¤°à¥Ģà¤¤", "Ġà°¦à°ķà±įà°·à°¿à°£à°¾à°¨,", "Ġà®ĩà®Łà®Ļà¯įà®ķà®³à¯į", "Ġà¤°à¥Ģà¤¤à¤¿à¤°", "Ġà°ķà°¾à°²à°¾à°²à±įà°²à±ĭ", "Ġà®ĩà®Ļà¯įà®ķà¯ģ", "Ġà¤°à¥Ģà¤¤à¤¿à¤°à¤¿à¤µ", "Ġà°ļà°¾à°³", "Ġà®īà®³à¯įà®³à®©.", "Ġà¤°à¥Ģà¤¤à¤¿à¤°à¤¿à¤µà¤¾à¤ľ", "Ġà°ļà°¾à°³à±ģà°ķ", "Ġà®¨à®¾à®Łà¯įà®Łà®¿à®©à¯į", "Ġà¤°à¥Ģà¤¤à¤¿à¤°à¤¿à¤µà¤¾à¤ľà¥ĭà¤Ĥ", "Ġà°ļà°¾à°³à±ģà°ķà±įà°¯", "Ġà®ªà®°à®ªà¯įà®ªà®³à®µà®¿à®²à¯į", "Ġà¥§à¥©", "Ġà°ļà°¾à°³à±ģà°ķà±įà°¯à±ģà°²à±ģ,", "Ġà¤®à¤Ĥà¤Ĺ", "Ġà°ļà±ĩà°°", "Ġà¤®à¤Ĥà¤Ĺà¥ĭà¤²", "Ġà°ļà±ĩà°°,", "7%", "Ġà¤®à¤Ĥà¤Ĺà¥ĭà¤²à¥ĭà¤Ĥ", "Ġà°ļà±ĭà°³", "à®Ĳà®ķà¯į", "Ġà¤ķà¤¿à¤¯", "Ġà°ļà±ĭà°³à±ģà°²à±ģ,", "Ġà®ķà¯Ĭà®£à¯įà®Łà¯ģà®³à¯įà®³à®©.", "Ġà¤ķà¤¿à¤¯à¥ĩ", "Ġà°ªà°²à±įà°²à°µ", "Ġà®ķà®¾à®Łà¯įà®Łà¯ģà®¯", "Ġà¤µà¤¿à¤¨", "Ġà°ªà°²à±įà°²à°µà±ģà°²à±ģ,", "Ġà®ķà®¾à®Łà¯įà®Łà¯ģà®¯à®¿à®°à¯įà®ķà®³à¯į", "Ġà¤µà¤¿à¤¨à¤¾à¤¶", "Ġà°ªà°¾à°Ĥà°¡", "Ġà®ªà®¾à®°à®®à¯įà®ªà®°à®¿à®¯à®®à®¾à®ķ", "Ġà¤µà¤¿à¤¨à¤¾à¤¶à¤ķà¤¾à¤°à¥Ģ", "Ġà°ªà°¾à°Ĥà°¡à±įà°¯", "Ġà®ļà®ķà®¿à®ªà¯įà®ª", "Ġà°ªà°¾à°Ĥà°¡à±įà°¯à±ģà°²à±ģ", "Ġà®ļà®ķà®¿à®ªà¯įà®ªà¯ģà®¤à¯į", "Ġà°®à±Ĭà°¦à°²à°Ĺà±ģà°µ", "Ġà®¤à®©à¯įà®®à¯Īà®¯à¯ģà®Łà®©à¯į", "Ġà°®à±Ĭà°¦à°²à°Ĺà±ģà°µà°¾à°°à±ģ", "Ġà®ħà®£", "Ġà°µà°¿à°ľ", "Ġà®ħà®£à¯ģà®ķ", "Ġà°µà°¿à°ľà±įà°", "Ġà®ħà®£à¯ģà®ķà®ªà¯įà®ªà®Łà¯įà®Ł", "Ġà°µà°¿à°ľà±įà°ŀ", "Ġà®ħà®£à¯ģà®ķà®ªà¯įà®ªà®Łà¯įà®Łà¯ģ", "Ġà°µà°¿à°ľà±įà°ŀà°¾à°¨", "Ġà®µà®¨à¯įà®¤à¯ģà®³à¯įà®³à®©.", "Ġà°ķà°³à°²à±ģ,", "Ġà®ĩà®¨à¯įà®¤à®ķà¯į", "Ġà°¸à°¾à°°à°¸", "Ġà®ĩà®Łà®Ļà¯įà®ķà®³à®¿à®²à¯į", "Ġà°¸à°¾à°°à°¸à±įà°µà°¤", "Ġà®µà®¾à®´à®¿à®Łà®Ļà¯įà®ķà®³à®¿à®²à¯į", "Ġà°¸à°¾à°°à°¸à±įà°µà°¤à°Ĥ,", "Ġà®Ĩà®¤à®°", "Ġà°Ĺà°£à°¿à°¤", "Ġà®Ĩà®¤à®°à®µ", "Ġà°Ĺà°£à°¿à°¤à°Ĥ,", "Ġà®Ĩà®¤à®°à®µà¯ģ", "Ġà°ĸà°Ĺà±ĭà°³", "Ġà®ªà¯Ĩà®±à¯įà®±à¯ģà®³à¯įà®³à®©.", "Ġà°®à°¤à°®à±ģà°²à±ģ,", "Ġà®ªà¯Ĩà®¯à®°à¯įà®ķ", "Ġà°¤à°¤à±įà°µ", "Ġà®ªà¯Ĩà®¯à®°à¯įà®ķà¯į", "Ġà°¶à°¾à°¸à±įà°¤à±įà°°à°Ĥ", "Ġà®ķà®¾à®°à®£à®®à¯į", "Ġà°®à±Ĭà°¦à°²à±Īà°¨", "Ġà®Ĩà®ķà¯įà®ļ", "Ġà°®à±Ĭà°¦à°²à±Īà°¨à°µà°¿", "Ġà®Ĩà®ķà¯įà®ļà¯ģà®ª", "Ġà°ªà°°à°¿à°", "Ġà®Ĩà®ķà¯įà®ļà¯ģà®ªà¯ĭà®°", "Ġà°ªà°°à°¿à°¢", "Ġà®Ĩà®ķà¯įà®ļà¯ģà®ªà¯ĭà®°à¯įà®Ł", "Ġà°ªà°°à°¿à°¢à°µ", "Ġà®Ĩà®ķà¯įà®ļà¯ģà®ªà¯ĭà®°à¯įà®Łà¯ģ", "Ġà°ªà°°à°¿à°¢à°µà°¿à°²à±įà°²", "Ġà®Ĩà®Ļà¯įà®ķà®¿à®²", "Ġà°ªà°°à°¿à°¢à°µà°¿à°²à±įà°²à°¾à°¯à°¿.", "Ġà®ħà®ķà®°", "Ġà°¸à°¹à°¸à±įà°°à°¾à°¬à±įà°¦à°¿à°²à±ĭ", "Ġà®ħà®ķà®°à®¾à®¤", "Ġà°¤à±ģà°°à±ģà°·", "Ġà®ħà®ķà®°à®¾à®¤à®¿à®¯à®¿à®©à¯į", "Ġà°¤à±ģà°°à±ģà°·à±įà°ķ", "2009", "Ġà°¤à±ģà°°à±ģà°·à±įà°ķà±ģà°²", "Ġà®®à¯Ĥà®©à¯įà®±", "Ġà°¦à°Ĥà°¡", "Ġà®®à¯Ĥà®©à¯įà®±à®¾à®®à¯į", "Ġà°¦à°Ĥà°¡à°¯", "Ġà®ªà®¤à®¿à®ªà¯įà®ª", "Ġà°¦à°Ĥà°¡à°¯à°¾à°¤", "Ġà®ªà®¤à®¿à®ªà¯įà®ªà¯ģ", "Ġà°¦à°Ĥà°¡à°¯à°¾à°¤à±įà°°à°", "Ġà®ªà®¤à®¿à®ªà¯įà®ªà¯ģ)", "Ġà°¦à°Ĥà°¡à°¯à°¾à°¤à±įà°°à°²", "Ġà®ªà®Łà®¿,", "Ġà°¦à°Ĥà°¡à°¯à°¾à°¤à±įà°°à°²à°¤à±ĭ", "Ġ\"à®ĩà®¨à¯įà®¤à®¿à®¯à®¾", "Ġà°¦à°Ĥà°¡à°¯à°¾à°¤à±įà°°à°²à°¤à±ĭ,", "Ġ\"à®ĩà®¨à¯įà®¤à®¿à®¯à®¾\"", "Ġà°¸à±ģà°²", "Ġà®ªà¯Ĩà®¯à®°à®¾à®©à®¤à¯ģ", "Ġà°¸à±ģà°²à±įà°¤", "Ġà®ĩà®²à®¤à¯įà®¤à¯Ģ", "Ġà°¸à±ģà°²à±įà°¤à°¾à°¨à±ģà°²à±ģ,", "Ġà®ĩà®²à®¤à¯įà®¤à¯Ģà®©à¯į", "Ġà°®à±Ĭà°Ĺà°²", "Ġà®ĩà®£à¯įà®Łà®¿à®¯à®¾à®µà®¿à®²à¯į", "Ġà°®à±Ĭà°Ĺà°²à±ģà°²à±ģ", "Ġà®ªà¯Ĩà®±à®ªà¯įà®ªà®Łà¯ģà®ķà®¿à®±à®¤à¯ģ.", "Ġà°¸à±įà°¥à°¾à°¨à°¿à°ķ", "Ġà®ħà®¤à®±à¯įà®ķà¯ģà®ķà¯į", "Ġà°¸à°¾à°®à±įà°°à°¾à°ľà±įà°¯à°¾à°²à±ģ", "Ġà®¤à¯ģà®²", "Ġà°ħà°§à°¿à°ķà°¾à°°à°¾à°¨à±įà°¨à°¿", "Ġà®¤à¯ģà®²à¯įà®²", "Ġà°¨à°¿à°²", "Ġà®¤à¯ģà®²à¯įà®²à®¿à®¯", "Ġà°¨à°¿à°²à°¬", "Ġà®¤à¯ģà®²à¯įà®²à®¿à®¯à®®à®¾à®ķà®¤à¯į", "Ġà°¨à°¿à°²à°¬à±Ĩ", "Ġà®¤à¯Ĩà®°", "Ġà°¨à°¿à°²à°¬à±Ĩà°Łà±įà°Ł", "Ġà®¤à¯Ĩà®°à®¿à®¨à¯įà®¤", "Ġà°¨à°¿à°²à°¬à±Ĩà°Łà±įà°Łà±ģà°ķ", "Ġà®¤à¯Ĩà®°à®¿à®¨à¯įà®¤à®¿à®°à®¾à®¤", "Ġà°¨à°¿à°²à°¬à±Ĩà°Łà±įà°Łà±ģà°ķà±ģà°¨à±įà°¨à°¾à°¯à°¿.", "Ġà®ªà®ķà¯ģà®¤à®¿à®¯à¯Īà®¯à¯ģà®®à¯į", "Ġà°¸à°¹à°¸à±įà°°à°¾à°¬à±įà°¦à°¿", "Ġà®ļà¯ĩà®°à¯įà®¤à¯įà®¤", "Ġà°®à°§à±įà°¯à°²", "Ġà®ļà¯ĩà®°à¯įà®¤à¯įà®¤à¯ģà®ķà¯į", "Ġà°®à°§à±įà°¯à°²,", "Ġà®ĩà®ļà¯įà®ļ", "Ġà°ªà±ĭà°°à±įà°ļ", "Ġà®ĩà®ļà¯įà®ļà¯Ĭ", "Ġà°ªà±ĭà°°à±įà°ļà±ģà°Ĺ", "Ġà®ĩà®ļà¯įà®ļà¯Ĭà®²à¯įà®²", "Ġà°ªà±ĭà°°à±įà°ļà±ģà°Ĺà°²", "Ġà®ĩà®ļà¯įà®ļà¯Ĭà®²à¯įà®²à®¾à®©", "Ġà°ªà±ĭà°°à±įà°ļà±ģà°Ĺà°²à±į,", "Ġ\"à®ĩ", "Ġà°«à±įà°°", "Ġ\"à®ĩà®£à¯įà®Ł", "Ġà°«à±įà°°à°¾à°¨", "Ġ\"à®ĩà®£à¯įà®Łà®¿à®¯à®¾", "Ġà°«à±įà°°à°¾à°¨à±įà°¸", "Ġ\"à®ĩà®£à¯įà®Łà®¿à®¯à®¾\"", "Ġà°«à±įà°°à°¾à°¨à±įà°¸à±į,", "Ġà®ªà¯Ĩà®¯à®°à¯ģà®®à¯į,", "Ġà°ĩà°Ĥà°Ĺà±įà°²à°Ĥà°¡", "Ġà®İà®²", "Ġà°ĩà°Ĥà°Ĺà±įà°²à°Ĥà°¡à±ģ", "Ġà®İà®²à®©", "Ġà°µà±įà°¯à°¾à°ªà°¾à°°à°Ĥ", "Ġà®İà®²à®©à®¿à®¯", "Ġà°ļà±ĩà°¸à±ĩ", "Ġà®µà®¾à®°", "Ġà°¤à°²", "Ġà®µà®¾à®°à¯įà®¤à¯įà®¤", "Ġà°¤à°²à°Ĥà°ª", "Ġà®µà®¾à®°à¯įà®¤à¯įà®¤à¯Īà®¯à®¾à®©", "Ġà°¤à°²à°Ĥà°ªà±ģà°¤à±ĭ", "Ġà®ĩà®£à¯įà®Łà®¿à®¯à®¾", "Ġà°µà°ļà±įà°ļà°¿,", "Ġà°ĩà°ķà±įà°ķà°¡à°¿", "Ġà°ªà°°à°¿à°¸à±įà°", "Ġà°ªà°°à°¿à°¸à±įà°¥", "Ġ(á¼¸Î½Î´Î¯Î±),", "Ġà°ªà°°à°¿à°¸à±įà°¥à°¿à°¤", "Ġà®®à¯Ĭà®´à®¿à®¯à®¿à®©à¯į", "Ġà°ªà°°à°¿à°¸à±įà°¥à°¿à°¤à°¿", "Ġà®ĩà®£à¯įà®Łà¯ĭà®¸à¯į", "Ġà°Ĺà°®", "Ġà°Ĺà°®à°¨", "Ġà°Ĺà°®à°¨à°¿à°Ĥà°ļà°¿,", "Ġà°Ĩà°ķà±įà°°à°®à°¿à°Ĥà°ļ", "Ġà°Ĩà°ķà±įà°°à°®à°¿à°Ĥà°ļà±ģà°ķ", "Ġà°Ĩà°ķà±įà°°à°®à°¿à°Ĥà°ļà±ģà°ķà±ģà°¨à±įà°¨à°¾à°°à±ģ.", "Ġà®ªà®´à¯Īà®¯", "Ġà°ķà°Ĥà°ªà±Ĩà°¨à±Ģà°ª", "Ġà®¹à®¿à®¨à¯įà®¤à¯ģà®·", "Ġà°ķà°Ĥà°ªà±Ĩà°¨à±Ģà°ªà±Ī", "Ġà®¹à®¿à®¨à¯įà®¤à¯ģà®·à¯į", "Ġ1857", "Ġ(à®ħ", "Ġà°µà°¿à°«", "Ġ(à®ħà®ķ", "Ġà°µà°¿à°«à°²", "Ġ(à®ħà®ķà®¾à®®", "Ġà°¤à°¿à°°à±ģà°Ĺ", "Ġ(à®ħà®ķà®¾à®®à®©", "Ġà°¤à°¿à°°à±ģà°Ĺà±ģà°", "Ġ(à®ħà®ķà®¾à®®à®©à®¿à®", "Ġà°¤à°¿à°°à±ģà°Ĺà±ģà°¬", "Ġ(à®ħà®ķà®¾à®®à®©à®¿à®ļ", "Ġà°¤à°¿à°°à±ģà°Ĺà±ģà°¬à°¾à°Łà±ģ", "Ġ(à®ħà®ķà®¾à®®à®©à®¿à®ļà®¿à®¯à®ªà¯į", "Ġ(à°ĩ", "Ġà®®à®¾à®ķ", "Ġ(à°ĩà°¦", "Ġà®®à®¾à®ķà®¾à®£", "Ġ(à°ĩà°¦à±ĩ,", "Ġà®®à®¾à®ķà®¾à®£à®®à¯į", "Ġà°ªà±įà°°à°ĸà±įà°¯", "Ġà®®à®¾à®ķà®¾à®£à®®à¯į)", "Ġà°ªà±įà°°à°ĸà±įà°¯à°¾à°¤", "Ġà®Ĵà®¤à¯įà®¤", "Ġà°ªà±įà°°à°ĸà±įà°¯à°¾à°¤à°¿", "Ġà®µà¯ĩà®°", "Ġà°Ĺà°¾à°Ĥà°ļ", "Ġà®µà¯ĩà®°à¯įà®ļ", "Ġà°Ĺà°¾à°Ĥà°ļà°¿à°¨", "Ġà®µà¯ĩà®°à¯įà®ļà¯į", "Ġà°ªà±įà°°à°¥", "Ġà®ļà®¿à®¨à¯įà®¤à¯ģ,", "Ġà°ªà±įà°°à°¥à°®", "Ġà°¸à°®à°°à°Ĥ)", "Ġ'à®Ĩ", "Ġà°¤à°°à±ģà°µà°¾à°¤,", "Ġ'à®Ĩà®±", "Ġà°Ńà°¾à°Ĺà°Ĥ", "Ġ'à®Ĩà®±à®¿à®²à¯į", "Ġà°¸à°¾à°®à±įà°°à°¾à°ľà±įà°¯à°Ĥ", "Ġ'à®Ĩà®±à®¿à®²à¯į'", "Ġà°ľà°¾à°¤à°¿à°ª", "Ġà®ªà¯Ĩà®±à®ªà¯įà®ªà®Łà¯įà®Łà®¤à¯ģ.", "Ġà°ľà°¾à°¤à°¿à°ªà°¿à°¤", "Ġà®Ĩà®±à¯įà®±à¯Īà®ķà¯į", "Ġà°¨à°¾à°¯à°ķà°¤à±įà°µà°Ĥà°²à±ĭ", "Ġà®ķà¯ģà®±à®¿à®ªà¯įà®ªà®¾à®ķ,", "Ġà°¸à±ģà°¦", "Ġà®īà®Ł", "Ġà°¸à±ģà°¦à±Ģ", "Ġà®īà®Łà¯įà®ķ", "Ġà°¸à±ģà°¦à±Ģà°°à±įà°", "Ġà®īà®Łà¯įà®ķà®°à¯ģà®¤à¯įà®¤", "Ġà°¸à±ģà°¦à±Ģà°°à±įà°ĺ", "Ġà®īà®Łà¯įà®ķà®°à¯ģà®¤à¯įà®¤à®¾à®ķ", "Ġà°«à°²", "Ġà®Ĩà®±à¯įà®±à®¿à®©à¯į", "Ġà°«à°²à°¿à°¤", "Ġà®¨à®©à¯įà®±", "Ġà°«à°²à°¿à°¤à°Ĥà°Ĺà°¾", "Ġà®¨à®©à¯įà®±à®¾à®ķà®ķà¯į", "Ġà°Ĩà°Ĺà°·à±įà°Ł", "Ġà®ķà¯ģà®Łà®¿à®¯à®®à®°", "Ġà°Ĩà°Ĺà°·à±įà°Łà±ģ", "Ġà®ķà¯ģà®Łà®¿à®¯à®®à®°à®ªà¯įà®ªà®Łà¯įà®Ł", "Ġà®ªà®£à¯įà®Łà¯Īà®¯", "Ġà°¸à±įà°µà°¤", "Ġà®ķà®¿à®°à¯ĩà®ķà¯įà®ķà®°à¯įà®ķà®³à¯į", "Ġà°¸à±įà°µà°¤à°Ĥà°¤", "Ġà®ĩà®¨à¯įà®¤à®¿à®¯à®°à¯įà®ķà®³", "Ġà°¸à±įà°µà°¤à°Ĥà°¤à±įà°°à°Ĥ", "Ġà®ĩà®¨à¯įà®¤à®¿à®¯à®°à¯įà®ķà®³à¯Ī", "Ġà°¸à°¿à°¦à±įà°§à°¿à°Ĥà°ļà°¿à°Ĥà°¦à°¿.", "Ġà®ĩà®£à¯įà®Łà¯ĭà®¯", "Ġà°¸à°°à±įà°µà°¸", "Ġà®ĩà®£à¯įà®Łà¯ĭà®¯à¯į", "Ġà°¸à°°à±įà°µà°¸à°¤à±įà°¤", "Ġ(á¼¸Î½Î´Î¿", "Ġà°¸à°°à±įà°µà°¸à°¤à±įà°¤à°¾à°ķ", "Ġ(á¼¸Î½Î´Î¿Î", "Ġà°¸à°°à±įà°µà°¸à°¤à±įà°¤à°¾à°ķ,", "Ġ(á¼¸Î½Î´Î¿Î¯", "Ġà°ªà±įà°°à°ľà°¾à°¸à±įà°µà°¾à°®à±įà°¯,", "Ġ(á¼¸Î½Î´Î¿Î¯)", "Ġà°ıà°°à±įà°ªà°¡à°¿à°Ĥà°¦à°¿.", "Ġà®ķà¯ģà®±à®¿à®ªà¯įà®ªà®¿à®Łà¯įà®Łà®©à®°à¯į.", "Ġà°®à°¤à°¾à°²à°¤à±ĭ", "Ġà®ªà¯Ĩà®¯à®°à¯įà®ªà¯įà®ª", "Ġà°ķà±Ĥà°¡à°¿à°¨", "Ġà®ªà¯Ĩà®¯à®°à¯įà®ªà¯įà®ªà®¾à®©à®¤à¯ģ", "ĠâĢĵ", "Ġ\"à®ļ", "Ġà°ľà°¾à°¤à°¿,", "Ġ\"à®ļà®¿à®¨à¯įà®¤à¯ģ", "Ġà°ªà°°à°®à±Īà°¨", "Ġà®®à®ķà¯įà®ķà®³à¯į\"", "Ġà°¸à°Ĥà°ĺà°°à±įà°·à°£", "Ġà®İà®©à¯įà®ªà®¤à®¾à®ķà¯ģà®®à¯į.", "Ġà°¸à°Ĥà°ĺà°°à±įà°·à°£à°²à°¨à±ģ", "Ġà°ļà°µà°¿à°ļ", "Ġà°ļà°µà°¿à°ļà±Ĥà°", "Ġà°ļà°µà°¿à°ļà±Ĥà°¸à°¿à°Ĥà°¦à°¿.", "Ġà°²à±Įà°ķ", "Ġà°²à±Įà°ķà°¿à°ķ,", "Ġà°ªà±įà°°à°¾à°ľ", "Ġà°ªà±įà°°à°¾à°ľà°¾à°¸à±įà°µà°¾à°®à±įà°¯", "Ġà°²à°ķà±įà°·à°£à°¾à°¨à±įà°¨à°¿", "Ġà°ķà°¾à°ª", "Ġà°ķà°¾à°ªà°¾à°¡", "Ġà°ķà°¾à°ªà°¾à°¡à±ģà°ķà±ģà°Ĥà°Ł", "Ġà°ķà°¾à°ªà°¾à°¡à±ģà°ķà±ģà°Ĥà°Łà±Ĥà°¨", "Ġà®ĩà®¤à®¿à®ķ", "Ġà°ķà°¾à°ªà°¾à°¡à±ģà°ķà±ģà°Ĥà°Łà±Ĥà°¨à±ĩ", "Ġà®ĩà®¤à®¿à®ķà®¾à®ļ", "Ġ1975,", "Ġà®ĩà®¤à®¿à®ķà®¾à®ļà®®à¯į", "Ġà°®à°§à±įà°¯à°ķà°¾à°²", "Ġà®ħà®°à®ļà®¿à®¯", "Ġà°®à°§à±įà°¯à°ķà°¾à°²à°Ĥà°²à±ĭ", "Ġà®ħà®°à®ļà®¿à®¯à®²", "Ġà°ħà°ªà±įà°ªà°Łà°¿", "Ġà®ħà®°à®ļà®¿à®¯à®²à®®à¯Īà®ªà¯įà®ª", "Ġà°ĩà°Ĥà°¦à°¿à°°", "Ġà®ħà®°à®ļà®¿à®¯à®²à®®à¯Īà®ªà¯įà®ªà¯ģ", "Ġà°ĩà°Ĥà°¦à°¿à°°à°¾", "Ġà®ĩà®°à®£à¯įà®Łà®¿à®²", "Ġà°µà°¿à°§à°¿à°Ĥà°ļà°¿à°¨", "Ġà®ĩà®°à®£à¯įà®Łà®¿à®²à¯ģà®®", "Ġà°İà°®", "Ġà®ĩà®°à®£à¯įà®Łà®¿à®²à¯ģà®®à¯ĩ", "Ġà°İà°®à°°à±įà°ľ", "Ġà®ķà¯ģà®±à®¿à®ªà¯įà®ªà®¿à®Łà®ªà¯įà®ªà®Łà¯įà®Ł", "Ġà°İà°®à°°à±įà°ľà±Ĩà°¨", "Ġà®ķà¯ģà®±à®¿à®ªà¯įà®ªà®¿à®Łà®ªà¯įà®ªà®Łà¯įà®Łà¯ģà®³à¯įà®³à®¤à¯ģ.", "Ġà°İà°®à°°à±įà°ľà±Ĩà°¨à±įà°¸", "Ġà®®à¯Ĭà®´à®¿à®ķà®³à®¿à®²à¯į", "Ġà°İà°®à°°à±įà°ľà±Ĩà°¨à±įà°¸à±Ģ", "Ġà®µà®°à®²à®¾à®±à¯įà®±à¯ģ", "Ġà°ªà±Į", "Ġà®ªà¯Ĩà®¯à®°à®¾à®©", "Ġà°ªà±Įà°°", "Ġà®ªà®°à®¤à®µà®°à¯įà®·à®¤à¯įà®¤à®¿à®©à¯į", "Ġà°¹à°ķà±įà°ķ", "Ġà®µà®Łà®¿à®µà®®à®¾à®ķ", "Ġà°¹à°ķà±įà°ķà±ģà°²à°ķà±ģ", "Ġà®¨à®Łà¯ģà®ªà¯į", "Ġà°Ńà°Ĥà°Ĺ", "Ġà®ªà¯Ĥà®°à¯įà®µà¯Ģà®ķà®ªà¯į", "Ġà°Ńà°Ĥà°Ĺà°Ĥ", "Ġà®ªà¯Ĩà®¯à®°à®¾à®ķ", "Ġà°µà°¾à°Łà°¿à°²à±įà°²", "Ġà®ªà¯Ĩà®±à¯įà®±à¯ģà®³à¯įà®³à®¤à¯ģ.", "Ġà°µà°¾à°Łà°¿à°²à±įà°²à°¿à°Ĥà°¦à°¿.", "Ġà®ªà®°à®¤à®µà®°à¯įà®·à®¾", "Ġà°¦à±ĩà°¶à°¾à°¨à°¿à°ķà°¿", "Ġà®īà®£à¯įà®®à¯Īà®¯", "Ġà°ļà±Īà°¨à°¾à°¤à±ĭ", "Ġà®īà®£à¯įà®®à¯Īà®¯à®¿à®²à¯į", "Ġà°¸à°°à°¿à°¹à°¦à±įà°¦à±ģ", "Ġà®¹à®¿à®¨à¯įà®¤à¯ģà®¸à¯įà®¤à®¾à®©à¯į", "Ġà°µà°¿à°µà°¾à°¦", "Ġà°µà°¿à°µà°¾à°¦à°Ĥ", "Ġ1962", "Ġà°¯à±ģà°¦à±įà°§à°Ĥ", "Ġà°ľà°°à°¿à°Ĺà°¿à°Ĥà°¦à°¿.", "Ġà°ªà°¾à°ķà°¿à°¸à±įà°¤à°¾à°¨à±įà°¤", "Ġà°ªà°¾à°ķà°¿à°¸à±įà°¤à°¾à°¨à±įà°¤à±ĭ", "Ġ1965,", "Ġ1971", "à°²à±ĭà°¨à±ģ", "Ġà°¯à±ģà°¦à±įà°§à°¾à°²à±ģ", "Ġà°ľà°°à°¿à°Ĺà°¾à°¯à°¿.", "Ġà°ħà°²", "Ġà®®à¯Ĭà®´à®¿à®ªà¯į", "Ġà°ħà°²à±Ģà°¨", "Ġà®ªà¯Ĩà®¯à®°à¯į", "Ġà°ħà°²à±Ģà°¨à±ĭà°¦", "Ġà°ħà°²à±Ģà°¨à±ĭà°¦à±įà°¯", "Ġà®¨à¯Ĥà®±à¯įà®±à®¾à®£à¯įà®Łà¯ģ", "Ġà°ħà°²à±Ģà°¨à±ĭà°¦à±įà°¯à°®", "Ġà®ªà®¿à®°à®ª", "Ġà°ħà°²à±Ģà°¨à±ĭà°¦à±įà°¯à°®à°Ĥà°²à±ĭ", "Ġà®ªà®¿à®°à®ªà®²", "Ġà°¸à±įà°¥à°¾à°ª", "Ġà®ªà®¿à®°à®ªà®²à®®à®¾à®©à®¤à¯ģ.", "Ġà°¸à±įà°¥à°¾à°ªà°ķ", "Ġà®ļà®ķà®¾à®ªà¯įà®¤à®¤à¯įà®¤à®¿à®²à¯į", "Ġà°¸à°Ńà±įà°¯à±ģà°°", "Ġà®ªà®°à®µà®²à®¾à®ķ", "Ġà°¸à°Ńà±įà°¯à±ģà°°à°¾à°²à±ģ.", "Ġà®ªà®°à®µà®²à®¾à®ķà®ªà¯į", "Ġ1974", "Ġà®¹à®¿à®¨à¯įà®¤à¯ģà®¸à¯įà®¤à®¾à®©", "à°²à±ĭ,", "Ġà®¹à®¿à®¨à¯įà®¤à¯ģà®¸à¯įà®¤à®¾à®©à®¿à®©à¯į", "Ġà°ħà°£à±ģ", "Ġà®ªà¯Ĭà®°à¯ģà®³à®¾à®©à®¤à¯ģ", "Ġà°ªà°°à±Ģà°ķà±įà°·à°¨à±ģ", "Ġà®µà¯ĩà®±à¯ģà®ªà®Łà¯įà®Łà¯ģ", "Ġ1998", "Ġà®µà®¨à¯įà®¤à¯ģà®³à¯įà®³à®¤à¯ģ.", "Ġà°®à°°à±ĭ", "Ġà®ķà®£à¯įà®Łà®¤à¯įà®¤à¯Ī", "Ġà°Ĳà°¦", "Ġ(à®¤à®±à¯įà®ķ", "Ġà°Ĳà°¦à±ģ", "Ġ(à®¤à®±à¯įà®ķà®¾à®²", "Ġà°ªà°°à±Ģà°ķà±įà°·à°²à±ģ", "Ġà®ªà®¾à®ķà¯įà®ķà®¿à®¤à¯įà®¤à®¾à®©à¯į)", "Ġà°¸à°Ĥà°¸à±įà°ķà°°à°£à°²à°¤à±ĭ", "Ġà®®à¯ģà®´à¯ģ", "Ġà°ħà°¤à°¿à°µ", "Ġà®ĩà®¨à¯įà®¤à®¿à®¯à®¾à®µà¯Īà®¯à¯ģà®®à¯į", "Ġà°ħà°¤à°¿à°µà±ĩà°Ĺà°Ĥà°Ĺà°¾", "Ġà®ªà®¯à®©à¯įà®ªà®Łà¯ģà®¤à¯įà®¤à®ªà¯įà®ªà®Łà¯įà®Łà¯ģà®³à¯įà®³à®¤à¯ģ.", "Ġà°®à°¾à°°à°¿à°Ĥà°¦à°¿.", "Ġà®ĩà®¨à¯įà®¤à®¿à®¯à®¾à®µà®¾à®©à®¤à¯ģ", "Ġà°ªà±įà°°à°Ńà±ģà°¤à±įà°µà°Ĥ,", "Ġà®¨à®¾à®ķà®°à®¿à®ķà®¤à¯įà®¤à®¿à®©à¯į", "Ġà°°à°¾à°ľà°ķà±Ģà°¯à°¾à°²à±ģ", "Ġà®¤à¯Ĭà®Łà¯įà®Łà®¿à®²", "Ġ(à°Ńà°¾à°°à°¤", "Ġà®¤à¯Ĭà®Łà¯įà®Łà®¿à®²à¯įà®ķà®³à®¿à®²à¯į", "Ġà°µà±įà°¯à°µà°¸à±įà°¥)", "Ġà®Ĵà®©à¯įà®±à®¾à®ķà®ķà¯į", "Ġà°ħà°µà°¤", "Ġà®ķà®°à¯ģà®¤à®ªà¯įà®ªà®Łà¯ģà®ķà®¿à®±à®¤à¯ģ.", "Ġà°ħà°µà°¤à°°", "Ġà®ĵà®®", "Ġà°ħà°µà°¤à°°à°¿à°Ĥà°ļà°¿à°Ĥà°¦à°¿.", "Ġà®ĵà®®à¯ĭ", "Ġà°²à±Ĩà°ľ", "Ġà®ļà¯Ĩà®ªà¯įà®ªà®¿à®¯", "Ġà°²à±Ĩà°ľà°¿à°¸à±įà°", "Ġà®ļà¯Ĩà®ªà¯įà®ªà®¿à®¯à®©", "Ġà°²à±Ĩà°ľà°¿à°¸à±įà°²", "Ġà®ļà¯Ĩà®ªà¯įà®ªà®¿à®¯à®©à¯įà®ķà®³à¯į", "Ġà°²à±Ĩà°ľà°¿à°¸à±įà°²à±ĩà°ļ", "Ġà®İà®©à®ªà¯įà®ªà®Ł", "Ġà°²à±Ĩà°ľà°¿à°¸à±įà°²à±ĩà°ļà°°à±į,", "Ġà®İà®©à®ªà¯įà®ªà®Łà¯ģà®ª", "Ġà°¨à±įà°¯à°¾à°¯à°µà±įà°¯à°µà°¸à±įà°¥,", "Ġà®İà®©à®ªà¯įà®ªà®Łà¯ģà®ªà®µà®°à¯įà®ķà®³à¯į", "Ġà°µà±įà°¯à°µà°¸à±įà°¥à°²", "Ġà®ķà®£à¯įà®Łà®¤à¯įà®¤à®¿à®±à¯įà®ķà¯ģ", "Ġà°ħà°®", "Ġà®µà®°à¯ģà®ķ", "Ġà°ħà°®à°²", "Ġà®µà®°à¯ģà®ķà¯Ī", "Ġà°ħà°®à°²à°µ", "Ġà®ªà¯ģà®°à®¿à®¨à¯įà®¤", "Ġà°ħà°®à°²à°µà±ģà°¤", "Ġà®ªà¯ģà®°à®¿à®¨à¯įà®¤à®©à®°à¯į.", "Ġà°ħà°®à°²à°µà±ģà°¤à±ģà°Ĥà°¦à°¿.", "Ġà®µà®³à®°à¯įà®ļà¯įà®ļà®¿", "Ġà°¦à±ĩà°¶à°¾à°§", "Ġà®ħà®Łà¯Īà®¨à¯įà®¤à®¿à®°à¯ģà®¨à¯įà®¤", "Ġà°¦à±ĩà°¶à°¾à°§à°¿à°¨", "Ġà®ħà®Łà¯Īà®¨à¯įà®¤à®¿à®°à¯ģà®¨à¯įà®¤à®©à®°à¯į.", "Ġà°¦à±ĩà°¶à°¾à°§à°¿à°¨à±ĩà°¤", "Ġà®ħà®±à®¿à®¯à®ªà¯įà®ªà®Łà¯įà®Ł", "Ġà°ªà°¦à°µà°¿", "Ġà®®à®©à®¿à®¤à®°à¯įà®ķà®³", "Ġà°ħà°²à°Ĥà°ķ", "Ġà®®à®©à®¿à®¤à®°à¯įà®ķà®³à®¿à®©à¯į", "Ġà°ħà°²à°Ĥà°ķà°¾à°°", "Ġà®İà®ŀ", "Ġà°ªà±įà°°à°¾à°¯", "Ġà®İà®ŀà¯įà®ļà®¿à®¯", "Ġà°ªà±įà°°à°¾à°¯à°®à±Īà°¨", "Ġà°ªà±įà°°à°¾à°¯à°®à±Īà°¨à°¦à°¿.", "Ġà°°à°¾à°·à±įà°Łà±įà°°à°ªà°¤à°¿,", "Ġà®ķà®¾à®²à®®à®¿à®Łà®ªà¯įà®ªà®Łà¯ģà®ķà®¿à®©à¯įà®±à®©.", "Ġà°īà°ªà°°", "Ġà°īà°ªà°°à°¾à°", "Ġà®Ĩà®£à¯įà®Łà¯ģà®ķà¯įà®ķà¯ģà®ªà¯į", "Ġà°īà°ªà°°à°¾à°·à±įà°Ł", "Ġà®īà®£à®µ", "Ġà°īà°ªà°°à°¾à°·à±įà°Łà±įà°°à°ª", "Ġà®īà®£à®µà¯ģà®ªà¯į", "Ġà°īà°ªà°°à°¾à°·à±įà°Łà±įà°°à°ªà°¤", "Ġà®ªà®¯à®¿à®°à¯įà®ķà®³à¯į", "Ġà°īà°ªà°°à°¾à°·à±įà°Łà±įà°°à°ªà°¤à±ģà°²à±ģ", "Ġà®µà®¿à®²à®Ļà¯įà®ķ", "Ġà°ªà°°à±ĭ", "Ġà®µà®¿à®²à®Ļà¯įà®ķà¯ģà®ķà®³à¯į", "Ġà°ªà°°à±ĭà°ķà±įà°·", "Ġà®ķà¯Ĭà®²à¯įà®²", "Ġà°ªà°¦à±įà°§à°¤", "Ġà®ķà¯Ĭà®²à¯įà®²à¯Īà®ªà¯įà®ªà®Łà¯ģà®¤à¯įà®¤à®ªà¯įà®ªà®Łà¯įà®Ł", "Ġà°ªà°¦à±įà°§à°¤à°¿à°²à±ĭ", "Ġà®ķà¯Ĭà®²à¯įà®²à¯Īà®ªà¯įà®ªà®Łà¯ģà®¤à¯įà®¤à®ªà¯įà®ªà®Łà¯įà®Łà®¤à®±à¯įà®ķ", "Ġà°ķà°¾à°²à±ĩà°ľà°¿", "Ġà®ķà¯Ĭà®²à¯įà®²à¯Īà®ªà¯įà®ªà®Łà¯ģà®¤à¯įà®¤à®ªà¯įà®ªà®Łà¯įà®Łà®¤à®±à¯įà®ķà®¾à®©", "Ġà®Ĩà®¤à®¾à®°à®Ļà¯įà®ķà®³à¯į,", "Ġà°¸à°Ĥà°µà°¤à±įà°¸à°°à°¾à°²", "Ġà®ķà®Łà¯įà®Łà®Łà®Ļà¯įà®ķà®³à®¿à®©à¯į", "Ġà°ķà°¾à°²à°ªà°°", "Ġà®īà®°à¯ģà®µà®¾à®ķà¯įà®ķà®®à¯į,", "Ġà°ķà°¾à°²à°ªà°°à°¿à°®", "Ġà®®à®¿à®ķà¯ģ", "Ġà°ķà°¾à°²à°ªà°°à°¿à°®à°¿à°¤", "Ġà®īà®±à¯įà®ªà®¤à¯įà®¤à®¿à®ªà¯į", "Ġà°ķà°¾à°²à°ªà°°à°¿à°®à°¿à°¤à°¿à°ķà°¿", "Ġà®ªà¯Ĭà®°à¯ģà®Łà¯įà®ķà®³à¯Ī", "Ġà°ķà°¾à°°à±įà°¯à°¨", "Ġà®ªà¯Ĭà®°à¯ģà®Łà¯įà®ķà®³à¯Īà®ļà¯į", "Ġà°ķà°¾à°°à±įà°¯à°¨à°¿à°°", "Ġà®ļà¯ĩà®®", "Ġà°ķà°¾à°°à±įà°¯à°¨à°¿à°°à±įà°µ", "Ġà®ļà¯ĩà®®à®¿à®¤à¯įà®¤à¯ģ", "Ġà°ķà°¾à°°à±įà°¯à°¨à°¿à°°à±įà°µà°¾à°¹", "Ġà®µà¯Īà®ķà¯įà®ķà¯ģà®®à¯į", "Ġà°ķà°¾à°°à±įà°¯à°¨à°¿à°°à±įà°µà°¾à°¹à°ķ", "Ġà®®à¯Ĩ", "Ġà°ħà°§à°¿à°ķà°¾à°°à°¾à°²à±ģ", "Ġà®®à¯Ĩà®ķà®°", "Ġà°ªà°¦à°µ", "Ġà®®à¯Ĩà®ķà®°à¯įà®ķ", "Ġà°ªà°¦à°µà°¿.", "Ġà®®à¯Ĩà®ķà®°à¯įà®ķà®°à¯į", "Ġà°²à±ĭà°ķà±įâĢĮà°¸à°Ńà°²à±ĭ", "Ġà®ªà®²à¯Ĥ", "Ġà°¸à°Ĥà°ĸà±įà°¯à°¾à°ķ", "Ġà®ªà®²à¯Ĥà®ļ", "Ġà°¸à°Ĥà°ķà±Ģà°°à±įà°£à°Ĥ", "Ġà®ªà®²à¯Ĥà®ļà®¿à®", "Ġà°ªà±įà°°à°§à°¾à°¨à°®à°Ĥà°¤à±įà°°à°¿à°¨à°¿", "Ġà®ªà®²à¯Ĥà®ļà®¿à®¸à¯įà®¤", "Ġà°İà°¨à±įà°¨à±ģà°ķà±ģà°Ĥà°Ł", "Ġà®ªà®²à¯Ĥà®ļà®¿à®¸à¯įà®¤à®¾à®©à¯į", "Ġà°İà°¨à±įà°¨à±ģà°ķà±ģà°Ĥà°Łà±ģà°Ĥà°¦à°¿.", "Ġà®ķà®³", "Ġà°¸à°²", "Ġà®ķà®³à®Ļà¯įà®ķà®³à®¿à®²à¯į", "Ġà°¸à°²à°¹", "Ġà®¤à¯ĭà®©à¯įà®±à¯ģà®ķà®¿à®©à¯įà®±à®©.", "Ġà°¸à°²à°¹à°¾", "Ġà®µà®³à®°à¯įà®ļà¯įà®ļà®¿à®¯à®Łà¯Īà®¨à¯įà®¤", "Ġà°®à±ĩà°", "Ġà®µà®³à®°à¯įà®ļà¯įà®ļà®¿à®¯à®Łà¯Īà®¨à¯įà®¤à®©.", "Ġà°®à±ĩà°°à°ķ", "Ġà®¤à¯Ĩà®±à¯įà®ķà®¾à®ļà®¿à®¯à®¾à®µà®¿à®©à¯į", "Ġà°®à±ĩà°°à°ķà±ģ,", "Ġà®¨à®ķà®°à¯įà®ªà¯įà®ªà¯ģà®±à®ªà¯į", "Ġà°°à°¾à°·à±įà°Łà±įà°°à°ªà°¤", "900", "Ġà°°à°¾à°·à±įà°Łà±įà°°à°ªà°¤à°¿à°ļà±ĩ", "Ġà®ķà®¾à®²à®Ļà¯įà®ķà®³à¯ģà®ķà¯įà®ķà¯ģ", "Ġà°¨à°¿à°¯à°®à°¿à°Ĥà°ļà°¬à°¡", "Ġà®ļà¯Ĩà®´", "Ġà°¨à°¿à°¯à°®à°¿à°Ĥà°ļà°¬à°¡à±įà°¡", "Ġà®ļà¯Ĩà®´à®¿à®ªà¯įà®ª", "Ġà°®à°Ĥà°¤à±įà°°à°¿à°µ", "Ġà®ļà¯Ĩà®´à®¿à®ªà¯įà®ªà®Łà¯Īà®¨à¯įà®¤", "Ġà°®à°Ĥà°¤à±įà°°à°¿à°µà°°à±įà°Ĺ", "Ġà®ļà¯Ĩà®´à®¿à®ªà¯įà®ªà®Łà¯Īà®¨à¯įà®¤à®¤à¯ģ.", "Ġà°®à°Ĥà°¤à±įà°°à°¿à°µà°°à±įà°Ĺà°Ĥ", "Ġà®®à¯Ĭà®ķ", "Ġà°ªà±įà°°à°§à°¾à°¨à°®à°Ĥà°¤à±įà°°à°¿à°ķà°¿", "Ġà®®à¯Ĭà®ķà¯Ĩ", "Ġà°µà°¿à°§à°¿", "Ġà®®à¯Ĭà®ķà¯Ĩà®ŀà¯įà®ļ", "Ġà°¨à°¿à°°à±įà°µà°¹à°£à°²à±ĭ", "Ġà®®à¯Ĭà®ķà¯Ĩà®ŀà¯įà®ļà®¤", "Ġà°¸à°¹à°¾à°¯à°ķ", "Ġà®®à¯Ĭà®ķà¯Ĩà®ŀà¯įà®ļà®¤à®¾à®°", "Ġà°¸à°¹à°¾à°¯à°ķà°¾à°°à°¿à°Ĺà°¾", "Ġà®®à¯Ĭà®ķà¯Ĩà®ŀà¯įà®ļà®¤à®¾à®°à¯ĭ", "Ġà°®à°Ĥà°¤à±įà°°à±ģà°²", "Ġà®®à¯Ĭà®ķà¯Ĩà®ŀà¯įà®ļà®¤à®¾à®°à¯ĭ,", "Ġà°®à°Ĥà°¤à±įà°°à±ģà°²à°ļà±ĩ", "Ġà®ħà®°à®ªà¯įà®ª", "Ġà°ªà±įà°°à°®à°¾à°£", "Ġà®ħà®°à®ªà¯įà®ªà®¾,", "Ġà°¸à±įà°µà±Ģà°ķ", "Ġà®¤à¯ĭà®²", "Ġà°¸à±įà°µà±Ģà°ķà°¾à°°à°Ĥ", "Ġà®¤à¯ĭà®²à®¾à®µ", "Ġà°ļà±ĩà°¯à°¿à°¸à±įà°¤à°¾à°°à±ģ.", "Ġà®¤à¯ĭà®²à®¾à®µà®¿à®°", "Ġà°¦à±įà°µà°¿à°¸", "Ġà®¤à¯ĭà®²à®¾à®µà®¿à®°à®¾,", "Ġà°¦à±įà°µà°¿à°¸à°Ń", "Ġà®ķà®¾à®³", "Ġà°¦à±įà°µà°¿à°¸à°Ńà°¾", "Ġà®ķà®¾à®³à®¿à®ª", "Ġà°ªà°¦à±įà°§à°¤à°¿", "Ġà®ķà®¾à®³à®¿à®ªà®Ļà¯įà®ķ", "Ġà°İà°Ĺà±ģà°µ", "Ġà®ķà®¾à®³à®¿à®ªà®Ļà¯įà®ķà®¾à®©à¯į", "Ġà°ħà°¨à°¿,", "Ġà®¨à®ķà®°à®Ļà¯įà®ķà®³à¯Ī", "Ġà°¦à°¿à°Ĺ", "Ġà®¨à®ķà®°à®Ļà¯įà®ķà®³à¯Īà®ļà¯į", "Ġà°¦à°¿à°Ĺà±ģà°µ", "Ġà®ļà¯ģà®±", "Ġà°ħà°Ĥà°Łà°¾à°°à±ģ.", "Ġà®ļà¯ģà®±à¯įà®±", "Ġà°¸à°Ńà±įà°¯à±ģà°²à°¨à±ģ", "Ġà®ļà¯ģà®±à¯įà®±à®¿", "Ġà°ªà±įà°°à°¤à±įà°¯", "Ġà®ļà¯Ĭà®±à¯įà®ª", "Ġà°ªà±įà°°à°¤à±įà°¯à°ķà±įà°·", "Ġà®ħà®³à®µà¯ģ", "Ġà°ªà±įà°°à°¤à±įà°¯à°ķà±įà°·à°Ĥà°Ĺà°¾", "Ġà®īà®£à®µà¯Ī", "Ġà°İà°¨à±įà°¨à±ģà°ķà±ģà°Ĥà°Łà°¾à°°à±ģ.", "Ġà®īà®£à®µà¯Īà®ķà¯į", "Ġà°ķà°¾à°²à±ĩà°ľà±Ģ", "Ġà®īà®¯à®¿à®°à¯į", "Ġà°¨à±įà°¯à°¾à°¯à°µà±įà°¯à°µà°¸à±įà°¥à°²à±ĭ", "Ġà®µà®¾à®´à¯įà®¨à¯įà®¤", "Ġà°ªà°°à°®à±ĭ", "Ġà®µà®¾à®´à¯įà®¨à¯įà®¤à®©à®°à¯į.", "Ġà°ªà°°à°®à±ĭà°¨à±įà°¨", "Ġà®ªà¯Ĭà®°à¯ģà®Łà¯įà®ķà®³à®¿à®©à¯į", "Ġà°ªà°°à°®à±ĭà°¨à±įà°¨à°¤", "Ġà®īà®±à¯įà®ªà®¤à¯įà®¤à®¿", "Ġà°¨à±įà°¯à°¾à°¯à°¸à±įà°¥à°¾à°¨", "Ġà®µà®ķà¯Ī", "Ġà°¨à±įà°¯à°¾à°¯à°¸à±įà°¥à°¾à°¨à°®à±Īà°¨", "Ġà®µà®ķà¯Īà®ªà¯įà®ªà®Łà¯įà®Ł", "Ġà°¸à±ģà°ª", "Ġà®µà®£à®¿à®ķà®®à¯į", "Ġà°¸à±ģà°ªà±įà°°à±Ģ", "Ġà®Ĩà®ķà®¿à®¯à®µà®±à¯įà®±à®¿à®²à¯į", "Ġà°¸à±ģà°ªà±įà°°à±Ģà°Ĥ", "Ġà®ĩà®¨à¯įà®¨à®¾à®ķà®°à®¿à®ķ", "Ġà°ķà±ĭà°°à±įà°Łà±ģ,", "Ġà®ĩà®¨à¯įà®¨à®¾à®ķà®°à®¿à®ķà®®à®¾à®©à®¤à¯ģ", "Ġà°ħà°ªà±įà°ªà°¿à°²", "Ġà®ķà®Łà¯ģà®®", "Ġà°ħà°ªà±įà°ªà°¿à°²à±ĩà°", "Ġà®ķà®Łà¯ģà®®à¯Īà®¯", "Ġà°ħà°ªà±įà°ªà°¿à°²à±ĩà°Łà±į", "Ġà®ķà®Łà¯ģà®®à¯Īà®¯à®¾à®ķ", "Ġà°ķà±ĭà°°à±įà°Łà±ģà°²à±ģ,", "Ġà®Īà®Łà¯ģà®ªà®Łà¯įà®Łà®¿à®°à¯ģà®¨à¯įà®¤à®¤à¯ģ.", "Ġà°¹à±Īà°ķ", "Ġ-", "Ġà°¹à±Īà°ķà±ĭ", "Ġà°¹à±Īà°ķà±ĭà°°à±įà°Ł", "Ġà®µà®°à¯Īà®¯à®¿à®²à®¾à®©", "Ġà°¹à±Īà°ķà±ĭà°°à±įà°Łà±ģà°²à±ģ", "Ġà®¤à¯ģà®£à¯Īà®ķà¯įà®ķà®£à¯įà®Łà®¤à¯įà®¤à®¿à®©à¯į", "Ġà°īà°Ĥà°Łà°¾à°¯à°¿.", "Ġà®ªà®ķà¯ģà®¤à®¿à®ķà®³à¯į", "Ġà°ķà±ĭà°°à±įà°Łà±ģà°²à°ķà±ģ", "Ġà®ļà¯Ĩà®ªà¯įà®ª", "Ġà°¸à±Ĥà°ļà°¨", "Ġà®ļà¯Ĩà®ªà¯įà®ªà¯ģà®ķà¯į", "Ġà°¸à±Ĥà°ļà°¨à°²à±ģ,", "Ġà®ĩà®°à¯ģà®®à¯įà®ª", "Ġà°Ĩà°¦à±ĩà°¶", "Ġà®ĩà®°à¯ģà®®à¯įà®ªà¯ģà®ķà¯į", "Ġà°Ĩà°¦à±ĩà°¶à°¾à°²à±ģ,", "Ġà®ªà®£à¯įà®ªà®¾à®Łà¯įà®Łà®¿à®±à¯įà®ķ", "Ġà°°à°¿à°Łà±įà°²à±ģ", "Ġà®ªà®£à¯įà®ªà®¾à®Łà¯įà®Łà®¿à®±à¯įà®ķà¯ģ", "Ġà°ĩà°ļà±įà°ļ", "Ġà®®à®¾à®±à¯įà®±à®®", "Ġà°ĩà°ļà±įà°ļà±ĩ", "Ġà®®à®¾à®±à¯įà®±à®®à®Łà¯Īà®¨à¯įà®¤", "Ġà°°à°¿à°Łà±įà°²", "Ġà®®à®¾à®±à¯įà®±à®®à®Łà¯Īà®¨à¯įà®¤à®©.", "Ġà°°à°¿à°Łà±įà°²à°²à±ĭ", "Ġà®ļà®®à®¯à®¤à¯įà®¤", "Ġà°¹à±Ĩ", "Ġà®ļà®®à®¯à®¤à¯įà®¤à¯ģà®Łà®©à¯į", "Ġà°¹à±Ĩà°¬", "Ġà®¤à¯Ĭà®Łà®°à¯įà®ª", "Ġà°¹à±Ĩà°¬à°¿à°¯", "Ġà®¤à¯Ĭà®Łà®°à¯įà®ªà¯ģà®Łà¯Īà®¯", "Ġà°¹à±Ĩà°¬à°¿à°¯à°¸", "Ġà®ªà®´à®®", "Ġà°¹à±Ĩà°¬à°¿à°¯à°¸à±į", "Ġà®ªà®´à®®à¯Īà®¯à®¾à®©", "Ġà°ķà°¾à°°à±įà°", "Ġà®ªà¯ģà®©", "Ġà°ķà°¾à°°à±įà°ª", "Ġà®ªà¯ģà®©à®¿à®¤", "Ġà°ķà°¾à°°à±įà°ªà°¸à±į,", "Ġà®¨à¯Ĥà®²", "Ġà°®à°¾à°Ĥà°¡", "Ġà®¨à¯Ĥà®²à¯įà®ķà®³", "Ġà°®à°¾à°Ĥà°¡à°®", "Ġà®¨à¯Ĥà®²à¯įà®ķà®³à®¾à®©", "Ġà°®à°¾à°Ĥà°¡à°®à°¸à±į,", "Ġà®µà¯ĩà®¤à®Ļà¯įà®ķà®³à®¾à®©à®µà¯Ī", "Ġà°¨à°¿à°·", "Ġà®ĩà®¯à®±à¯įà®±", "Ġà°¨à°¿à°·à±ĩà°", "Ġà®ĩà®¯à®±à¯įà®±à®ªà¯įà®ªà®Łà¯įà®Łà®©.", "Ġà°¨à°¿à°·à±ĩà°§", "Ġà®µà¯ĩà®¤à®Ļà¯įà®ķà®³à¯Ī", "Ġà°¨à°¿à°·à±ĩà°§à°Ĥ,", "Ġà®Ĩà®¯à¯įà®µ", "Ġà°ķà±ĭà°µ", "Ġà®Ĩà®¯à¯įà®µà¯ģ", "Ġà°ķà±ĭà°µà°¾à°°", "Ġà®ļà¯Ĩà®¯à¯įà®¤à®¤", "Ġà°ķà±ĭà°µà°¾à°°à°Ĥà°Ł", "Ġà®ļà¯Ĩà®¯à¯įà®¤à®¤à¯Ī", "Ġà°ķà±ĭà°µà°¾à°°à°Ĥà°Łà±ĭ", "Ġà®®à¯ĩà®²à¯į", "Ġà°ķà±ĭà°µà°¾à°°à°Ĥà°Łà±ĭ,", "Ġà®ļà®®à®µà¯Ĩà®³à®¿à®¯à®¿à®²à¯į", "Ġà°¸à±Ĩ", "Ġà®ĩà®°à¯ģà®¨à¯įà®¤à®¤à¯ģ", "Ġà°¸à±Ĩà°°à±įà°Ł", "Ġà®ķà¯ģà®±à®¿à®ªà¯įà®ªà®¿à®Łà¯ģà®ķà®¿à®©à¯įà®±à®©à®°à¯į.", "Ġà°¸à±Ĩà°°à±įà°Łà°¿à°¯", "Ġà®¤à¯ģà®£à¯Īà®ķà¯įà®ķà®£à¯įà®Łà®¤à¯įà®¤à¯ģà®ķà¯įà®ķà¯ģà®³à¯į", "Ġà°¸à±Ĩà°°à±įà°Łà°¿à°¯à±ĭà°°", "Ġà®ħà®²", "Ġà°¸à±Ĩà°°à±įà°Łà°¿à°¯à±ĭà°°à°¾à°°à°¿", "Ġà®ħà®²à¯Īà®ķà®³", "Ġà°°à°ķà°¾à°²à±ģà°Ĺà°¾", "Ġà®ħà®²à¯Īà®ķà®³à®¾à®ķ", "Ġà°ķà±ĭà°°à±įà°Łà±ģà°²à±ģ", "à®Ĩà®°à®¿à®¯", "Ġà°¶à°ķà±įà°¤à±ģà°²à±ģ", "à®Ĩà®°à®¿à®¯à®ªà¯į", "Ġà°¶à°ķà±įà°¤à±ģà°²à±ģ;", "Ġà®ªà¯ģà®²", "Ġà°ĩà°µà°¿", "Ġà®ªà¯ģà®²à®ªà¯įà®ª", "Ġà°ľà±ĭà°ķ", "Ġà®ªà¯ģà®²à®ªà¯įà®ªà¯Ĩ", "Ġà°ľà±ĭà°ķà±įà°¯à°Ĥ", "Ġà®ªà¯ģà®²à®ªà¯įà®ªà¯Ĩà®¯", "Ġà°²à±ĩà°¨", "Ġà®ªà¯ģà®²à®ªà¯įà®ªà¯Ĩà®¯à®°à¯įà®µ", "Ġà°²à±ĩà°¨à°¿à°µ", "Ġà®ªà¯ģà®²à®ªà¯įà®ªà¯Ĩà®¯à®°à¯įà®µà¯ģà®ķà®³", "Ġà°²à±ĩà°¨à°¿à°µà°¿.", "Ġà®ªà¯ģà®²à®ªà¯įà®ªà¯Ĩà®¯à®°à¯įà®µà¯ģà®ķà®³à¯Īà®¯à¯ģà®®à¯į", "Ġà°µà±įà°¯à°µà°¸à±įà°¥à°ķà±ģ,", "Ġà®ĩà®ķà¯įà®ķà®¾à®²à®ķ", "Ġà°ħà°°à±ģà°¦", "Ġà®ĩà®ķà¯įà®ķà®¾à®²à®ķà®Łà¯įà®Ł", "Ġà°ħà°°à±ģà°¦à±ģà°Ĺà°¾", "Ġà®ĩà®ķà¯įà®ķà®¾à®²à®ķà®Łà¯įà®Łà®®à®¾à®©à®¤à¯ģ", "Ġà°ıà°°à±įà°ªà°¡à±ĩ", "Ġà®īà®³à¯įà®³à®Łà®ķà¯įà®ķà®¿à®¯à®¿à®°à¯ģà®¨à¯įà®¤à®¤à¯ģ", "Ġà°ĺà°°à±įà°·à°£", "Ġà®ķà®°à¯ģà®¤à¯ģà®ķà®¿à®©à¯įà®±à®©à®°à¯į.", "Ġà°ĺà°°à±įà°·à°£à°¨à±ģ", "Ġà®ªà¯ģà®°à¯ĭà®ķ", "Ġà°®à°§à±įà°¯à°µ", "Ġà®ªà¯ģà®°à¯ĭà®ķà®¿à®¤", "Ġà°®à°§à±įà°¯à°µà°°à±įà°¤", "Ġà®ªà¯ģà®°à¯ĭà®ķà®¿à®¤à®°à¯įà®ķà®³à¯į,", "Ġà°®à°§à±įà°¯à°µà°°à±įà°¤à°¿à°¤à±įà°µ", "Ġà®ªà¯ĭà®°à¯į", "Ġà°®à°§à±įà°¯à°µà°°à±įà°¤à°¿à°¤à±įà°µà°Ĥ", "Ġà®µà¯Ģà®°", "Ġà°µà°¹à°¿à°Ĥà°ļ", "Ġà®µà¯Ģà®°à®°à¯įà®ķà®³à¯į", "Ġà°µà°¹à°¿à°Ĥà°ļà°¿", "Ġà®µà®¿à®µà®ļà®¾à®¯à®¿à®ķà®³à¯į", "Ġà°¨à°¿à°µà°¾à°°", "Ġà®Ĩà®ķà®¿à®¯à¯ĭà®°", "Ġà°¨à°¿à°µà°¾à°°à°¿à°¸à±įà°¤à°¾à°°à±ģ.", "Ġà®Ĩà®ķà®¿à®¯à¯ĭà®°à¯Ī", "Ġà°ļà°°à°¿à°¤", "Ġà®īà®³à¯įà®³à®Łà®ķà¯įà®ķà®¿", "Ġà°ļà°°à°¿à°¤à±įà°°à°", "Ġà®ªà¯Ĥà®°à¯įà®µà¯Ģà®ķ", "Ġà°ļà°°à°¿à°¤à±įà°°à°²à±ĭ", "Ġà®ħà®µà®°à¯įà®ķà®³à®¤à¯ģ", "Ġà°Ńà°¾à°Ĺà°Ĥ,", "Ġà®ªà®£", "Ġà°ªà±įà°°à°Ńà±ģà°¤à±įà°µà°Ĥà°²à±ĭ", "Ġà®ªà®£à®¿à®ķà®³à¯į", "Ġà°ħà°§à°¿à°ķà°¾à°°à°Ĥà°²à±ĭ", "Ġà®¤à¯Ĥ", "Ġà°īà°Ĥà°Łà±Ĥ", "Ġà®¤à¯Ĥà®¯", "Ġà°¸à±įà°µà°¾à°¤à°Ĥà°¤à±įà°°à±įà°¯à°¾à°¨à°¿à°ķà°¿", "Ġà®¤à¯Ĥà®¯à¯įà®®à¯Īà®¯", "Ġà°ªà±Ĥà°°à±įà°µà°Ĥ", "Ġà®¤à¯Ĥà®¯à¯įà®®à¯Īà®¯à®±à¯įà®±", "Ġà°ªà°ķà±įà°·à°Ĥ", "Ġà®¤à¯Ĥà®¯à¯įà®®à¯Īà®¯à®±à¯įà®±à®µà¯Ī", "Ġà°ķà°¾à°µ", "Ġà®®à¯ģà®¤à¯įà®¤", "Ġà°ķà°¾à°µà°¡", "Ġà®®à¯ģà®¤à¯įà®¤à®¿à®°", "Ġà°ķà°¾à°µà°¡à°Ĥ", "Ġà®®à¯ģà®¤à¯įà®¤à®¿à®°à¯Īà®¯", "Ġà°ļà±ĩà°¤", "Ġà®®à¯ģà®¤à¯įà®¤à®¿à®°à¯Īà®¯à®¿à®Łà¯įà®Ł", "Ġà°ļà±ĩà°¤,", "Ġà®®à¯ģà®¤à¯įà®¤à®¿à®°à¯Īà®¯à®¿à®Łà¯įà®Łà¯ģ", "Ġ40", "Ġà®Ĵà®¤", "Ġà°ıà°³", "Ġà®Ĵà®¤à¯ģà®ķà¯įà®ķ", "Ġà°ıà°³à±įà°", "Ġà®Ĵà®¤à¯ģà®ķà¯įà®ķà®¿", "Ġà°ıà°³à±įà°³", "Ġà®ķà®Łà¯įà®Łà®¤à¯įà®¤à®¿à®©à¯į", "Ġà°ıà°³à±įà°³à°ª", "Ġà®¤à®ķà¯įà®ķà®¾à®£à®ªà¯į", "Ġà°ıà°³à±įà°³à°ªà°¾à°Łà±ģ", "Ġà®ªà¯Ģ", "Ġà°¦à±ĩà°¶à°°", "Ġà®ªà¯Ģà®Ł", "Ġà°¦à±ĩà°¶à°°à°¾à°ľ", "Ġà®ªà¯Ģà®Łà®ª", "Ġà°¦à±ĩà°¶à°°à°¾à°ľà°ķà±Ģà°¯", "Ġà®ªà¯Ģà®Łà®ªà¯Ĥ", "Ġà°¦à±ĩà°¶à°°à°¾à°ľà°ķà±Ģà°¯à°¾à°²à±įà°²à±ĭ", "Ġà®ªà¯Ģà®Łà®ªà¯Ĥà®®", "Ġà°Ĺà±ģà°¤", "Ġà®ªà¯Ģà®Łà®ªà¯Ĥà®®à®¿à®¯à®¿à®²à¯į", "Ġà°Ĺà±ģà°¤à±įà°¤", "Ġà®ķà®Łà¯įà®Łà®¤à¯įà®¤à¯Ī", "Ġà°Ĺà±ģà°¤à±įà°¤à°¾à°§", "Ġà®ķà®Łà¯įà®Łà®¤à¯įà®¤à¯Īà®ļà¯į", "Ġà°Ĺà±ģà°¤à±įà°¤à°¾à°§à°¿à°ª", "Ġà®¤à¯Ĭà®²à¯įà®²", "Ġà°Ĺà±ģà°¤à±įà°¤à°¾à°§à°¿à°ªà°¤", "Ġà®¤à¯Ĭà®²à¯įà®²à®¿à®¯à®²à¯į", "Ġà°Ĺà±ģà°¤à±įà°¤à°¾à°§à°¿à°ªà°¤à±įà°¯à°Ĥ", "Ġà®Ĩà®¤à®¾à®°à®Ļà¯įà®ķà®³à®¾à®©à®µà¯Ī", "Ġà°µà°¹à°¿à°Ĥà°ļà°¿à°Ĥà°¦à°¿.", "Ġà®¤à®²à¯Īà®µà®©", "Ġà°ªà°¾à°°à±įà°Łà±Ģà°Ĺà°¾", "Ġà®¤à®²à¯Īà®µà®©à¯Ī", "Ġà°Ĳà°ķ", "Ġà®¨à®¿à®²à¯Īà®¯à®¿à®©à¯į", "Ġà°Ĳà°ķà±įà°¯", "Ġà®ĩà®°à¯ģà®ªà¯įà®ª", "Ġà°ªà±įà°°à°¤à°¿à°ªà°ķà±įà°·à°Ĥ", "Ġà®ĩà®°à¯ģà®ªà¯įà®ªà¯Īà®ªà¯į", "Ġà°ķà°¾à°Ĥà°Ĺà±įà°°à±Ĩà°¸à±ģà°¨à±ģ", "Ġà®ªà®°à®¿à®¨à¯įà®¤à¯ģà®", "Ġà°ĵà°¡", "Ġà®ªà®°à®¿à®¨à¯įà®¤à¯ģà®°", "Ġà°ĵà°¡à°¿à°Ĥà°ļà°¿,", "Ġà®ªà®°à®¿à®¨à¯įà®¤à¯ģà®°à¯Ī", "Ġà°ķà°¾à°Ĥà°Ĺà±įà°°à±Ĩà°¸à±ĩà°¤", "Ġà®ªà®°à®¿à®¨à¯įà®¤à¯ģà®°à¯Īà®ķ", "Ġà°ķà°¾à°Ĥà°Ĺà±įà°°à±Ĩà°¸à±ĩà°¤à°°", "Ġà®ªà®°à®¿à®¨à¯įà®¤à¯ģà®°à¯Īà®ķà®¿à®©à¯įà®±à®©.", "Ġà°ıà°°à±įà°ªà°°à°", "Ġà®ķà®Łà¯įà®Łà®¤à¯įà®¤", "Ġà°ıà°°à±įà°ªà°°à°ļ", "Ġà®ķà®Łà¯įà®Łà®¤à¯įà®¤à¯ģà®ķà¯įà®ķà¯ģà®ķà¯į", "Ġà°ıà°°à±įà°ªà°°à°ļà°¿à°Ĥà°¦à°¿.", "Ġà®ķà®¾à®²à®®à®¿à®Łà®ªà¯įà®ªà®Łà¯ģà®ķà®¿à®±", "Ġà°ĩà°Łà±Ģà°µà°²à°¿", "Ġà®ªà¯Ĩà®°à¯ģà®Ļà¯įà®ķà®±à¯įà®ķà®¾à®²", "Ġà°ķà°¾à°²à°Ĥà°²à±ĭ,", "Ġà®¨à®¿à®©", "Ġà°ĵà°Ł", "Ġà®¨à®¿à®©à¯Īà®µ", "Ġà°ĵà°Łà°°à±įà°²", "Ġà®¨à®¿à®©à¯Īà®µà¯ģà®ļà¯į", "Ġà°ĵà°Łà°°à±įà°²à°ª", "Ġà®ļà®¿à®©", "Ġà°ĵà°Łà°°à±įà°²à°ªà±Ī", "Ġà®ļà®¿à®©à¯įà®©", "Ġà°ªà°Łà±įà°Łà±ģà°¨à±ģ", "Ġà®ļà®¿à®©à¯įà®©à®Ļà¯įà®ķà®³à®¿à®©à¯į", "Ġà°ķà±ĭà°²à±įà°ª", "Ġà®İà®£à¯įà®£à®¿à®ķà¯įà®ķà¯Īà®¯", "Ġà°ķà±ĭà°²à±įà°ªà±ĭà°¤", "Ġà®İà®£à¯įà®£à®¿à®ķà¯įà®ķà¯Īà®¯à®¿à®²", "Ġà°ķà±ĭà°²à±įà°ªà±ĭà°¤à±Ĥ", "Ġà®İà®£à¯įà®£à®¿à®ķà¯įà®ķà¯Īà®¯à®¿à®²à®¾à®©à®µà¯Ī", "Ġ2004", "Ġà®µà®¾à®´à¯įà®ķà¯įà®ķ", "Ġà°İà°¨à±įà°¨à°¿à°ķà°²à°²à±ĭ", "Ġà®µà®¾à®´à¯įà®ķà¯įà®ķà¯Ī", "Ġà°¸à±įà°¥à°¾à°¨à°¾à°²à±ģ", "Ġà®®à¯ģà®©à¯įà®©à¯ĩà®±à¯įà®±à®®à¯į", "Ġà°Ĺà±Ĩà°²à°¿à°ļ", "Ġà®ħà®Łà¯Īà®¨à¯įà®¤à®¤", "Ġà°Ĺà±Ĩà°²à°¿à°ļà°¿à°¨", "Ġà®ħà®Łà¯Īà®¨à¯įà®¤à®¤à¯Īà®ķà¯į", "Ġà°ªà°¾à°°à±įà°Łà±Ģà°²à°¤à±ĭ", "Ġà®®à¯ĩà®²à¯ģà®®à¯į,", "Ġà°ıà°°à±įà°ªà°¾à°Łà±ģ", "Ġà®µà¯ĩà®³à®¾à®£à¯įà®®à¯Ī", "Ġà°µà°¾à°¦", "Ġà®µà¯ĩà®³à®¾à®£à¯įà®®à¯Ī,", "Ġà°Ńà°¾à°ľ", "Ġà®¨à¯Ģà®°", "Ġà°Ńà°¾à°ľà°ªà°¾", "Ġà®¨à¯Ģà®°à¯įà®ªà¯įà®ª", "Ġà°ªà±įà°°à°¤à°¿à°ªà°ķà±įà°·", "Ġà®¨à¯Ģà®°à¯įà®ªà¯įà®ªà®¾à®ļ", "Ġà°ªà±įà°°à°¤à°¿à°ªà°ķà±įà°·à°®à±Ī", "Ġà®¨à¯Ģà®°à¯įà®ªà¯įà®ªà®¾à®ļà®©", "Ġà°ªà±įà°°à°¤à°¿à°ªà°ķà±įà°·à°®à±Īà°Ĥà°¦à°¿.", "Ġà®¨à¯Ģà®°à¯įà®ªà¯įà®ªà®¾à®ļà®©à®¤à¯į", "Ġà°ªà°¾à°°à±įà°Łà±Ģà°²", "Ġà®¤à¯Ĭà®Łà¯įà®Łà®¿à®ķà®³à¯į", "Ġà°ªà±įà°°à°¾à°¬", "Ġà®ªà®¾à®°à®®à¯įà®ªà®°à®¿à®¯à®Ļà¯įà®ķà®³à®¿à®©à¯į", "Ġà°ªà±įà°°à°¾à°¬à°²", "Ġà®¨à¯Ĩ", "Ġà°ªà±įà°°à°¾à°¬à°²à±įà°¯à°Ĥ", "Ġà®¨à¯Ĩà®°", "Ġ1996", "Ġà®¨à¯Ĩà®°à¯ģà®ķà¯įà®ķ", "Ġà°ıà°°à±įà°ªà°¡à°¿à°¨", "Ġà®¨à¯Ĩà®°à¯ģà®ķà¯įà®ķà®®à®¾à®©", "Ġà°ªà±įà°°à°Ńà±ģà°¤à±įà°µà°¾à°²", "Ġà®¤à®Ł", "Ġà°ªà±įà°°à°Ńà±ģà°¤à±įà°µà°¾à°²à°¨à±įà°¨", "Ġà®¤à®Łà®¯", "Ġà°ªà±įà°°à°Ńà±ģà°¤à±įà°µà°¾à°²à°¨à±įà°¨à±Ģ", "Ġà®¤à®Łà®¯à®Ļà¯įà®ķà®³", "Ġà°¸à°Ĥà°ķà±Ģà°°à±įà°£à°¾à°²", "Ġà®¤à®Łà®¯à®Ļà¯įà®ķà®³à®¾à®²à¯ģà®®à¯į", "Ġà°¸à°Ĥà°ķà±Ģà°°à±įà°£à°¾à°²à±ĩà°ķ", "Ġà®ķà®¾à®Łà¯įà®Łà®ªà¯įà®ªà®Łà¯ģà®ķ", "Ġà°¸à°Ĥà°ķà±Ģà°°à±įà°£à°¾à°²à±ĩà°ķà°¾à°Ĺà°¾", "Ġà®ķà®¾à®Łà¯įà®Łà®ªà¯įà®ªà®Łà¯ģà®ķà®¿à®©à¯įà®±à®©.", "Ġ2014", "Ġà®ļà®®à®µà¯Ĩà®³à®¿", "Ġà°ĺà±ĭà°°", "Ġà®µà®Łà®®à¯ĩà®±à¯įà®ķà¯ģà®ªà¯į", "Ġà°ªà°°à°¾à°ľ", "Ġà®ħà®°à®ļà¯ģà®ķà®³à¯į", "Ġà°ªà°°à°¾à°ľà°¯", "Ġà®¤à®²à¯Īà®µà®°à¯įà®ķà®³", "Ġà°ªà°°à°¾à°ľà°¯à°Ĥ", "Ġà®¤à®²à¯Īà®µà®°à¯įà®ķà®³à¯Īà®ķà¯į", "Ġà°ªà°¾à°²à°¯", "Ġà®ļà®¿à®²à®µà®°à¯į", "Ġà°ªà°¾à°²à°¯à°¿à°Ĥà°¦à°¿", "Ġà®Ĩà®Łà¯įà®ļà®¿", "Ġ.", "Ġà®®à¯ģà®Łà®¿à®¯", "à°Ī", "Ġà®®à¯ģà®Łà®¿à®¯à®°à®ļ", "Ġà°ªà°¾à°°à±įà°Łà±Ģà°ķà°¿", "Ġà®®à¯ģà®Łà®¿à®¯à®°à®ļà¯ģà®ķà®³", "Ġà°ªà°¦à°¿à°¶", "Ġà®®à¯ģà®Łà®¿à®¯à®°à®ļà¯ģà®ķà®³à®¾à®ķ", "Ġà°ªà°¦à°¿à°¶à°¾à°¤à°Ĥ", "Ġà®Ĵà®©à¯įà®±à®¿à®£à¯Īà®¨à¯įà®¤", "Ġà°ķà°·à±įà°Ł", "Ġà®Ĵà®©à¯įà®±à®¿à®£à¯Īà®¨à¯įà®¤à®©.", "Ġà°ķà°·à±įà°Łà°Ĥà°ķ", "Ġà®®à®ķà®¾à®", "Ġà°ķà°·à±įà°Łà°Ĥà°ķà°¾à°Ĺà°¾", "Ġà®®à®ķà®¾à®ľ", "Ġà°®à±Ĭà°¦à°Łà°¿à°¸", "Ġà®®à®ķà®¾à®ľà®©", "Ġà°®à±Ĭà°¦à°Łà°¿à°¸à°¾à°°à°¿à°Ĺà°¾", "Ġà®®à®ķà®¾à®ľà®©à®ª", "Ġà°µà°¿à°¶à±ĩà°·", "Ġà®®à®ķà®¾à®ľà®©à®ªà®¾à®¤", "Ġà°µà°¿à°¶à±ĩà°·à°Ĥ.", "Ġà®®à®ķà®¾à®ľà®©à®ªà®¾à®¤à®Ļà¯įà®ķà®³à¯į", "Ġà°¸à±įà°µà°°", "Ġà®ħà®±à®¿à®¯à®ªà¯įà®ªà®Łà¯įà®Łà®©.", "Ġà°¸à±įà°µà°°à±Ĥà°ª", "Ġà®¨à®ķà®°à®®à®¯à®®à®¾à®ķà¯įà®ķà®²à®¾à®©à®¤à¯ģ", "Ġà°¸à±įà°µà°°à±Ĥà°ªà°Ĥ,", "Ġà®µà¯ĩà®¤à®®à¯į", "Ġà°µà°¿à°¶à°¿à°", "Ġà®ĩà®¯à®ķà¯įà®ķà®Ļà¯įà®ķà®³à®¿à®©à¯į", "Ġà°µà°¿à°¶à°¿à°·à±įà°Ł", "Ġà®µà®³à®°à¯įà®ļà¯įà®ļà®¿à®ķà¯įà®ķà¯ģà®ķà¯į", "Ġà°²à°ķà±įà°·à°£à°¾à°²à±ģ", "Ġà®ķà®¾à®°à®£à®®à®¾à®©à®¤à¯ģ.", "Ġà°īà°ªà°ĸà°Ĥà°¡à°Ĥ", "Ġà®ĩà®¤à®¿à®²à¯į", "Ġà°ªà±ĩà°°à±įà°ķà±Ĭà°¨à°µ", "Ġà®ĩà®°à®£à¯įà®Łà¯ģ", "Ġà°ªà±ĩà°°à±įà°ķà±Ĭà°¨à°µà°ļà±įà°ļà±ģ.", "Ġà®ĩà®¯à®ķà¯įà®ķà®Ļà¯įà®ķà®³à¯į", "Ġà°Ńà±Įà°¤", "Ġà®ļà®®à®¯à®Ļà¯įà®ķà®³à®¾à®ķ", "Ġà°Ńà±Įà°¤à°¿à°ķ,", "Ġà®ļà¯Īà®©à®¤à¯įà®¤à¯ģà®ķà¯įà®ķà¯ģ", "Ġà°Ĩà°°à±įà°¥à°¿à°ķ,", "Ġà®İà®Łà¯ģà®¤à¯įà®¤", "Ġà°¸à°¾à°Ĥà°ĺ", "Ġà®İà®Łà¯ģà®¤à¯įà®¤à¯ģà®ķà¯įà®ķ", "Ġà°¸à°¾à°Ĥà°ĺà°¿à°ķ,", "Ġà®İà®Łà¯ģà®¤à¯įà®¤à¯ģà®ķà¯įà®ķà®¾à®Łà¯įà®Ł", "Ġà°¤à°¾à°°à°¤", "Ġà®İà®Łà¯ģà®¤à¯įà®¤à¯ģà®ķà¯įà®ķà®¾à®Łà¯įà®Łà®¾à®ķà®¤à¯į", "Ġà°¤à°¾à°°à°¤à°®", "Ġà®¤à®¿à®ķà®´à¯įà®¨à¯įà®¤", "Ġà°¤à°¾à°°à°¤à°®à±įà°¯", "Ġà®®à®ķà®¾à®µ", "Ġà°¤à°¾à°°à°¤à°®à±įà°¯à°¾à°²", "Ġà®®à®ķà®¾à®µà¯Ģà®°", "Ġà°¤à°¾à°°à°¤à°®à±įà°¯à°¾à°²à±ģà°¨à±įà°¨à°¾à°¯à°¿.", "Ġà®®à®ķà®¾à®µà¯Ģà®°à®°à®¿à®©à¯į", "Ġà°Ĩà°¨", "Ġà®µà®¾à®´à¯įà®µà®¿à®©à¯į", "Ġà°Ĩà°¨à°¾à°¦", "Ġà®ħà®ļà¯įà®ļ", "Ġà°Ĩà°¨à°¾à°¦à°¿", "Ġà®ħà®ļà¯įà®ļà®®à®¯", "Ġà°®à°¤à°¾à°²à±ģ,", "Ġà®ħà®ļà¯įà®ļà®®à®¯à®®à¯į", "à°Ńà°¾à°·", "Ġà®ķà¯Į", "à°Ńà°¾à°·à°²à±ģ,", "Ġà®ķà¯Įà®¤", "Ġà°Ĩà°ļ", "Ġà®ķà¯Įà®¤à®®", "Ġà°Ĩà°ļà°¾à°°", "Ġà®ªà¯ĭà®¤à®©à¯Īà®ķà®³à¯Ī", "Ġà°Ĩà°ļà°¾à°°à°¾à°²à±ģ,", "Ġà®ĩà®°à®£à¯įà®Łà¯ģà®®à¯į", "Ġà°¸à°Ĥà°ª", "Ġà®µà®°à¯įà®ķà¯įà®ķà®¤à¯įà®¤à®¿à®©à®°à¯Ī", "Ġà°¸à°Ĥà°ªà±įà°°à°¦", "Ġà®µà®°à¯įà®ķà¯įà®ķà®¤à¯įà®¤à®¿à®©à®°à¯Īà®¤à¯į", "Ġà°¸à°Ĥà°ªà±įà°°à°¦à°¾à°¯", "Ġà®µà®ķà¯ģà®ªà¯įà®ªà®¿à®©à®°à®¿à®Ł", "Ġà°¸à°Ĥà°ªà±įà°°à°¦à°¾à°¯à°¾à°²à±ģ", "Ġà®µà®ķà¯ģà®ªà¯įà®ªà®¿à®©à®°à®¿à®Łà®®", "Ġà°īà°Ĥà°¡à±ģà°Ł", "Ġà®µà®ķà¯ģà®ªà¯įà®ªà®¿à®©à®°à®¿à®Łà®®à®¿à®°à¯ģà®¨à¯įà®¤", "Ġà°īà°Ĥà°¡à±ģà°Łà°ļà±ĩ", "Ġà®µà®ķà¯ģà®ªà¯įà®ªà®¿à®©à®°à®¿à®Łà®®à®¿à®°à¯ģà®¨à¯įà®¤à¯ģà®®à¯į", "Ġà°¦à±Ģ", "Ġà®ªà®¿à®©à¯įà®ªà®±à¯įà®±à¯ģà®ª", "Ġà°¦à±Ģà°¨à±įà°¨à°¿", "Ġà®ªà®¿à®©à¯įà®ªà®±à¯įà®±à¯ģà®ªà®µà®°à¯įà®ķà®³", "Ġà°¬à°¿à°¨à±įà°¨à°¤à±įà°µ", "Ġà®ªà®¿à®©à¯įà®ªà®±à¯įà®±à¯ģà®ªà®µà®°à¯įà®ķà®³à¯Ī", "Ġà°¬à°¿à°¨à±įà°¨à°¤à±įà°µà°Ĥà°²à±ĭ", "Ġà®Īà®°", "Ġà°ıà°ķ", "Ġà®Īà®°à¯įà®¤à¯įà®¤", "Ġà°ıà°ķà°¤à±įà°µ", "Ġà®Īà®°à¯įà®¤à¯įà®¤à®¤à¯ģ.", "Ġà°ıà°ķà°¤à±įà°µà°Ĥà°Ĺ", "Ġà®ļà¯Ĩà®¯à¯įà®¯à®ªà¯įà®ªà®Ł", "Ġà°ıà°ķà°¤à±įà°µà°Ĥà°Ĺà°²", "Ġà®ļà¯Ĩà®¯à¯įà®¯à®ªà¯įà®ªà®Łà¯ģà®¤", "Ġà°Ĺà±ģà°°à±įà°¤à°¿à°Ĥà°ļ", "Ġà®ļà¯Ĩà®¯à¯įà®¯à®ªà¯įà®ªà®Łà¯ģà®¤à®²à®¿à®©à¯į", "Ġà°Ĺà±ģà°°à±įà°¤à°¿à°Ĥà°ļà°µ", "Ġà®¤à¯Ĭà®Łà®ķà¯įà®ķà®¤à¯įà®¤à®¿à®©à¯į", "Ġà°Ĺà±ģà°°à±įà°¤à°¿à°Ĥà°ļà°µà°ļà±įà°ļà±ģ.", "Ġà®®à¯Īà®¯à®®à®¾à®©à®¤à¯ģ", "Ġà°īà°¤à±įà°¤à°°,", "Ġà®µà®¾à®´à¯įà®µà¯Īà®ªà¯į", "Ġà°ªà°°à±įà°µà°¤", "Ġà®ļà¯Ĩà®¯à¯įà®¤à®¤à®¾à®ķ", "Ġà°ªà°°à±įà°µà°¤à°¾à°²à°¤à±ĭ", "Ġà®ħà®®à¯Īà®¨à¯įà®¤à®¤à¯ģ.", "Ġà°®à°¿à°Ĺ", "Ġà®ļà¯Ĩà®²à¯įà®µ", "Ġà°®à°¿à°Ĺà°¿à°²", "Ġà®ļà¯Ĩà®²à¯įà®µà®¤à¯įà®¤à®¿à®©à¯į", "Ġà°®à°¿à°Ĺà°¿à°²à°¿à°¨", "Ġà®¤à¯ģà®±à®µà¯ĩ", "Ġà°Ńà°¾à°°à°¤à°Ĥ,", "Ġà®ļà®¿à®±à®¨à¯įà®¤à®¤à¯ģ", "Ġà°®à°§à±įà°¯,", "Ġà®ķà¯ģà®±à®¿à®ªà¯įà®ªà®¿à®Łà¯įà®Łà®©.", "Ġà°¸à°¾à°°à°", "Ġà®ķà®¾à®²à®¤à¯įà®¤à®¿à®±à¯įà®ķà¯ģ", "Ġà°¸à°¾à°°à°µ", "Ġà®¨à¯Ģà®Łà®¿à®¤à¯įà®¤à®¿à®°à¯ģà®ķà¯įà®ķ", "Ġà°¸à°¾à°°à°µà°Ĥà°¤", "Ġà®¨à¯Ģà®Łà®¿à®¤à¯įà®¤à®¿à®°à¯ģà®ķà¯įà®ķà¯ģà®®à¯į", "Ġà°¸à°¾à°°à°µà°Ĥà°¤à°®à±Īà°¨", "Ġà®¤à¯ģà®±à®µà®±", "Ġà°Ĺà°Ĥà°Ĺà°¾", "Ġà®®à®°à®ªà¯ģà®ķà®³à¯Ī", "Ġà°®à±Ī", "Ġà®°à¯Ģà®¤à®¿à®¯à®¾à®ķ", "Ġà°®à±Īà°¦", "Ġà®®à®ķà®¤", "Ġà°®à±Īà°¦à°¾à°¨", "Ġà®ĩà®°à®¾à®ļà¯įà®ļà®¿à®¯à®®à®¾à®©à®¤à¯ģ", "Ġà°®à±Īà°¦à°¾à°¨à°Ĥà°¤à±ĭ", "Ġà®ħà®°à®ļà¯ģà®ķà®³à¯Ī", "Ġà°ķà±Ĥà°¡à°¿", "Ġà®ĩà®£à¯Īà®¤à¯įà®¤à¯ģ", "Ġà°ªà°¶à±įà°ļà°¿à°®à°¾à°¨,", "Ġà®ļà®¿à®±à®¿à®¯à®¤", "Ġà°ªà°¾à°ķà°¿à°¸à±įà°¥à°¾à°¨à±įà°ķ", "Ġà®ļà®¿à®±à®¿à®¯à®¤à®¾à®ķà¯įà®ķ", "Ġà°ªà°¾à°ķà°¿à°¸à±įà°¥à°¾à°¨à±įà°ķà±ģ", "Ġà®ļà®¿à®±à®¿à®¯à®¤à®¾à®ķà¯įà®ķà®¿", "Ġà°Ĩà°Ĺà±įà°¨", "Ġà®®à¯Įà®°à®¿à®¯à®ªà¯į", "Ġà°Ĩà°Ĺà±įà°¨à±ĩà°¯", "Ġà®ªà¯ĩà®°à®°à®ļà®¾à®ķ", "Ġà°¸à°°à°¿à°¹à°¦à±įà°¦à±ģà°¨", "Ġà®ĩà®ªà¯įà®ªà¯ĩà®°à®°à®ļà®¾à®©à®¤à¯ģ", "Ġà°¥", "Ġà®¤à¯Ĩà®±à¯įà®ķà¯ģà®ªà¯į", "Ġà°¥à°¾à°°", "Ġà®¤à¯ģà®£à¯Īà®ķà¯įà®ķà®£à¯įà®Łà®¤à¯įà®¤à¯Īà®ķà¯į", "Ġà°¥à°¾à°°à±į", "Ġà®µà¯Īà®¤à¯įà®¤à®¿à®°à¯ģà®¨à¯įà®¤à®¤à¯ģ", "Ġà°İà°¡", "Ġà®İà®£à¯įà®£à®ªà¯įà®ªà®Łà¯įà®Łà®¤à¯ģ.", "Ġà°İà°¡à°¾à°°à°¿", "Ġà®ļà¯ģà®¯", "Ġà°¦à±įà°µà±Ģà°ªà°ķà°²", "Ġà®ļà¯ģà®¯à®¾à®Ł", "Ġà°¦à±įà°µà±Ģà°ªà°ķà°²à±įà°ª", "Ġà®ļà¯ģà®¯à®¾à®Łà¯įà®ļà®¿à®¯", "Ġà°¦à±įà°µà±Ģà°ªà°ķà°²à±įà°ªà°Ĥ", "Ġà®ļà¯ģà®¯à®¾à®Łà¯įà®ļà®¿à®¯à¯ģà®Łà¯Īà®¯", "Ġà°ªà±Ĥà°°", "Ġà®ªà®ķà¯ģà®¤à®¿à®ķà®³à®¾à®²à¯į", "Ġà°ªà±Ĥà°°à±įà°¤", "Ġà®¤à®©à®¿à®¤à¯į", "Ġà°ªà±Ĥà°°à±įà°¤à°¿à°Ĺà°¾", "Ġà®¤à®©à®¿à®¯à®¾à®ķ", "Ġà°¦à°ķà±įà°ķ", "Ġà®¤à®©à®¿à®¯à®¾à®ķà®ªà¯į", "Ġà°¦à°ķà±įà°ķà°¨à±ģ", "Ġà®ªà®¿à®°à®¿à®ķà¯įà®ķà®ªà¯įà®ªà®Łà¯įà®Łà®¿à®°à¯ģà®¨à¯įà®¤à®¤à¯ģ", "Ġà°ªà±Ģà°łà°Ńà±Ĥà°®à°¿à°¤", "Ġà®İà®£à¯įà®£à®ªà¯įà®ªà®Łà¯ģà®ķà®¿à®±à®¤à¯ģ.", "Ġà°ªà±Ģà°łà°Ńà±Ĥà°®à°¿à°¤à±ĭ", "Ġà®®à®©à¯įà®©à®°à¯įà®ķà®³à¯į", "Ġà°ªà±Ģà°łà°Ńà±Ĥà°®à°¿à°ķà°¿", "Ġà®īà®°à¯ģà®µà®¾à®ķà¯įà®ķà®®à¯į", "Ġà°°à±Ĩà°Ĥà°¡à±ģà°µ", "Ġà®ªà¯Ĭà®¤à¯ģ", "Ġà°°à±Ĩà°Ĥà°¡à±ģà°µà±Īà°ª", "Ġà®µà®¾à®´à¯įà®µà¯Ī", "Ġà°°à±Ĩà°Ĥà°¡à±ģà°µà±Īà°ªà±ģà°²", "Ġà®®à¯ģà®©à¯Īà®ªà¯įà®ª", "Ġà°°à±Ĩà°Ĥà°¡à±ģà°µà±Īà°ªà±ģà°²à°¾", "Ġà®®à¯ģà®©à¯Īà®ªà¯įà®ªà¯ģà®Łà®©à¯į", "Ġà°¤à±Ĥà°°à±įà°ªà±ģ", "Ġà®¨à®¿à®°à¯įà®µà®ķà®¿à®¤à¯įà®¤", "Ġà°ķà°¨à±ģà°®à°²à±ģ,", "Ġà®¨à®¿à®°à¯įà®µà®ķà®¿à®¤à¯įà®¤à®¤à¯ģ", "Ġà°ķà°¨à±ģà°®à°²à±ģ", "Ġà®Ĩà®ķà®¿à®¯à®µà®±à¯įà®±à¯ģà®ķà¯įà®ķà¯ģ", "Ġà°¨à°¦", "Ġà®ħà®±à®¿à®¯à®ªà¯įà®ªà®Ł", "Ġà°¨à°¦à±ģà°²à±ģ", "Ġà®ħà®±à®¿à®¯à®ªà¯įà®ªà®Łà¯ģà®®à¯į", "Ġà°µà°¾à°Łà°¿à°²à±ĭ", "Ġà®ĩà®°à®¾à®£à¯ģà®µà®¤à¯į", "Ġà°ķà±Ĭà°¨à±įà°¨à°¿:", "Ġà®¤à®©à¯įà®®à¯Īà®¯à¯Ī", "Ġà°Ĺà°Ĥà°Ĺ,", "Ġà®ħà®ļ", "Ġà°¯à°®", "Ġà®ħà®ļà¯ĭà®ķ", "Ġà°¯à°®à±ģà°¨", "Ġà®ħà®ļà¯ĭà®ķà®°à¯į", "Ġà°¯à°®à±ģà°¨,", "Ġà®¤à¯ģà®±à®¨à¯įà®¤à®¤à¯ģ", "Ġà°¬à±įà°°à°", "Ġà®¤à®®à¯įà®®", "Ġà°¬à±įà°°à°¹", "Ġà®¤à®®à¯įà®®à®¤à¯įà®¤à¯Ī", "Ġà°¬à±įà°°à°¹à±įà°®", "Ġà®¤à®®à¯įà®®à®¤à¯įà®¤à¯Īà®¤à¯į", "Ġà°¬à±įà°°à°¹à±įà°®à°ª", "Ġà®¤à¯Ĭà®²à¯Īà®¤à¯Ĥà®°à®ªà¯į", "Ġà°¬à±įà°°à°¹à±įà°®à°ªà±ģà°¤", "Ġà®ªà®ķà¯ģà®¤à®¿à®ķà®³à¯ģà®ķà¯įà®ķà¯ģà®ªà¯į", "Ġà°¬à±įà°°à°¹à±įà°®à°ªà±ģà°¤à±įà°°", "Ġà®ªà®°à®ªà¯įà®ªà®¿à®¯", "Ġà°¬à±įà°°à°¹à±įà°®à°ªà±ģà°¤à±įà°°,", "Ġà®ªà®°à®ªà¯įà®ªà®¿à®¯à®¤à¯ģ", "Ġà°ķà±ĥà°·à±įà°£,", "Ġà®Ĩà®ķà®¿à®¯à®µà®±à¯įà®±à¯ģà®ķà¯įà®ķà®¾à®ķ", "Ġà°Ĺà±ĭà°¦à°¾à°µà°°", "Ġà®Ĩà®ķà®¿à®¯à®µà®±à¯įà®±à¯ģà®ķà¯įà®ķà®¾à®ķà®µà¯ģà®®à¯į", "Ġà°Ĺà±ĭà°¦à°¾à°µà°°à°¿.", "Ġà®ħà®±à®¿à®¯à®ªà¯įà®ªà®Łà¯ģà®ķ", "Ġà°īà°·à±įà°£", "Ġà®ħà®±à®¿à®¯à®ªà¯įà®ªà®Łà¯ģà®ķà®¿à®©à¯įà®±à®©à®°à¯į.", "Ġà°īà°Ĥà°¡à°Ĺà°¾", "Ġà®¤à®®à®¿à®´à®¿à®©à¯į", "Ġà°īà°Ĥà°¡à°Ĺà°¾,", "Ġà®ļà®Ļà¯įà®ķ", "Ġà°¸à°®à°¶", "Ġà®ĩà®²à®ķà¯įà®ķà®¿à®¯à®Ļà¯įà®ķà®³à¯į", "Ġà°¸à°®à°¶à±Ģ", "à®ķà¯įà®ķà¯ģ", "Ġà°¸à°®à°¶à±Ģà°¤à±ĭ", "Ġà®¤à¯Ĩà®±à¯įà®ķà¯ģà®¤à¯į", "Ġà°¸à°®à°¶à±Ģà°¤à±ĭà°·à±įà°£", "Ġà®¤à¯Ģà®ª", "Ġà°¨à±Ĩà°²", "Ġà®¤à¯Ģà®ªà®ķ", "Ġà°¨à±Ĩà°²à°ķ", "Ġà®¤à¯Ģà®ªà®ķà®±à¯įà®ª", "Ġà°¨à±Ĩà°²à°ķà±Ĭ", "Ġà®¤à¯Ģà®ªà®ķà®±à¯įà®ªà®ªà¯į", "Ġà°¨à±Ĩà°²à°ķà±Ĭà°¨à°¿", "Ġà®ªà®ķà¯ģà®¤à®¿à®¯à®¾à®©à®¤à¯ģ", "Ġà°ħà°¤à°¿à°¶", "Ġà®ļà¯ĩà®°à®°à¯į,", "Ġà°ħà°¤à°¿à°¶à±Ģ", "Ġà®ļà¯ĭà®´à®°à¯į,", "Ġà°ħà°¤à°¿à°¶à±Ģà°¤", "Ġà®ªà®¾à®£à¯įà®Łà®¿à®¯à®°à®¾à®²à¯į", "Ġà°ħà°¤à°¿à°¶à±Ģà°¤à°²", "Ġà®Ĩà®³à®ªà¯įà®ªà®Łà¯įà®Ł", "Ġ(à°Ł", "Ġà®Ĩà®³à®ªà¯įà®ªà®Łà¯įà®Łà®¤à¯ģ", "Ġ(à°Łà°Ĥà°¡", "Ġà®µà¯Ĩà®³", "Ġ(à°Łà°Ĥà°¡à±įà°°", "Ġà®µà¯Ĩà®³à®¿à®ķ", "Ġ(à°Łà°Ĥà°¡à±įà°°à°¾", "Ġà®µà¯Ĩà®³à®¿à®ķà¯į", "Ġ(à°Łà°Ĥà°¡à±įà°°à°¾)", "Ġà®ħà®°à®ļà®®", "Ġà°µà°°à±įà°·", "Ġà®ħà®°à®ļà®®à®°à®ª", "Ġà°µà°°à±įà°·à°¾à°²à±ģ", "Ġà®ħà®°à®ļà®®à®°à®ªà¯ģà®ķà®³à¯į", "Ġà°ĭ", "Ġà®µà®¿à®°à®¿à®µà®¾à®ķ", "Ġà°ĭà°¤", "Ġà®īà®°à¯ĭ", "Ġà°ĭà°¤à±ģà°ª", "Ġà®īà®°à¯ĭà®®", "Ġà°ĭà°¤à±ģà°ªà°µ", "Ġà®īà®°à¯ĭà®®à¯Īà®ªà¯į", "Ġà°ĭà°¤à±ģà°ªà°µà°¨à°¾à°²à±ģ", "Ġà®ªà¯ĩà®°à®°à®ļà¯ģ,", "Ġà°ķà°²à±ģà°Ĺ", "Ġà®¤à¯Ĩà®©à¯įà®ķà®¿à®´à®ķà¯įà®ķà®¾à®ļà®¿à®¯à®¾à®µà¯ģà®Łà®©à¯į", "Ġà°ķà°²à±ģà°Ĺà±ģà°¤", "Ġà®µà®£à®¿à®ķà®¤à¯įà®¤à®¿à®²à¯į", "Ġà°ķà°²à±ģà°Ĺà±ģà°¤à°¾à°¯à°¿.", "Ġà®Īà®Łà¯ģà®ªà®Łà¯įà®Łà®©.", "Ġà°°à°¾à°·à±įà°Łà±įà°°à°¾à°²à±ģà°Ĺà°¾", "Ġà®ķà¯ģà®Łà¯ģà®®à¯įà®ªà®¤à¯įà®¤à¯ģà®ķà¯įà®ķà¯ģà®³à¯į", "Ġà°°à°¾à°·à±įà°Łà±įà°°à°¾à°²à±ģà°Ĺà°¾,", "Ġà®¤à®¨à¯įà®¤", "Ġà°ªà±įà°°à°¾à°Ĥà°¤à°¾à°²à±ģ.", "Ġà®¤à®¨à¯įà®¤à¯Īà®¯", "Ġà°¸à°¾à°§à°¾à°°à°£à°Ĥà°Ĺà°¾", "Ġà®¤à®¨à¯įà®¤à¯Īà®¯à®¿à®©à¯į", "Ġà°ªà±įà°°à°Ńà±ģà°¤à±įà°µà°Ĥà°ļ", "Ġà®ķà®Łà¯įà®Łà¯ģà®ªà¯įà®ªà®¾à®Łà¯įà®Łà¯Ī", "Ġà°ªà±įà°°à°Ńà±ģà°¤à±įà°µà°Ĥà°ļà±ĩ", "Ġà®ļà®®à®¯à®®à¯į", "Ġà°¨à°¿à°¯à°®à°¿à°Ĥà°ļà°¬à°¡à°¿à°¨", "Ġà®īà®±à¯ģà®¤à®¿à®ªà¯įà®ªà®Łà¯ģà®¤à¯įà®¤à®¿à®¯à®¤à¯ģ.", "Ġà°ªà±įà°°à°¤à°¿à°¨", "Ġà®ªà¯Ĩà®£à¯įà®ķà®³à¯į", "Ġà°ªà±įà°°à°¤à°¿à°¨à°¿à°§", "Ġà®ĩà®°à®£à¯įà®Łà®¾à®®à¯į", "Ġà°ªà±įà°°à°¤à°¿à°¨à°¿à°§à°¿à°ļà±ĩ", "Ġà®¨à®¿à®²à¯Īà®ķà¯įà®ķà¯ģà®¤à¯į", "Ġà°ªà°°à°¿à°ªà°¾à°²", "Ġà®¤à®¾à®´", "Ġà°ªà°°à°¿à°ªà°¾à°²à°¿à°Ĥà°ļ", "Ġà®¤à®¾à®´à¯įà®¤à¯įà®¤", "Ġà°¬à°¡", "Ġà®¤à®¾à®´à¯įà®¤à¯įà®¤à®ªà¯įà®ªà®Łà¯įà®Ł", "Ġà°¬à°¡à°¤", "Ġà®¨à®¿à®²à¯Īà®ķà¯įà®ķà¯ģ", "Ġà°¬à°¡à°¤à°¾à°¯à°¿.", "Ġà®ļà®®à®µà¯Ĩà®³à®¿à®ªà¯į", "à°ªà°¾à°Ĥà°¡", "Ġà®¨à®¿à®°à¯įà®µà®¾à®ķ", "à°ªà°¾à°Ĥà°¡à°¿à°ļà±įà°ļ", "Ġà®¨à®¿à®°à¯įà®µà®¾à®ķà®®à¯į", "à°ªà°¾à°Ĥà°¡à°¿à°ļà±įà°ļà±ĩà°°", "Ġà®µà®°à®¿", "à°ªà°¾à°Ĥà°¡à°¿à°ļà±įà°ļà±ĩà°°à°¿,", "Ġà®µà®¿à®¤", "Ġà°ľà°®à±įà°®", "Ġà®µà®¿à®¤à®¿à®ªà¯įà®ª", "Ġà°ľà°®à±įà°®à±Ĥ", "Ġà®µà®¿à®¤à®¿à®ªà¯įà®ªà®¿à®©à¯į", "Ġà°ķà°¾à°¶", "Ġà®ļà®¿à®ķà¯įà®ķ", "Ġà°ķà°¾à°¶à±įà°®", "Ġà®ļà®¿à®ķà¯įà®ķà®²", "Ġà°ķà°¾à°¶à±įà°®à±Ģ", "Ġà®ļà®¿à®ķà¯įà®ķà®²à®¾à®©", "Ġà°ķà°¾à°¶à±įà°®à±Ģà°°à±į", "Ġà®ĩà®°à®¾à®ļà¯įà®ļà®¿à®¯à®Ļà¯įà®ķà®³à¯ģà®ķà¯įà®ķà¯ģ", "Ġà°²à°ķà±ģ", "Ġà®®à¯ģà®©à¯į", "Ġà°ªà±įà°°à°ľà°²à°ļà±ĩ", "Ġà®®à®¾à®¤", "Ġà°İà°¨à±įà°¨à±ģà°ķ", "Ġà®®à®¾à®¤à®¿à®°", "Ġà°İà°¨à±įà°¨à±ģà°ķà±Ĭ", "Ġà®®à®¾à®¤à®¿à®°à®¿à®¯à®¾à®ķ", "Ġà°İà°¨à±įà°¨à±ģà°ķà±Ĭà°¨", "Ġà®ķà¯ģà®ªà¯įà®¤à®°à¯įà®ķà®³", "Ġà°İà°¨à±įà°¨à±ģà°ķà±Ĭà°¨à°¬à°¡à°¿à°¨", "Ġà®ķà¯ģà®ªà¯įà®¤à®°à¯įà®ķà®³à¯ģà®ķà¯įà®ķà¯ģà®ķà¯į", "Ġà°µà±ģà°Ĥà°Ł", "Ġà®ļà®Ł", "Ġà°µà±ģà°Ĥà°Łà±ģà°Ĥà°¦à°¿.", "Ġà®ļà®Łà®Ļà¯įà®ķà¯ģ", "Ġà°°à°¾à°·à±įà°Łà±įà°°à°¾à°²à±ģ:", "Ġà®ķà¯Ĭà®£à¯įà®Łà®¿à®°à¯ģà®ķà¯įà®ķ", "Ġà°ªà°Ł", "Ġà®ķà¯Ĭà®£à¯įà®Łà®¿à®°à¯ģà®ķà¯įà®ķà®¾à®®", "Ġà°ªà°Łà°Ĥà°²à±ĭ", "Ġà®ķà¯Ĭà®£à¯įà®Łà®¿à®°à¯ģà®ķà¯įà®ķà®¾à®®à®²à¯į", "Ġà°ļà±Ĥà°ª", "Ġà®ªà®ķà¯įà®¤à®¿à®¯à¯Ī", "Ġà°ļà±Ĥà°ªà°¬à°¡", "Ġà®ªà¯ģà®¤à¯ģà®ªà¯įà®ªà®¿à®ķà¯įà®ķà®ªà¯įà®ªà®Łà¯įà®Ł", "Ġà°ļà±Ĥà°ªà°¬à°¡à°¿à°Ĥà°¦à°¿", "Ġà®ļà®®à®¯à®®à®¾à®©à®¤à¯ģ", "Ġà°ħà°Ĥà°Łà°¾à°°à±įà°ķ", "Ġà®¨à®¿à®²à¯Īà®¯à¯Ī", "Ġà°ħà°Ĥà°Łà°¾à°°à±įà°ķà±įâĢĮ", "Ġà®īà®±à¯ģà®¤à®¿à®ªà¯įà®ªà®Łà¯ģà®¤à¯įà®¤à®¤à¯į", "Ġà°ħà°Ĥà°Łà°¾à°°à±įà°ķà±įâĢĮà°Łà°¿à°ķ", "Ġà®ªà¯ģà®¤à¯ģà®ªà¯įà®ªà®¿à®ªà¯įà®ª", "Ġà°ħà°Ĥà°Łà°¾à°°à±įà°ķà±įâĢĮà°Łà°¿à°ķà°¾à°²à±ĭ", "Ġà®ªà¯ģà®¤à¯ģà®ªà¯įà®ªà®¿à®ªà¯įà®ªà®¾à®©à®¤à¯ģ", "Ġà°ªà±įà°°à°¾à°¦à±ĩà°¶", "Ġà®ļà®¿à®±à¯įà®ª", "Ġà°ªà±įà°°à°¾à°¦à±ĩà°¶à°¿à°ķ", "Ġà®ļà®¿à®±à¯įà®ªà®Ļà¯įà®ķà®³à¯į", "Ġà°µà°¾à°¦à°¨", "Ġà®®à®²à®°à¯įà®¨à¯įà®¤", "Ġà°ļà±ĩà°¯à°²", "Ġà®®à®²à®°à¯įà®¨à¯įà®¤à®¤à®©à¯į", "Ġà°ļà±ĩà°¯à°²à±ĩà°¦", "Ġà®®à¯Ĥà®²à®®à¯į", "Ġà°ļà±ĩà°¯à°²à±ĩà°¦à±ģ", "Ġà®ªà®¿à®°à®¤", "Ġà°ķà°¾à°¨", "Ġà®ªà®¿à®°à®¤à®¿à®ª", "Ġà°ķà°¾à°¨à±Ģ", "Ġà®ªà®¿à®°à®¤à®¿à®ªà®²", "Ġà°Ĺà°Ĥà°Ĺà±ĭà°¤", "Ġà®ªà®¿à®°à®¤à®¿à®ªà®²à®¿à®ķà¯įà®ķà®ªà¯įà®ªà®Łà¯ģà®ķà®¿à®±à®¤à¯ģ.", "Ġà°Ĺà°Ĥà°Ĺà±ĭà°¤à±įà°°", "Ġà®īà®¯à®°à¯į", "Ġà°Ĺà°Ĥà°Ĺà±ĭà°¤à±įà°°à°¿,", "Ġà®ķà¯ģà®Łà®¿à®¯à®¿à®©", "Ġà°®à±Īà°¤", "Ġà®ķà¯ģà®Łà®¿à®¯à®¿à®©à®°à¯į", "Ġà°®à±Īà°¤à±įà°°", "Ġà®®à®¤à¯įà®¤", "Ġà°®à±Īà°¤à±įà°°à°¿", "Ġà®®à®¤à¯įà®¤à®¿à®¯à®¿à®²à¯į", "Ġà°ħà°¨à±ģ", "Ġà®ªà¯ģà®°à®µà®²à®°à¯įà®ķà®³", "Ġà°¶à°¾à°¸à±įà°¤à±įà°°", "Ġà®ªà¯ģà®°à®µà®²à®°à¯įà®ķà®³à¯Īà®ªà¯į", "Ġà°¶à°¾à°¸à±įà°¤à±įà°°à±Ģà°¯", "Ġà®ļà¯Ĩà®µà¯įà®µ", "Ġà°ļà±Ĥà°¡", "Ġà®ļà¯Ĩà®µà¯įà®µà®¿à®¯à®²à¯į", "Ġà°ļà±Ĥà°¡à°Ĥà°¡", "Ġà®ĩà®²à®ķà¯įà®ķà®¿à®¯à®®", "Ġà°ļà±Ĥà°¡à°Ĥà°¡à°¿", "Ġà®ĩà®²à®ķà¯įà®ķà®¿à®¯à®®à¯ģà®®à¯į", "Ġà°ļà±Ĥà°¡à°Ĥà°¡à°¿:", "Ġà®µà®³à®°à¯įà®¨à¯įà®¤", "Ġà°µà°¾à°°à°¿à°Ĺà°¾", "Ġà®µà®³à®°à¯įà®¨à¯įà®¤à®¤à¯ģ.", "Ġà°ľà°¾à°¬à°¿à°¤à°¾", "Ġà®ħà®±à®¿à®µà®¿à®¯à®²à¯į,", "Ġà°ļà°¾à°°à°¿à°¤à±įà°°à°ķà°Ĥà°Ĺà°¾", "Ġà®µà®¾à®©", "Ġà°Ĩà°§à°¾à°°à°", "Ġà®µà®¾à®©à®¿à®¯à®²à¯į,", "Ġà°Ĩà°§à°¾à°°à°ª", "Ġà®®à®°à¯ģà®¤à¯įà®¤", "Ġà°Ĩà°§à°¾à°°à°ªà°¡", "Ġà®®à®°à¯ģà®¤à¯įà®¤à¯ģà®µ", "Ġà°Ĩà°§à°¾à°°à°ªà°¡à°¿à°¨", "Ġà®®à®°à¯ģà®¤à¯įà®¤à¯ģà®µà®®à¯į", "Ġà°µà±įà°¯à°µ", "Ġà®ķà®£", "Ġà°µà±įà°¯à°µà°¸", "Ġà®ķà®£à®¿à®¤", "Ġà°µà±įà°¯à°µà°¸à°¾à°¯à°Ĥ", "Ġà®ķà®£à®¿à®¤à®®à¯į", "Ġà°¤à°Ĺà±įà°Ĺ", "Ġà®®à¯ģà®©à¯įà®©à¯ĩà®±à¯įà®±à®Ļà¯įà®ķà®³", "Ġà°¤à°Ĺà±įà°Ĺà°¿à°ªà±ĭà°¯à°¿à°Ĥà°¦à°¿.", "Ġà®®à¯ģà®©à¯įà®©à¯ĩà®±à¯įà®±à®Ļà¯įà®ķà®³à¯Īà®ªà¯į", "Ġà°¸à±įà°¥à±Ĥà°²", "Ġà®ªà¯Ĩà®±à¯įà®±à®©.", "Ġà°¸à±įà°¥à±Ĥà°²à°¾à°¦à°¾à°¯à°Ĥà°²à±ĭ", "Ġà®¨à®Łà¯ģà®ķà¯įà®ķ", "Ġ25", "Ġà®¨à®Łà¯ģà®ķà¯įà®ķà®¾à®²", "Ġ25%", "Ġà®ķà®¾à®²à®®à®¾à®©à®¤à¯ģ", "Ġà°ķà°Ĥà°Łà±ĩ", "Ġ600", "Ġà°¤à°ķà±įà°ķà±ģà°µà±ĩ.", "Ġà®¨à¯Ģà®Łà®¿à®¤à¯įà®¤à®¿à®°à¯ģà®¨à¯įà®¤à®¤à¯ģ.", "Ġà°Ĺà°¨à±ģà°²à±ģ,", "Ġà®ªà®£à¯įà®ªà®¾à®Łà¯įà®Łà¯ģ", "Ġà°ªà±Ĩà°Ł", "Ġà®µà¯ĩà®±à¯įà®±à¯ģà®®à¯Ī", "Ġà°ªà±Ĩà°Łà±įà°°", "Ġà®Ĩà®ķà®¿à®¯à®µà®±à¯įà®±à¯Ī", "Ġà°ªà±Ĩà°Łà±įà°°à±ĭà°²", "Ġà®ĩà®¯à®²", "Ġà°ªà±Ĩà°Łà±įà°°à±ĭà°²à°¿à°¯", "Ġà®ĩà®¯à®²à¯įà®ª", "Ġà°ªà±Ĩà°Łà±įà°°à±ĭà°²à°¿à°¯à°Ĥ,", "Ġà®ĩà®¯à®²à¯įà®ªà¯ģà®ķà®³", "Ġà°µà°ľ", "Ġà®ĩà®¯à®²à¯įà®ªà¯ģà®ķà®³à®¾à®ķà®ķà¯į", "Ġà°µà°ľà±įà°°", "Ġà®ķà®©", "Ġà°µà°ľà±įà°°à°¾à°²à±ģ,", "Ġà®ķà®©à¯įà®©", "Ġà°¸à°¿à°¨", "Ġà®ķà®©à¯įà®©à¯ĭ", "Ġà°¸à°¿à°¨à°¿à°®", "Ġà®ķà®©à¯įà®©à¯ĭà®ļ", "Ġà°¸à°¿à°¨à°¿à°®à°¾à°²à±ģ,", "Ġà®ķà®©à¯įà®©à¯ĭà®ļà®¿à®¯à®¿à®©à¯į", "Ġà°ľà±Į", "Ġà®¹à®°à¯įà®·", "Ġà°ľà±Įà°³à°¿,", "Ġà®¹à®°à¯įà®·à®µà®°", "Ġà°ĩà°¨à±įâĢĮ", "Ġà®¹à®°à¯įà®·à®µà®°à¯įà®¤", "Ġà°ĩà°¨à±įâĢĮà°«", "Ġà®¹à®°à¯įà®·à®µà®°à¯įà®¤à®©à®°à¯į", "Ġà°ĩà°¨à±įâĢĮà°«à°°à±įà°", "Ġà®ħà®¨à¯įà®¨", "Ġà°ĩà°¨à±įâĢĮà°«à°°à±įà°®", "Ġà®ħà®¨à¯įà®¨à¯ĩà®°", "Ġà°ĩà°¨à±įâĢĮà°«à°°à±įà°®à±ĩà°·", "Ġà®ħà®¨à¯įà®¨à¯ĩà®°à®¤à¯įà®¤à®¿à®²à¯į", "Ġà°ĩà°¨à±įâĢĮà°«à°°à±įà°®à±ĩà°·à°¨", "à®ķà®Ļà¯įà®ķà¯Ī", "Ġà°ĩà°¨à±įâĢĮà°«à°°à±įà°®à±ĩà°·à°¨à±į", "à®ķà®Ļà¯įà®ķà¯Īà®ļà¯į", "Ġà°Łà±Ĩ", "Ġà®ļà®®à®µà¯Ĩà®³à®¿à®¯à¯Ī", "Ġà°Łà±Ĩà°ķ", "Ġ60", "Ġà°Łà±Ĩà°ķà±įà°¨", "Ġ606", "Ġà°Łà±Ĩà°ķà±įà°¨à°¾à°²", "Ġ647", "Ġà°Łà±Ĩà°ķà±įà°¨à°¾à°²à°ľ", "Ġà®Ĩà®£à¯įà®Łà®¾à®°à¯į.", "Ġà°Łà±Ĩà°ķà±įà°¨à°¾à°²à°ľà±Ģ,", "Ġà®®à¯ĩà®±à¯įà®ķà¯Ĭ", "Ġà°¹à°¸à±įà°¤", "Ġà®®à¯ĩà®±à¯įà®ķà¯Ĭà®£à¯įà®Ł", "Ġà°ķà°³à°²à±ģ", "Ġà®®à¯ĩà®±à¯įà®ķà¯Ĭà®£à¯įà®Łà®¾à®°à¯į.", "Ġà°ķà°³à°²à±ģ.", "Ġà®¤à®ķà¯įà®ķà®¾à®£à®¤à¯įà®¤à®¿à®©à¯į", "Ġà°ªà°¾à°°à°¿à°¶", "Ġà®Ĩà®Łà¯įà®ļà®¿à®¯à®¾à®³à®°à®¾à®²à¯į", "Ġà°ªà°¾à°°à°¿à°¶à±įà°°à°¾à°®", "Ġà®ĩà®µà®°", "Ġà°ªà°¾à°°à°¿à°¶à±įà°°à°¾à°®à°¿à°ķ", "Ġà®ĩà®µà®°à¯ģà®ķà¯įà®ķà¯ģà®ªà¯į", "Ġà°ªà°Łà±įà°Łà°£à°¾à°²", "Ġà®ªà®¿à®©à¯į", "Ġà°ļà±ģà°Łà±įà°Ł", "Ġà®Ĩà®Łà¯įà®ļà®¿à®ķà¯įà®ķ", "Ġà°ļà±ģà°Łà±įà°Łà±Ĥ", "Ġà®Ĩà®Łà¯įà®ļà®¿à®ķà¯įà®ķà¯ģ", "Ġà°ķà±ĩà°Ĥà°¦à±įà°°à±Ģà°ķ", "Ġà®µà®¨à¯įà®¤à®µ", "Ġà°ķà±ĩà°Ĥà°¦à±įà°°à±Ģà°ķà±ĥà°¤", "Ġà®µà®¨à¯įà®¤à®µà®°à¯į", "Ġà°ķà±ĩà°Ĥà°¦à±įà°°à±Ģà°ķà±ĥà°¤à°®à±Ī", "Ġà®®à¯ģà®¯à®±à¯įà®ļ", "Ġà°Ĺà°¤", "Ġà®®à¯ģà®¯à®±à¯įà®ļà®¿à®¤à¯įà®¤", "Ġà°¸à°Ĥà°µà°¤à±įà°¸à°°à°¾à°²à°²à±ĭ", "Ġà®ħà®µà®°", "Ġà°¸à°¾à°«", "Ġà®ħà®µà®°à¯ģà®®à¯į", "Ġà°¸à°¾à°«à±įà°Ł", "Ġà®µà®Ļà¯įà®ķà®¾à®³à®¤à¯įà®¤à®¿à®©à¯į", "Ġà°¸à°¾à°«à±įà°Łà±įâĢĮ", "Ġà®®à®©à¯įà®©à®©à®¾à®²à¯į", "Ġà°¸à°¾à°«à±įà°Łà±įâĢĮà°µ", "Ġà®ļà®¾à®³à¯ģà®ķà¯įà®ķà®¿à®¯à®°à¯įà®ķà®³à¯į", "Ġà°¸à°¾à°«à±įà°Łà±įâĢĮà°µà±ĩà°°", "Ġà®®à¯ĩà®²à¯ģà®®à¯į", "Ġà°¸à°¾à°«à±įà°Łà±įâĢĮà°µà±ĩà°°à±į,", "Ġà®ªà®²à¯įà®²à®µà®°à¯įà®ķà®³à®¾à®²à¯į", "Ġà°¬à°¿à°ľ", "Ġà®¤à¯ĭà®±à¯įà®ķà®Łà®¿à®ķà¯įà®ķà®ªà¯įà®ªà®Łà¯įà®Łà®©à®°à¯į.", "Ġà°¬à°¿à°ľà°¿à°¨", "Ġà®ªà®²à¯įà®²à®µà®°à¯įà®ķà®³à¯ģà®®à¯į", "Ġà°¬à°¿à°ľà°¿à°¨à±Ĩà°¸à±į", "Ġà®ĩà®©à¯įà®©", "Ġà°ªà±įà°°à°¾à°¸", "Ġà®ĩà®©à¯įà®©à¯ģà®®à¯į", "Ġà°ªà±įà°°à°¾à°¸à±Ĩà°¸à±į", "Ġà®ªà®¾à®£à¯įà®Łà®¿à®¯à®°à¯į", "Ġà°Ķ", "Ġà®ļà¯ĭà®´à®°à¯įà®ķà®³", "Ġà°Ķà°Ł", "Ġà®ļà¯ĭà®´à®°à¯įà®ķà®³à®¾à®²à¯į", "Ġà°Ķà°Łà±įâĢĮà°¸", "Ġà®İà®¤à®¿à®°à¯įà®ķà¯įà®ķ", "Ġà°Ķà°Łà±įâĢĮà°¸à±Ĭ", "Ġà®İà®¤à®¿à®°à¯įà®ķà¯įà®ķà®ªà¯įà®ªà®Łà¯įà®Ł", "Ġà°Ķà°Łà±įâĢĮà°¸à±Ĭà°°à±įà°", "Ġà®İà®¤à®¿à®°à¯įà®ķà¯įà®ķà®ªà¯įà®ªà®Łà¯įà®Łà®©à®°à¯į.", "Ġà°Ķà°Łà±įâĢĮà°¸à±Ĭà°°à±įà°¸", "Ġà®İà®¨à¯įà®¤", "Ġà°Ķà°Łà±įâĢĮà°¸à±Ĭà°°à±įà°¸à°¿à°Ĥà°Ĺ", "Ġà®Ĩà®Łà¯įà®ļà®¿à®¯à®¾à®³à®°", "Ġà°Ķà°Łà±įâĢĮà°¸à±Ĭà°°à±įà°¸à°¿à°Ĥà°Ĺà±į", "Ġà®Ĩà®Łà¯įà®ļà®¿à®¯à®¾à®³à®°à®¾à®²à¯ģà®®à¯į", "Ġà°°à°Ĥà°Ĺà°¾à°²à±įà°²à±ĭ", "Ġà®ªà¯ĩà®°à®°à®ļà¯Ī", "Ġà°ķà±ĩà°Ĥà°¦à±įà°°à°¾à°²à±įà°²à±ĭ", "Ġà®īà®°à¯ģà®µà®¾à®ķà¯įà®ķà®µà¯ĭ", "Ġà°°à±Ĥà°ªà±Ĭ", "Ġà®ªà®ķà¯ģà®¤à®¿à®¯à¯Īà®¤à¯į", "Ġà°°à±Ĥà°ªà±Ĭà°Ĥà°¦", "Ġà®¤à®¾à®£à¯įà®Ł", "Ġà°°à±Ĥà°ªà±Ĭà°Ĥà°¦à°¿à°Ĥà°¦à°¿.", "Ġà®¤à®¾à®£à¯įà®Łà®¿", "Ġ2003", "Ġà®¤à¯Ĭà®²à¯Īà®µ", "Ġà®¤à¯Ĭà®²à¯Īà®µà®¿à®²à¯į", "2004", "Ġà®¨à®¿à®²à®Ļà¯įà®ķà®³à¯Ī", "Ġà°°à°Ĥà°Ĺà°¾à°²", "Ġà®¨à®¿à®²à®Ļà¯įà®ķà®³à¯Īà®¤à¯į", "Ġà°Ĩà°¦", "Ġà®¤à¯Ĭà®Łà®°à¯įà®¨à¯įà®¤à¯ģ", "Ġà°Ĩà°¦à°¾à°¯à°Ĥ", "Ġà®µà¯Īà®ķà¯įà®ķà®µà¯ĭ", "Ġ1250", "Ġà®ĩà®¯à®²à®µ", "Ġà°¡", "Ġà®ĩà®¯à®²à®µà®¿à®²à¯įà®²", "Ġà°¡à°¾à°²", "Ġà®ĩà®¯à®²à®µà®¿à®²à¯įà®²à¯Ī", "Ġà°¡à°¾à°²à°°à±įà°²", "Ġà®ĩà®¯à®²à®µà®¿à®²à¯įà®²à¯Ī.", "Ġà°¡à°¾à°²à°°à±įà°²à±ģ.", "Ġà®®à¯ĩà®¯", "Ġà°ªà°²à±įà°²à±Ĩà°²", "Ġà®®à¯ĩà®¯à¯įà®ļ", "Ġà°ªà°²à±įà°²à±Ĩà°²à±įà°²à±ĭ", "Ġà®®à¯ĩà®¯à¯įà®ļà¯įà®ļ", "Ġà°ªà°²à±įà°²à±Ĩà°²à±įà°²à±ĭà°¨à°¿", "Ġà®®à¯ĩà®¯à¯įà®ļà¯įà®ļà®²à¯į", "Ġà°ªà±įà°°à°ľà°²à°ķà±ģ", "Ġà®¨à®¿à®²à®Ļà¯įà®ķà®³à®¾à®©à®µà¯Ī", "Ġà°¸à±įà°¥à°¿à°", "Ġà®µà¯ĩà®³à®¾à®£à¯įà®®", "Ġà°¸à±įà°¥à°¿à°°à°", "Ġà®µà¯ĩà®³à®¾à®£à¯įà®®à¯Īà®ªà¯į", "Ġà°¸à±įà°¥à°¿à°°à°®", "Ġà®ªà¯Ĭà®°à¯ģà®³à®¾à®¤à®¾à®°à®¤à¯įà®¤à¯ģà®ķà¯įà®ķà¯ģ", "Ġà°¸à±įà°¥à°¿à°°à°®à±Īà°¨", "Ġà®µà®¿à®Łà¯ģà®µ", "Ġà°īà°ªà°¾à°§", "Ġà®µà®¿à®Łà¯ģà®µà®¤à®±à¯įà®ķ", "Ġà°īà°ªà°¾à°§à°¿", "Ġà®µà®¿à®Łà¯ģà®µà®¤à®±à¯įà®ķà®¾à®ķ", "Ġà°ķà°²à±įà°ªà°¿à°Ĥà°ļà±ĩ", "Ġà®ħà®´à®¿à®ķà¯įà®ķà®ªà¯įà®ªà®Łà¯įà®Ł", "Ġà°²à°", "Ġà®ħà®´à®¿à®ķà¯įà®ķà®ªà¯įà®ªà®Łà¯įà®Łà®©.", "Ġà°²à°ĺ", "Ġà®ļà®®à¯Ĥà®ķà®¤à¯įà®¤à®¿à®±à¯įà®ķà¯ģà®³à¯į", "Ġà°²à°ĺà±ģ", "Ġà®ªà®¾à®°à®®à¯įà®ªà®°à®¿à®¯à®®à¯į", "Ġà°ıà°Ł", "Ġà®ªà¯ģà®¤à®¿à®¯", "Ġà°ıà°Łà°¾", "Ġà®Ĩà®³à¯ģà®®à¯į", "Ġà°¦à±ĩà°¶à°¾à°¨à±įà°¨à°¿", "Ġà®µà®ķà¯ģà®ªà¯įà®ªà®¿à®©à®°à¯ģà®®à¯į", "Ġà°¸à°Ĥà°¦", "Ġà®ĩà®µà¯įà®µ", "Ġà°¸à°Ĥà°¦à°°à±įà°", "Ġà®ĩà®µà¯įà®µà®¾à®±à¯ģ", "Ġà°¸à°Ĥà°¦à°°à±įà°¶", "Ġà®µà¯ĩà®±à¯ģà®ª", "Ġà°¸à°Ĥà°¦à°°à±įà°¶à°¿à°Ĥà°ļà±ĩ", "Ġà®µà¯ĩà®±à¯ģà®ªà®¾à®Łà¯ģà®ķà®³", "Ġà°µà°¿à°¦à±ĩà°¶", "Ġà®µà¯ĩà®±à¯ģà®ªà®¾à®Łà¯ģà®ķà®³à¯Īà®ķà¯į", "Ġà°µà°¿à°¦à±ĩà°¶à±Ģ", "Ġà®ķà®¾à®Łà¯įà®Łà®¤à¯į", "Ġà°¯à°¾à°¤à±įà°°", "Ġà®¨à¯Ĥà®±à¯įà®±à®¾à®£à¯įà®Łà¯ģà®ķà®³à®¿à®²à¯į", "Ġà°¯à°¾à°¤à±įà°°à°¿à°ķ", "Ġà®¤à®®à®¿à®´à®¿à®²à¯į", "Ġà°¯à°¾à°¤à±įà°°à°¿à°ķà±ģà°²à±ģ", "Ġà®ªà®ķà¯įà®¤à®¿", "Ġà®ªà®¾à®Łà®²à¯įà®ķà®³à¯į", "Ġà°²à°ķà±įà°·à°²", "Ġà®īà®°à¯ģà®µà®¾à®ķà¯įà®ķà®ªà¯įà®ªà®Łà¯įà®Łà®©.", "Ġà°ħà°¯à°¿à°¨à°ªà±įà°ªà°Łà°¿à°ķà±Ģ,", "Ġà®®à¯ģà®´à¯ģà®µ", "Ġà°ľà°¾à°¤à±Ģà°¯à°¾à°¦à°¾à°¯à°Ĥà°²à±ĭ", "Ġà®®à¯ģà®´à¯ģà®µà®¤", "Ġà°°à°Ĥà°Ĺà°Ĥ", "Ġà®®à¯ģà®´à¯ģà®µà®¤à¯ģà®®à¯į", "Ġà°ªà±įà°°à°®à±ģà°ĸà°®à±Īà°¨", "Ġà®¨à®Łà®¤à¯įà®¤à¯Īà®¯", "Ġà°ªà±įà°°à°®à±ģà°ĸà°®à±Īà°¨à°¦", "Ġà®¨à®Łà®¤à¯įà®¤à¯Īà®¯à®¾à®©à®¤à¯ģ", "Ġà°ªà±įà°°à°®à±ģà°ĸà°®à±Īà°¨à°¦à±ĩ.", "Ġà®ªà®¿à®©à¯įà®ªà®±à¯įà®±à®ªà¯įà®ªà®Łà¯įà®Łà®¤à¯ģ.", "Ġà°ħà°®à±Ĩ", "Ġà®ªà¯ģà®¤à¯įà®¤à¯Ĩ", "Ġà°ħà°®à±Ĩà°°à°¿à°ķ", "Ġà®ªà¯ģà®¤à¯įà®¤à¯Ĩà®´", "Ġà°ħà°®à±Ĩà°°à°¿à°ķà°¾,", "Ġà®ªà¯ģà®¤à¯įà®¤à¯Ĩà®´à¯ģà®ļ", "Ġà°¯à±ģ.", "Ġà®ªà¯ģà®¤à¯įà®¤à¯Ĩà®´à¯ģà®ļà¯įà®ļà®¿", "à°ı", "Ġà®ķà®£à¯įà®Łà®¤à¯įà®¤à®¿à®©à¯į", "à°ı.", "Ġà®®à¯Ĭà®´à®¿à®ķà®³à®¿à®©à¯į", "à°ĩ,", "Ġà®µà®³à®°à¯įà®ļà¯įà®ļà®¿à®ķà¯įà®ķà¯ģà®®à¯į", "Ġà°¸à°®à°¾à°ĸà±įà°¯à°²à±ģ", "Ġà®ķà¯ģà®Łà¯ģà®®à¯įà®ªà®Ļà¯įà®ķà®³à¯į", "Ġà°µà±įà°¯à°¾à°ªà°¾à°°", "Ġà®ħà®µà®°à¯įà®ķà®³à®¾à®²à¯į", "Ġà°Ńà°¾à°Ĺà°¸", "Ġà®ªà¯ģà®°à®µà®²à®¤à¯į", "Ġà°Ńà°¾à°Ĺà°¸à±įà°µà°¾à°®", "Ġà®ķà¯ĭà®¯à®¿à®²", "Ġà°Ńà°¾à°Ĺà°¸à±įà°µà°¾à°®à±ģà°²à±ģ", "Ġà®ķà¯ĭà®¯à®¿à®²à¯įà®ķà®³à¯į", "Ġà°Ńà°¾à°Ĺà°¸à±įà°µà°¾à°®à±ģà°²à±ģ.", "Ġà®¨à®ķà®°à®Ļà¯įà®ķà®³à¯ģà®ķà¯įà®ķà¯ģà®ªà¯į", "Ġà°µà°¿à°µà°°à°¾à°²à±ģ", "Ġà®İà®£à¯įà®£à®¿à®ķà¯įà®ķà¯Īà®¯à®¿à®²à®¾à®©", "Ġà°ªà±įà°°à°ªà°Ĥà°ļà°¦à±ĩà°¶", "Ġà®ķà¯ģà®Łà®¿", "Ġà°ªà±įà°°à°ªà°Ĥà°ļà°¦à±ĩà°¶à°¾à°²à°²à±ĭ", "Ġà®µà®°à®µ", "Ġà°¨à±Ĥà°Ł", "Ġà®µà®°à®µà®´", "Ġà°¨à±Ĥà°Łà°¨", "Ġà®µà®°à®µà®´à¯Īà®¤à¯įà®¤", "Ġà°¨à±Ĥà°Łà°¨à°²", "Ġà®µà®°à®µà®´à¯Īà®¤à¯įà®¤à®©.", "Ġà°¨à±Ĥà°Łà°¨à°²à°¬", "Ġà®®à¯Īà®¯à®Ļà¯įà®ķà®³", "Ġà°¨à±Ĥà°Łà°¨à°²à°¬à±Ī", "Ġà®®à¯Īà®¯à®Ļà¯įà®ķà®³à®¾à®ķ", "Ġà°¨à±Ĥà°Łà°¨à°²à°¬à±Īà°°", "Ġà®®à¯Īà®¯à®Ļà¯įà®ķà®³à®¾à®ķà®µà¯ģà®®à¯į", "Ġà°¨à±Ĥà°Łà°¨à°²à°¬à±Īà°°à±Ĩà°Ĥà°¡", "Ġà®®à®±à¯įà®±à¯ģà®®", "Ġà°¨à±Ĥà°Łà°¨à°²à°¬à±Īà°°à±Ĩà°Ĥà°¡à±ģà°ķà±ĭ", "Ġà®®à®±à¯įà®±à¯ģà®®à¯Ĭ", "Ġà°¨à±Ĥà°Łà°¨à°²à°¬à±Īà°°à±Ĩà°Ĥà°¡à±ģà°ķà±ĭà°Łà±įà°²", "Ġà®®à®±à¯įà®±à¯ģà®®à¯Ĭà®°à¯ģ", "Ġà°¨à±Ĥà°Łà°¨à°²à°¬à±Īà°°à±Ĩà°Ĥà°¡à±ģà°ķà±ĭà°Łà±įà°²à°ķà±ģ", "Ġà®¨à®ķà®°à®®à®¯à®®à®¾à®ķà¯įà®ķà®²à®¿à®©à¯į", "Ġà°ħà°§", "Ġà®ļà¯Ĩà®©à¯įà®±à®¤", "Ġà°ħà°§à°¿à°Ĺ", "Ġà®ļà¯Ĩà®©à¯įà®±à®¤à®¾à®²à¯į", "Ġà°ħà°§à°¿à°Ĺà°®à°¿à°Ĥà°ļ", "Ġà®ħà®³à®µà¯ģà®ķà®³à®¿à®²à¯į", "Ġà°ħà°§à°¿à°Ĺà°®à°¿à°Ĥà°ļà°¿", "Ġà®ķà¯ĭà®¯à®¿à®²à¯į", "Ġà°Ĵà°ķà°Łà±ĭ", "Ġà®ªà®Łà¯įà®Ł", "Ġà°¨à°¿à°²à°¿à°ļ", "Ġà®ªà®Łà¯įà®Łà®£", "Ġà°¨à°¿à°²à°¿à°ļà°¿à°Ĥà°¦à°¿.", "Ġà®ªà®Łà¯įà®Łà®£à®Ļà¯įà®ķà®³à¯į", "Ġà°Ńà°¿à°¨à±įà°¨à°¤à±įà°µ", "Ġà®¤à¯ĭà®©à¯įà®±à®¤à¯į", "Ġà°Ńà°¿à°¨à±įà°¨à°¤à±įà°µà°¾à°²à±ģ", "Ġà®¤à¯Ĭà®Łà®Ļà¯įà®ķà®¿à®©.", "Ġà°¸à°¾à°®à°¾à°ľ", "Ġà°¸à°¾à°®à°¾à°ľà°¿à°ķ,", "Ġà®µà®¿à®³", "Ġà°µà°°à±įà°Ĺà±Ģà°ķ", "Ġà®µà®¿à®³à¯Īà®µ", "Ġà°µà°°à±įà°Ĺà±Ģà°ķà°°à°£", "Ġà®µà®¿à®³à¯Īà®µà¯ģà®ķà®³à¯į", "Ġà°µà°°à±įà°Ĺà±Ģà°ķà°°à°£à°²à±ĭ", "Ġà®ķà®¿à®´à®ķà¯įà®ķà®¾à®ļà®¿à®¯à®¾à®µ", "Ġà°Ńà°¾à°·,", "Ġà®ķà®¿à®´à®ķà¯įà®ķà®¾à®ļà®¿à®¯à®¾à®µà®¿à®²", "Ġà°®à°¤à°Ĥ,", "Ġà®ķà®¿à®´à®ķà¯įà®ķà®¾à®ļà®¿à®¯à®¾à®µà®¿à®²à¯ģà®®à¯į", "Ġà°ķà±ģà°²à°Ĥ", "Ġà®īà®£à®°", "Ġà°µà°¹à°¿à°¸à±įà°¤", "Ġà®īà®£à®°à®ªà¯įà®ªà®Łà¯įà®Łà®©.", "Ġà°µà°¹à°¿à°¸à±įà°¤à°¾à°¯à°¿.", "Ġà®¤à¯Ĩà®©à¯įà®©à®¿à®¨à¯įà®¤à®¿à®¯à®ªà¯į", "Ġà®ĩà®¨à¯įà®¨à®¿à®²à®Ļà¯įà®ķà®³à¯ģà®ķà¯įà®ķà¯ģ", "Ġà°¬à°¾à°Ĥà°¬", "Ġà®ıà®±à¯įà®±à¯ģà®®", "Ġà°¬à°¾à°Ĥà°¬à±ĩ", "Ġà®ıà®±à¯įà®±à¯ģà®®à®¤", "Ġà°¬à°¾à°Ĥà°¬à±ĩ),", "Ġà°ķà°²à°ķ", "Ġà°ķà°²à°ķà°¤à±įà°¤", "Ġà°ķà°²à°ķà°¤à±įà°¤à°¾", "Ġà°ķà°²à°ķà°¤à±įà°¤à°¾),", "Ġà°®à°¦", "Ġà°®à°¦à±įà°°", "Ġà°®à°¦à±įà°°à°¾à°¸", "Ġà°®à°¦à±įà°°à°¾à°¸à±ģ", "Ġà°®à°¦à±įà°°à°¾à°¸à±ģ),", "Ġà°¹à±Īà°¦à°°à°¾à°¬à°¾à°¦à±į,", "Ġà°²à±Ĩà°ķà±įà°ķ", "Ġà°²à±Ĩà°ķà±įà°ķà°²à±ģ", "Ġ121,", "01,", "93,", "422", "422.", "Ġà°Ĩà°ķà±įà°·à°°à°¾à°¸à±įà°¯à°¤", "Ġ83,", "04%,", "Ġà°ĩà°Ĥà°¦à±ģà°²à±ĭ", "Ġà°ªà±ģà°°à±ģà°·à±ģà°²", "Ġ82,", "14%,", "Ġà°®à°¹à°¿à°³", "Ġà°®à°¹à°¿à°³à°²", "Ġ75,", "7%.", "Ġà°ªà±įà°°à°¤à°¿", "Ġ1000", "Ġà°ªà±ģà°°à±ģà°·à±ģà°²à°ķà±ģ", "Ġ101", "Ġ1010", "Ġà°¸à±įà°¤", "Ġà°¸à±įà°¤à±įà°°à±Ģ", "Ġà°¸à±įà°¤à±įà°°à±Ģà°²à±ģ", "Ġà°ľà°¨à°Ĺ", "Ġà°ľà°¨à°Ĺà°£", "Ġà°ľà°¨à°Ĺà°£à°¨", "Ġà°ªà±įà°°à°ķà°¾à°°à°Ĥ,", "Ġ83.", "80%", "Ġà°¹à°¿à°Ĥà°¦à±ģà°µ", "Ġà°¹à°¿à°Ĥà°¦à±ģà°µà±ģà°²", "Ġà°¹à°¿à°Ĥà°¦à±ģà°µà±ģà°²à±Īà°¨", "Ġà°¹à°¿à°Ĥà°¦à±ģà°µà±ģà°²à±Īà°¨à°ªà±įà°ªà°Łà°¿à°ķ", "Ġà°¹à°¿à°Ĥà°¦à±ģà°µà±ģà°²à±Īà°¨à°ªà±įà°ªà°Łà°¿à°ķà±Ģ,", "Ġà°°à±Ĩà°Ĥà°¡à±ĭ", "Ġà°īà°¨à±įà°¨à°¾à°°à±ģ", "17", "17.", "23%", "23%).", "Ġà°®à°¤à°¾à°²à±ģ", "Ġà°®à°¤à°¾à°²à±ģ:", "Ġà°ķà±įà°°à±Ī", "Ġà°ķà±įà°°à±Īà°¸à±įà°¤", "Ġà°ķà±įà°°à±Īà°¸à±įà°¤à°µ", "Ġà°ķà±įà°°à±Īà°¸à±įà°¤à°µà±ģà°²à±ģ", "5.", "30%),", "Ġà°¸à°¿à°ķà±įà°ķà±ģà°²à±ģ", "72", "72%),", "Ġà°¬à±Įà°¦à±įà°§à±ģà°²à±ģ", "8.", "70%),", "Ġà°ľà±Īà°¨à±ģà°²à±ģ", "36", "36%),", "Ġà°ĩà°¤à°°à±ģà°²à±ģ", "9%", "9%)", "Ġ(à°¯", "Ġ(à°¯à±Ĥà°", "Ġ(à°¯à±Ĥà°¦", "Ġ(à°¯à±Ĥà°¦à±ģà°²à±ģ,", "Ġà°ªà°¾à°°à±įà°", "Ġà°ªà°¾à°°à±įà°¸", "Ġà°ªà°¾à°°à±įà°¸à±Ģ", "Ġà°ªà°¾à°°à±įà°¸à±Ģà°²à±ģ,", "Ġà°ħà°¹à±įà°®", "Ġà°ħà°¹à±įà°®à°¦", "Ġà°ħà°¹à±įà°®à°¦à±Ģà°¯", "Ġà°ħà°¹à±įà°®à°¦à±Ģà°¯à±ģà°²à±ģ,", "Ġà°¬à°¹à°¾à°¯", "Ġà°¬à°¹à°¾à°¯à±Ģ", "Ġà°¬à°¹à°¾à°¯à±Ģà°²à±ģ", "Ġà°®à±Ĭà°¦à°²à°Ĺà±ģà°¨", "Ġà°®à±Ĭà°¦à°²à°Ĺà±ģà°¨à°µà°¿", "Ġà°®à±Ĭà°¦à°²à°Ĺà±ģà°¨à°µà°¿).", "Ġà°®à°¤à°¸à±įà°¤", "Ġà°®à°¤à°¸à±įà°¤à±ģà°²à±ģ", "Ġà°ľà°¾à°¬à°¿à°¤à°¾à°²à±ĭ", "Ġà°®à±Ĥà°¡à°µ", "Ġà°¸à°Ĥà°¬", "Ġà°¸à°Ĥà°¬à°Ĥà°", "Ġà°¸à°Ĥà°¬à°Ĥà°§", "Ġà°ķà°¾à°°à±įà°¯à°ķà±įà°°à°®à°¾à°²à±ģ", "Ġà°Ńà°ķà±įà°¤", "Ġà°Ńà°ķà±įà°¤à°¿à°¶", "Ġà°Ńà°ķà±įà°¤à°¿à°¶à±įà°°à°¦", "Ġà°Ńà°ķà±įà°¤à°¿à°¶à±įà°°à°¦à±įà°§", "Ġà°Ńà°ķà±įà°¤à°¿à°¶à±įà°°à°¦à±įà°§à°²à°¤à±ĭ", "Ġà°Ńà°ķà±įà°¤à°¿à°¶à±įà°°à°¦à±įà°§à°²à°¤à±ĭ,", "Ġà°īà°¤à±įà°¸", "Ġà°īà°¤à±įà°¸à°¾à°¹", "Ġà°īà°¤à±įà°¸à°¾à°¹à°Ĥà°Ĺà°¾,", "Ġà°¬à°¹à°¿à°°", "Ġà°¬à°¹à°¿à°°à°Ĥà°Ĺ", "Ġà°¬à°¹à°¿à°°à°Ĥà°Ĺà°Ĥà°Ĺà°¾", "Ġà°®à°¤à°¾à°²", "Ġà°ķà°²à°Ĺà°²", "Ġà°ķà°²à°Ĺà°²à±ģà°ª", "Ġà°ķà°²à°Ĺà°²à±ģà°ªà±ģ", "Ġà°ħà°Ĥà°¦", "Ġà°ħà°Ĥà°¦à°°", "Ġà°ħà°Ĥà°¦à°°à±Ĥ", "Ġà°¬à°¾à°Ĺà°¾", "Ġà°µà°¿à°¸à±įà°¤à±ĥà°¤", "Ġà°µà°¿à°¸à±įà°¤à±ĥà°¤à°Ĥà°Ĺà°¾", "Ġà°ľà°°à±ģà°ªà±ģà°ķ", "Ġà°ľà°°à±ģà°ªà±ģà°ķà±ģà°¨", "Ġà°ľà°°à±ģà°ªà±ģà°ķà±ģà°¨à±ĩ", "Ġà°¶à±įà°°à±Ģà°°", "Ġà°¶à±įà°°à±Ģà°°à°¾à°®", "Ġà°¶à±įà°°à±Ģà°°à°¾à°®à°¨à°µ", "Ġà°¶à±įà°°à±Ģà°°à°¾à°®à°¨à°µà°®", "Ġà°¶à±įà°°à±Ģà°°à°¾à°®à°¨à°µà°®à°¿,", "Ġà°µà°¿à°¨", "Ġà°µà°¿à°¨à°¾à°¯à°ķ", "Ġà°ļà°µà°¿à°¤", "Ġà°ļà°µà°¿à°¤à°¿,", "Ġà°¸à°Ĥà°ķà±įà°°", "Ġà°¸à°Ĥà°ķà±įà°°à°¾à°Ĥà°¤", "Ġà°¸à°Ĥà°ķà±įà°°à°¾à°Ĥà°¤à°¿,", "Ġà°¦à±Ģà°ª", "Ġà°¦à±Ģà°ªà°¾à°µ", "Ġà°¦à±Ģà°ªà°¾à°µà°³à°¿,", "Ġà°¹à±Ĭ", "Ġà°¹à±Ĭà°²", "Ġà°¹à±Ĭà°²à±Ģ,", "Ġà°¦à°¸", "Ġà°¦à°¸à°°", "Ġà°¦à°¸à°°à°¾", "Ġà°¦à°¸à°°à°¾.", "Ġà°Ńà°¾à°·à°¾", "Ġà°ķà±ģà°Ł", "Ġà°ķà±ģà°Łà±ģà°Ĥà°", "Ġà°ķà±ģà°Łà±ģà°Ĥà°¬", "Ġà°ķà±ģà°Łà±ģà°Ĥà°¬à°¾à°²à°ķà±ģ", "Ġà°ľà°¨à±įà°®à°¸à±įà°¥à°¾à°¨", "Ġà°ľà°¨à±įà°®à°¸à±įà°¥à°¾à°¨à°Ĥ.", "Ġà°ħà°µà°¿,", "à°Ĩ", "à°Ĩà°°à±įà°¯", "à°Ĩà°°à±įà°¯à°¨", "à°Ĩà°°à±įà°¯à°¨à±į,", "Ġà°¦à±įà°°", "Ġà°¦à±įà°°à°¾à°µ", "Ġà°¦à±įà°°à°¾à°µà°¿à°", "Ġà°¦à±įà°°à°¾à°µà°¿à°¡", "Ġà°Ńà°¾à°·à°²à±ģ.", "Ġ22", "Ġà°ħà°§à°¿à°ķà°¾à°°à°¿à°ķ", "Ġà°ħà°§à°¿à°ķà°¾à°°à°¿à°ķà°Ĥà°Ĺà°¾", "Ġà°Ĺà±ģà°°à±įà°¤à°¿à°Ĥà°ļà°¿à°Ĥà°¦à°¿.", "Ġà°ķà°¾à°°à±įà°¯à°ķà±įà°°à°®à°¾à°²à°²à±ĭ", "Ġà°¹à°¿à°Ĥà°¦à±Ģ,", "Ġà°ĩà°Ĥà°Ĺà±įà°²à±Ģà°·", "Ġà°ĩà°Ĥà°Ĺà±įà°²à±Ģà°·à±ģ", "Ġà°īà°ªà°¯à±ĭà°Ĺà°¿à°¸à±įà°¤à±ģà°Ĥà°¦à°¿.", "Ġà°¸à°Ĥà°¸à±įà°ķà±ĥà°¤", "Ġà°¸à°Ĥà°¸à±įà°ķà±ĥà°¤à°Ĥ,", "Ġà°¤à±Ĩà°²à±ģà°Ĺ", "Ġà°¤à±Ĩà°²à±ģà°Ĺà±ģ,", "Ġà°ķà°¨à±įà°¨", "Ġà°ķà°¨à±įà°¨à°¡", "Ġà°ķà°¨à±įà°¨à°¡à°Ĥ,", "Ġà°¤à°®", "Ġà°¤à°®à°¿à°³", "Ġà°¤à°®à°¿à°³à°Ĥ.", "Ġ165", "Ġ1652", "Ġà°®à°¾à°¤à±ĥ", "Ġà°¬à±Ĩ", "Ġà°¬à±Ĩà°Ĥà°Ĺ", "Ġà°¬à±Ĩà°Ĥà°Ĺà±ģà°", "Ġà°¬à±Ĩà°Ĥà°Ĺà±ģà°³", "Ġà°¬à±Ĩà°Ĥà°Ĺà±ģà°³à±Ĥà°°à±ģ", "Ġà°¹à±Īà°¦à°°à°¾à°¬à°¾à°¦à±ģ", "Ġà°ħà°¹à°®à±įà°®", "Ġà°ħà°¹à°®à±įà°®à°¦", "Ġà°ħà°¹à°®à±įà°®à°¦à°¾à°¬à°¾à°¦", "Ġà°ħà°¹à°®à±įà°®à°¦à°¾à°¬à°¾à°¦à±ģ", "Ġà°ªà±Ĥà°", "Ġà°ªà±Ĥà°£", "Ġà°ªà±Ĥà°£à±ĩ", "Ġà°¸à±Ĥà°°à°¤", "Ġà°¸à±Ĥà°°à°¤à±į", "Ġà°µà°¿à°¶à°¾à°ĸ", "Ġà°µà°¿à°¶à°¾à°ĸà°ª", "Ġà°µà°¿à°¶à°¾à°ĸà°ªà°Ł", "Ġà°µà°¿à°¶à°¾à°ĸà°ªà°Łà±įà°¨", "Ġà°µà°¿à°¶à°¾à°ĸà°ªà°Łà±įà°¨à°Ĥ", "Ġà°Ńà°¾à°°", "Ġà°Ńà°¾à°°âĢĮ", "Ġà°Ńà°¾à°°âĢĮà°¤", "Ġà°Ńà°¾à°°âĢĮà°¤à°Ĥà°²à±ĭ", "Ġà°°âĢĮà°µ", "Ġà°°âĢĮà°µà°¾à°£à°¾", "Ġà°µà±įà°¯âĢĮà°µ", "Ġà°µà±įà°¯âĢĮà°µâĢĮ", "Ġà°µà±įà°¯âĢĮà°µâĢĮà°¸à±įà°", "Ġà°µà±įà°¯âĢĮà°µâĢĮà°¸à±įà°¥", "Ġà°µà±įà°¯âĢĮà°µâĢĮà°¸à±įà°¥âĢĮ", "Ġà°µà°¹à°¿à°Ĥà°ļà±ĩ", "Ġà°®à°Ĥà°ļ", "Ġà°®à°Ĥà°ļà°¿", "Ġà°ªà±įà°°à°Ĺ", "Ġà°ªà±įà°°à°Ĺà°¤à°¿à°¨à°¿", "Ġà°¸à°¾à°§à°¿à°Ĥà°ļà°¿à°Ĥà°¦à°¿.", "Ġà°°à°ķà°¾à°²", "Ġà°ħà°¤à°¿à°®", "Ġà°ħà°¤à°¿à°®à±ģà°ĸà±įà°¯", "Ġà°ħà°¤à°¿à°®à±ģà°ĸà±įà°¯à°®à±Īà°¨", "Ġà°¸à±Įà°ķà°°à±įà°¯à°®à±ģ.", "Ġ1853", "Ġà°®à±ģà°Ĥà°¬à°¾à°¯à°¿", "Ġà°¥à°¾à°¨", "Ġà°¥à°¾à°¨à±ĩ", "Ġà°ªà±įà°°à°¾à°°à°Ĥà°Ńà°®à±Īà°¨", "Ġà°®à°¾à°°à±įà°Ĺà°®à±ģ", "Ġ62", "Ġà°¨à°¿à°¡à°¿à°µà°¿à°¨à°¿", "Ġà°ķà°²à±įà°Ĺ", "Ġà°ķà°²à±įà°Ĺà°¿", "Ġ17", "Ġà°ľà±ĭ", "Ġà°ľà±ĭà°¨", "Ġà°ľà±ĭà°¨à±įà°²", "Ġà°ľà±ĭà°¨à±įà°²à±ģà°Ĺà°¾", "Ġà°µà°¿à°Ńà°ľ", "Ġà°µà°¿à°Ńà°ľà°¿à°¤", "Ġà°µà°¿à°Ńà°ľà°¿à°¤à°®à±Ī", "Ġà°ħà°ĸà°Ĥà°¡", "Ġà°¢à°¾à°ķà°¾", "à°²à°¾à°¹à±ĭà°°à±į", "Ġà°°à±Īà°²à±ģ.", "Ġà°ĩà°¸à±įà°²à°¾à°®à°¾à°¬à°¾à°¦à±į:", "Ġà°¬à°Ĥà°Ĺà±įà°²à°¾à°¦à±ĩà°¶à±įâĢĮà°²", "Ġà°¤à°¿à°°à°¿à°Ĺ", "Ġà°¤à°¿à°°à°¿à°Ĺà±ĩ", "Ġà°¤à±įà°µ", "Ġà°¤à±įà°µà°°à°²à±ĭ", "Ġà°¤à±įà°µà°°à°²à±ĭà°¨", "Ġà°¤à±įà°µà°°à°²à±ĭà°¨à±ĩ", "Ġà°ªà°Łà±įà°Łà°¾à°²", "Ġà°ªà°Łà±įà°Łà°¾à°²à±Ĩ", "Ġà°ªà°Łà±įà°Łà°¾à°²à±Ĩà°ķà±įà°ķ", "Ġà°ªà°Łà±įà°Łà°¾à°²à±Ĩà°ķà±įà°ķà°¨", "Ġà°ªà°Łà±įà°Łà°¾à°²à±Ĩà°ķà±įà°ķà°¨à±ģà°Ĥà°¦à°¿.", "Ġà°ªà±įà°°à°¾à°°à°Ĥà°Ńà°¿à°Ĥà°ļà°¾à°²à°¨à±ĩ", "Ġà°ªà°¾à°ķà°¿à°¸à±įà°¥à°¾à°¨à±į", "Ġà°ªà°ļà±įà°ļ", "Ġà°ªà°ļà±įà°ļà°ľ", "Ġà°ªà°ļà±įà°ļà°ľà±Ĩà°Ĥà°¡", "Ġà°ªà°ļà±įà°ļà°ľà±Ĩà°Ĥà°¡à°¾", "Ġà°µà±Ĥà°ª", "Ġà°µà±Ĥà°ªà°¿à°Ĥà°¦à°¿.", "Ġà°¦à±ĩà°¶à°¾à°²à°¨à±ģ", "Ġà°ķà°²à±ģà°ª", "Ġà°ķà°²à±ģà°ªà±ģà°¤à±Ĥ", "Ġà°¨à°¡à°¿à°ªà°¿à°¸à±įà°¤", "Ġà°¨à°¡à°¿à°ªà°¿à°¸à±įà°¤à°¾à°®", "Ġà°¨à°¡à°¿à°ªà°¿à°¸à±įà°¤à°¾à°®à°¨à°¿", "Ġà°ªà°Ĥà°ª", "Ġà°ªà°Ĥà°ªà°¿à°¨", "Ġà°®à°Ĥà°¤à±įà°°à°¿à°¤à±įà°µ", "Ġà°¶à°¾à°ĸ", "Ġà°ħà°¨à±ģà°®", "Ġà°ħà°¨à±ģà°®à°¤à°¿à°¨à°¿", "Ġà°®à°Ĥà°", "Ġà°®à°Ĥà°ľ", "Ġà°®à°Ĥà°ľà±Ĥà°°à±ģ", "à°¢à°¾à°ķà°¾", "à°²à°¾à°¹à±ĭà°°à±įâĢĮ", "à°²à°¾à°¹à±ĭà°°à±įâĢĮà°²", "Ġà°¨à°¡à°¿à°ªà°¿à°Ĥà°ļà°Łà°Ĥ", "Ġà°²à°¾à°Ń", "Ġà°²à°¾à°Ńà°¦", "Ġà°²à°¾à°Ńà°¦à°¾à°¯à°ķ", "Ġà°²à°¾à°Ńà°¦à°¾à°¯à°ķà°®", "Ġà°²à°¾à°Ńà°¦à°¾à°¯à°ķà°®à±ĩà°¨à°¨", "Ġà°²à°¾à°Ńà°¦à°¾à°¯à°ķà°®à±ĩà°¨à°¨à±Ģ,", "Ġà°ħà°µà°¸", "Ġà°ħà°µà°¸à°°à°®", "Ġà°ħà°µà°¸à°°à°®à±Īà°¤", "Ġà°ħà°µà°¸à°°à°®à±Īà°¤à±ĩ", "Ġà°ķà°°", "Ġà°ķà°°à°¾à°ļ", "Ġà°ķà°°à°¾à°ļà±Ģ,", "Ġà°µà°°à°", "Ġà°µà°°à°ķ", "Ġà°µà°°à°ķà±Ĥ", "Ġà°ªà±Ĭà°¡", "Ġà°ªà±Ĭà°¡à°¿à°Ĺ", "Ġà°ªà±Ĭà°¡à°¿à°Ĺà°¿à°Ĥà°ļ", "Ġà°ªà±Ĭà°¡à°¿à°Ĺà°¿à°Ĥà°ļà±ģà°ķà±ĭà°µ", "Ġà°ªà±Ĭà°¡à°¿à°Ĺà°¿à°Ĥà°ļà±ģà°ķà±ĭà°µà°ļà±įà°ļà°¨à°¿", "Ġà°µà°°à±įà°Ĺà°¾à°²à±ģ", "Ġà°ªà±ĩà°°à±įà°ķà±Ĭà°¨à±įà°¨", "Ġà°ªà±ĩà°°à±įà°ķà±Ĭà°¨à±įà°¨à°¾à°¯à°¿.", "Ġà°®à±ģà°Ĥà°¦", "Ġà°®à±ģà°Ĥà°¦à±ģà°Ĺà°¾", "Ġà°ķà°Ĥà°Łà±Īà°¨", "Ġà°ķà°Ĥà°Łà±Īà°¨à±Ĩ", "Ġà°ķà°Ĥà°Łà±Īà°¨à±Ĩà°°à±į", "Ġà°¨à°¡à°¿à°ªà°¿à°Ĥà°ļà°¿,", "Ġà°¤à°°à±įà°µà°¾à°¤à°¿", "Ġà°¦à°¶", "Ġà°¦à°¶à°²à±ĭ", "Ġà°ªà±įà°°à°¯à°¾à°£", "Ġà°ªà±įà°°à°¯à°¾à°£à°¿à°ķ", "Ġà°ªà±įà°°à°¯à°¾à°£à°¿à°ķà±ģà°²", "Ġà°¬à°Ĥà°¡", "Ġà°¬à°Ĥà°¡à±įà°²à°¨à±ģ", "Ġà°¨à°¡à°¿à°ªà°¿à°Ĥà°ļà°¾à°²à°¨à±ĩ", "Ġà°¯à±ĭ", "Ġà°¯à±ĭà°ļà°¨", "Ġà°¯à±ĭà°ļà°¨à°²à±ĭ", "à°Łà±Ĩà°¹", "à°Łà±Ĩà°¹à±įà°°", "à°Łà±Ĩà°¹à±įà°°à°¾à°¨à±į", "à°ĩà°¸à±įà°¤", "à°ĩà°¸à±įà°¤à°¾à°Ĥà°¬", "à°ĩà°¸à±įà°¤à°¾à°Ĥà°¬à±ģà°²", "à°ĩà°¸à±įà°¤à°¾à°Ĥà°¬à±ģà°²à±į", "Ġà°¸à°°à±įà°µà±Ģà°¸à±ģà°¨à±ģ", "Ġà°ªà±įà°°à°¾à°°à°Ĥà°Ńà°¿à°Ĥà°ļà°¾à°²", "Ġà°ªà±įà°°à°¾à°°à°Ĥà°Ńà°¿à°Ĥà°ļà°¾à°²à°¨à°¿", "Ġà°ªà±įà°°à°£", "Ġà°ªà±įà°°à°£à°¾à°³", "Ġà°ªà±įà°°à°£à°¾à°³à°¿à°ķ", "Ġà°ªà±įà°°à°£à°¾à°³à°¿à°ķà°²à±ģ", "Ġà°¸à°¿à°¦à±įà°§à°Ĥ", "Ġà°ļà±ĩà°¯à°Ł", "Ġà°ļà±ĩà°¯à°Łà°Ĥà°¤à±ĭ", "Ġà°°à±Īà°²à±įà°µà±ĩà°¶à°¾à°ĸà°ķà±ģ", "Ġà°ķà±Ĭà°¤à±įà°¤", "Ġà°Ĩà°²à±ĭ", "Ġà°Ĩà°²à±ĭà°ļà°¨", "Ġà°°à±Īà°³à±įà°²", "Ġà°µà°²à±įà°²", "Ġà°¸à°¾à°°à±įà°ķ", "Ġà°¸à°¾à°°à±įà°ķà±į", "Ġà°¦à±įà°µà±Īà°ª", "Ġà°¦à±įà°µà±Īà°ªà°¾à°ķ", "Ġà°¦à±įà°µà±Īà°ªà°¾à°ķà±įà°·", "Ġà°¦à±įà°µà±Īà°ªà°¾à°ķà±įà°·à°¿à°ķ", "Ġà°ªà±įà°°à°¯à±ĭà°ľà°¨à°¾à°²à±ģ", "Ġà°¨à±Ĩ", "Ġà°¨à±Ĩà°°à°", "Ġà°¨à±Ĩà°°à°µ", "Ġà°¨à±Ĩà°°à°µà±ĩà°", "Ġà°¨à±Ĩà°°à°µà±ĩà°°à°¤", "Ġà°¨à±Ĩà°°à°µà±ĩà°°à°¤à°¾à°¯", "Ġà°¨à±Ĩà°°à°µà±ĩà°°à°¤à°¾à°¯à°¨à°¿", "Ġà°ªà±įà°°à°¤à°¿à°ªà°¾à°¦à°¨à°²à±įà°²à±ĭ", "Ġà°µà±Ĩà°²", "Ġà°µà±Ĩà°²à±įà°²", "Ġà°µà±Ĩà°²à±įà°²à°¡", "Ġà°µà±Ĩà°²à±įà°²à°¡à°¿à°Ĥà°ļà°¿à°Ĥà°¦à°¿.", "Ġà°¦à±Ģà°¨à°¿à°µ", "Ġà°¦à±Ģà°¨à°¿à°µà°²à±įà°²", "Ġà°Ńà±Ĥà°Łà°¾à°¨à±į", "Ġà°¦à±ĩà°¶à°¾à°²à°ķ", "Ġà°¦à±ĩà°¶à°¾à°²à°ķà±Ĥ", "Ġà°¨à°¡à°¿à°ªà°¿à°Ĥà°ļà°µ", "Ġà°¨à°¡à°¿à°ªà°¿à°Ĥà°ļà°µà°ļà±įà°ļà°¨à°¿", "Ġà°¤à±Ĩà°²à°¿à°", "Ġà°¤à±Ĩà°²à°¿à°¸à°¿à°Ĥà°¦à°¿.", "Ġà°µà°¾à°£à°¿à°ľà±įà°¯à°ªà°°", "Ġà°µà°¾à°£à°¿à°ľà±įà°¯à°ªà°°à°Ĥà°Ĺà°¾", "Ġà°ªà±įà°°à°¯à±ĭà°ľà°¨", "Ġà°ªà±įà°°à°¯à±ĭà°ľà°¨à°ķ", "Ġà°ªà±įà°°à°¯à±ĭà°ľà°¨à°ķà°°à°®", "Ġà°ªà±įà°°à°¯à±ĭà°ľà°¨à°ķà°°à°®à±ĩà°¨", "Ġà°ªà±įà°°à°¯à±ĭà°ľà°¨à°ķà°°à°®à±ĩà°¨à°¨à°¿", "Ġà°¸à±Īà°¤", "Ġà°¸à±Īà°¤à°Ĥ", "Ġà°ķà°¿à°¤", "Ġà°ķà°¿à°¤à°¾à°¬", "Ġà°ķà°¿à°¤à°¾à°¬à±ģà°¨", "Ġà°ķà°¿à°¤à°¾à°¬à±ģà°¨à°¿à°¸à±įà°¤", "Ġà°ķà°¿à°¤à°¾à°¬à±ģà°¨à°¿à°¸à±įà°¤à±ģà°¨à±įà°¨à°¾à°°à±ģ.", "Ġà°®à°¾à°°à±įà°Ĺà°Ĥà°²à±ĭ", "Ġà°¨à°¡à°¿à°ªà°¿à°Ĥà°ļà°Łà°®", "Ġà°¨à°¡à°¿à°ªà°¿à°Ĥà°ļà°Łà°®à±Ĥ", "Ġà°¤à±ĩà°²", "Ġà°¤à±ĩà°²à°¿à°ķ", "Ġà°¤à±ĩà°²à°¿à°ķà±ĩà°¨à°¨", "Ġà°¤à±ĩà°²à°¿à°ķà±ĩà°¨à°¨à±Ģ", "Ġà°ªà±ĩà°°à±įà°ķà±Ĭà°Ĥà°Ł", "Ġà°ªà±ĩà°°à±įà°ķà±Ĭà°Ĥà°Łà±ģà°¨à±įà°¨à°¾à°°à±ģ.", "Ġà°ªà°¾à°ķà±į,", "Ġà°¬à°Ĥà°Ĺà±įà°²à°¾à°¦à±ĩà°¶à±įâĢĮà°²à°²à±ĭ", "Ġà°ªà°¾à°²à°ķ", "Ġà°ªà°¾à°²à°ķà±ģà°²à±ģ", "Ġà°®à°¾à°°à±įà°Ĺà°¾à°²à°¨à±ģ", "Ġà°¨à°¿à°°à±įà°®", "Ġà°¨à°¿à°°à±įà°®à°¿à°Ĥà°ļà°¿à°¨", "Ġà°¨à°¿à°°à±įà°®à°¿à°Ĥà°ļà°¿à°¨à°Ĥà°¦", "Ġà°¨à°¿à°°à±įà°®à°¿à°Ĥà°ļà°¿à°¨à°Ĥà°¦à±ģà°µ", "Ġà°¨à°¿à°°à±įà°®à°¿à°Ĥà°ļà°¿à°¨à°Ĥà°¦à±ģà°µà°²à±įà°²", "Ġà°¦à±ĩà°¶à°¾à°²à±įà°²à±ĭ", "Ġà°¦à±ĩà°¶à°¾à°²à±įà°²à±ĭà°¨", "Ġà°¦à±ĩà°¶à°¾à°²à±įà°²à±ĭà°¨à±Ĥ", "Ġà°¬à±įà°°à°¾à°¡", "Ġà°¬à±įà°°à°¾à°¡à±įâĢĮ", "Ġà°¬à±įà°°à°¾à°¡à±įâĢĮà°Ĺ", "Ġà°¬à±įà°°à°¾à°¡à±įâĢĮà°Ĺà±ĩà°ľ", "Ġà°¬à±įà°°à°¾à°¡à±įâĢĮà°Ĺà±ĩà°ľà°¿", "Ġà°ªà°Łà±įà°Łà°¾à°²à±ģ", "Ġà°īà°Ĥà°¡à°Łà°Ĥ,", "Ġà°¶à±Īà°²", "Ġà°¶à±Īà°²à±Ģ", "Ġà°Ĵà°ķà±ĩà°", "Ġà°Ĵà°ķà±ĩà°®", "Ġà°Ĵà°ķà±ĩà°®à°¾à°¦", "Ġà°Ĵà°ķà±ĩà°®à°¾à°¦à°¿à°°", "Ġà°Ĵà°ķà±ĩà°®à°¾à°¦à°¿à°°à°¿à°Ĺà°¾", "Ġà°īà°Ĥà°¡à°Łà°Ĥ", "Ġà°ķà°²à°¿à°¸à°¿à°µ", "Ġà°ķà°²à°¿à°¸à°¿à°µà°¸à±įà°¤", "Ġà°ķà°²à°¿à°¸à°¿à°µà°¸à±įà°¤à±ģà°Ĥà°", "Ġà°ķà°²à°¿à°¸à°¿à°µà°¸à±įà°¤à±ģà°Ĥà°¦", "Ġà°ķà°²à°¿à°¸à°¿à°µà°¸à±įà°¤à±ģà°Ĥà°¦à°¨à°¿", "Ġà°ħà°Ńà°¿à°ª", "Ġà°ħà°Ńà°¿à°ªà±įà°°", "Ġà°ħà°Ńà°¿à°ªà±įà°°à°¾à°¯", "Ġà°ħà°Ńà°¿à°ªà±įà°°à°¾à°¯à°ª", "Ġà°ħà°Ńà°¿à°ªà±įà°°à°¾à°¯à°ªà°¡", "Ġà°ħà°Ńà°¿à°ªà±įà°°à°¾à°¯à°ªà°¡à±ģà°¤", "Ġà°ħà°Ńà°¿à°ªà±įà°°à°¾à°¯à°ªà°¡à±ģà°¤à±ģà°¨à±įà°¨à°¾à°°à±ģ.", "Ġà°®à°¾à°°à±ģà°®", "Ġà°®à°¾à°°à±ģà°®à±Ĥà°²", "Ġà°ªà±įà°°à°¾à°Ĥà°¤à°¾à°²à°ķà±ģ", "Ġà°µà°¿à°¸à±įà°¤à°°", "Ġà°µà°¿à°¸à±įà°¤à°°à°¿à°Ĥà°ļà°¿à°¨", "Ġà°®à°¾à°°à±įà°Ĺà°¾à°²", "Ġà°®à°¾à°°à±įà°Ĺà°¾à°²à±ĩ.", "Ġà°®à°¾à°°à±įà°Ĺà°¾à°²à°²à±ĭ", "Ġà°ľà°¿à°²à±įà°²", "Ġà°ľà°¿à°²à±įà°²à°¾", "Ġà°Ĺà±įà°°à°¾à°®", "Ġà°ªà°Ĥà°ļà°¾à°¯", "Ġà°ªà°Ĥà°ļà°¾à°¯à°¤à°¿", "Ġà°°à°¹à°¦à°¾à°°à±ģà°²à±ģ", "Ġà°°à°ķà°¾à°²à±ģ.", "Ġà°°à±ĭà°¡à±įà°²", "Ġà°¨à°¿à°¡à°¿à°µà°¿à°²à±ĭ", "Ġ2%", "Ġà°Ĩà°ķà±įà°°à°®à°¿à°Ĥà°ļà°¿à°¨", "Ġà°Łà±įà°°", "Ġà°Łà±įà°°à°¾à°«", "Ġà°Łà±įà°°à°¾à°«à°¿à°ķ", "Ġà°Łà±įà°°à°¾à°«à°¿à°ķà±į", "Ġà°¸à±ģà°®", "Ġà°¸à±ģà°®à°¾à°°à±ģ", "Ġ40%", "Ġà°Ĩà°ķà±įà°°à°®à°¿à°¸à±įà°¤", "Ġà°Ĩà°ķà±įà°°à°®à°¿à°¸à±įà°¤à±ģà°¨à±įà°¨à°¾à°¯à°¿.", "<|unused_0|>", "<|unused_1|>", "<|unused_2|>", "<|unused_3|>", "<|unused_4|>", "<|unused_5|>", "<|unused_6|>", "<|unused_7|>", "<|unused_8|>", "<|unused_9|>", "<|unused_10|>", "<|unused_11|>", "<|unused_12|>", "<|unused_13|>", "<|unused_14|>", "<|unused_15|>", "<|unused_16|>", "<|unused_17|>", "<|unused_18|>", "<|unused_19|>", "<|unused_20|>", "<|unused_21|>", "<|unused_22|>", "<|unused_23|>", "<|unused_24|>", "<|unused_25|>", "<|unused_26|>", "<|unused_27|>", "<|unused_28|>", "<|unused_29|>", "<|unused_30|>", "<|unused_31|>", "<|unused_32|>", "<|unused_33|>", "<|unused_34|>", "<|unused_35|>", "<|unused_36|>", "<|unused_37|>", "<|unused_38|>", "<|unused_39|>", "<|unused_40|>", "<|unused_41|>", "<|unused_42|>", "<|unused_43|>", "<|unused_44|>", "<|unused_45|>", "<|unused_46|>", "<|unused_47|>", "<|unused_48|>", "<|unused_49|>", "<|unused_50|>", "<|unused_51|>", "<|unused_52|>", "<|unused_53|>", "<|unused_54|>", "<|unused_55|>", "<|unused_56|>", "<|unused_57|>", "<|unused_58|>", "<|unused_59|>", "<|unused_60|>", "<|unused_61|>", "<|unused_62|>", "<|unused_63|>", "<|unused_64|>", "<|unused_65|>", "<|unused_66|>", "<|unused_67|>", "<|unused_68|>", "<|unused_69|>", "<|unused_70|>", "<|unused_71|>", "<|unused_72|>", "<|unused_73|>", "<|unused_74|>", "<|unused_75|>", "<|unused_76|>", "<|unused_77|>", "<|unused_78|>", "<|unused_79|>", "<|unused_80|>", "<|unused_81|>", "<|unused_82|>", "<|unused_83|>", "<|unused_84|>", "<|unused_85|>", "<|unused_86|>", "<|unused_87|>", "<|unused_88|>", "<|unused_89|>", "<|unused_90|>", "<|unused_91|>", "<|unused_92|>", "<|unused_93|>", "<|unused_94|>", "<|unused_95|>", "<|unused_96|>", "<|unused_97|>", "<|unused_98|>", "<|unused_99|>", "<|unused_100|>", "<|unused_101|>", "<|unused_102|>", "<|unused_103|>", "<|unused_104|>", "<|unused_105|>", "<|unused_106|>", "<|unused_107|>", "<|unused_108|>", "<|unused_109|>", "<|unused_110|>", "<|unused_111|>", "<|unused_112|>", "<|unused_113|>", "<|unused_114|>", "<|unused_115|>", "<|unused_116|>", "<|unused_117|>", "<|unused_118|>", "<|unused_119|>", "<|unused_120|>", "<|unused_121|>", "<|unused_122|>", "<|unused_123|>", "<|unused_124|>", "<|unused_125|>", "<|unused_126|>", "<|unused_127|>", "<|unused_128|>", "<|unused_129|>", "<|unused_130|>", "<|unused_131|>", "<|unused_132|>", "<|unused_133|>", "<|unused_134|>", "<|unused_135|>", "<|unused_136|>", "<|unused_137|>", "<|unused_138|>", "<|unused_139|>", "<|unused_140|>", "<|unused_141|>", "<|unused_142|>", "<|unused_143|>", "<|unused_144|>", "<|unused_145|>", "<|unused_146|>", "<|unused_147|>", "<|unused_148|>", "<|unused_149|>", "<|unused_150|>", "<|unused_151|>", "<|unused_152|>", "<|unused_153|>", "<|unused_154|>", "<|unused_155|>", "<|unused_156|>", "<|unused_157|>", "<|unused_158|>", "<|unused_159|>", "<|unused_160|>", "<|unused_161|>", "<|unused_162|>", "<|unused_163|>", "<|unused_164|>", "<|unused_165|>", "<|unused_166|>", "<|unused_167|>", "<|unused_168|>", "<|unused_169|>", "<|unused_170|>", "<|unused_171|>", "<|unused_172|>", "<|unused_173|>", "<|unused_174|>", "<|unused_175|>", "<|unused_176|>", "<|unused_177|>", "<|unused_178|>", "<|unused_179|>", "<|unused_180|>", "<|unused_181|>", "<|unused_182|>", "<|unused_183|>", "<|unused_184|>", "<|unused_185|>", "<|unused_186|>", "<|unused_187|>", "<|unused_188|>", "<|unused_189|>", "<|unused_190|>", "<|unused_191|>", "<|unused_192|>", "<|unused_193|>", "<|unused_194|>", "<|unused_195|>", "<|unused_196|>", "<|unused_197|>", "<|unused_198|>"], "merges": [["t", "h"], ["a", "n"], ["i", "n"], ["th", "e"], ["Ġ", "the"], ["r", "e"], ["o", "n"], ["e", "r"], ["s", "t"], ["e", "d"], ["Ġ", "an"], ["Ġ", "a"], ["e", "n"], ["Ġ", "o"], ["Ġ", "I"], ["Ġ", "in"], ["a", "l"], ["n", "d"], ["Ġan", "d"], ["i", "t"], ["a", "t"], ["Ġo", "f"], ["i", "s"], ["ĠI", "nd"], ["Ġ", "s"], ["Ġ", "w"], ["in", "g"], ["o", "r"], ["a", "r"], ["i", "c"], ["Ġ", "c"], ["i", "on"], ["Ġ", "b"], ["Ġ", "p"], ["Ġ", "t"], ["Ġ", "f"], ["i", "a"], ["o", "u"], ["Ġ", "m"], ["o", "m"], ["Ġ", "e"], ["Ġ", "h"], ["Ġ", "B"], ["a", "s"], ["Ġ", "l"], ["l", "y"], ["ĠInd", "ia"], ["Ġ", "n"], ["Ġ", "re"], ["e", "s"], ["en", "t"], ["Ġ", "A"], ["Ġt", "o"], ["i", "v"], ["Ġ", "d"], ["Ġ", "r"], ["u", "r"], ["i", "st"], ["0", "0"], ["Ġ", "S"], ["c", "e"], ["o", "l"], ["i", "an"], ["e", "c"], ["u", "l"], ["i", "l"], ["i", "g"], ["a", "d"], ["Ġ", "T"], ["Ġ", "C"], ["a", "m"], ["ĠT", "h"], ["at", "ion"], ["i", "d"], ["Ġ", "M"], ["Ġ", "E"], ["e", "st"], ["i", "m"], ["o", "d"], ["Ġ", "th"], ["ĠTh", "e"], ["u", "s"], ["Ġ", "g"], ["l", "e"], ["an", "g"], ["t", "s"], ["Ġa", "r"], ["Ġf", "or"], ["is", "m"], ["Ġ", "is"], ["o", "p"], ["Ġ", "it"], ["a", "c"], ["a", "st"], ["Ġ", "P"], ["r", "om"], ["e", "t"], ["r", "it"], ["o", "s"], ["m", "p"], ["al", "ly"], ["ou", "th"], ["Ġb", "y"], ["o", "c"], ["Ġ", "on"], ["er", "n"], ["iv", "er"], ["Ġ", "H"], ["a", "v"], ["e", "re"], ["i", "re"], ["u", "re"], ["ĠA", "s"], ["Ġ", "1"], ["e", "m"], ["i", "th"], ["i", "f"], ["a", "g"], ["the", "r"], ["u", "b"], ["a", ","], ["Ġit", "s"], ["Ġw", "ith"], ["Ġn", "or"], ["u", "m"], ["Ġf", "rom"], ["i", "r"], ["s", ","], ["ĠB", "C"], ["ĠBC", "E"], ["d", "u"], ["Ġ", "D"], ["a", "in"], ["mp", "ire"], ["y", "."], ["ĠInd", "ian"], ["h", "a"], ["u", "t"], ["an", "s"], ["c", "on"], ["Ġin", "t"], ["il", "l"], ["u", "d"], ["Ġo", "r"], ["Ġ", "G"], ["Ġw", "as"], ["o", "w"], ["an", "d"], ["a", "k"], ["Ġre", "g"], ["Ġh", "ad"], ["t", "ed"], ["s", "."], ["ic", "al"], ["ĠE", "mpire"], ["is", "h"], ["Ġ", "st"], ["am", "e"], ["e", "l"], ["Ġe", "x"], ["ul", "t"], ["Ġp", "l"], ["Ġw", "h"], ["Ġ", "("], ["en", "ce"], ["ist", "an"], ["t", "er"], ["Ġreg", "ion"], ["ig", "h"], ["Ġint", "o"], ["Ġl", "ang"], ["Ġlang", "u"], ["Ġlangu", "ag"], ["e", ","], ["ĠH", "in"], ["ĠHin", "du"], ["ther", "n"], ["ic", "h"], ["Ġ", "v"], ["ĠIndia", ","], ["ĠS", "outh"], ["ĠAs", "ia"], ["ĠC", "h"], ["ĠI", "n"], ["r", "i"], ["u", "p"], ["Ġa", "s"], ["u", "n"], ["Ġh", "as"], ["Ġe", "m"], ["oc", "i"], ["Ġc", "on"], ["it", "y"], ["Ġb", "ec"], ["g", "h"], ["o", "t"], ["=", "="], ["Ä", "ģ"], ["r", "y"], ["e", "v"], ["Ġm", "o"], ["a", "y"], ["or", "d"], ["Ġw", "est"], ["Ġn", "e"], ["00", "0"], ["Ġa", "g"], ["Ġem", "er"], ["Ġemer", "g"], ["ĠInd", "us"], ["Ġr", "iver"], ["Ġg", "r"], ["ĠS", "ans"], ["ĠSans", "k"], ["ĠSansk", "rit"], ["Ġw", "ere"], ["Ġnor", "thern"], ["Ġp", "r"], ["Ġs", "oci"], ["Ġbec", "ame"], ["i", "es"], ["om", "p"], ["Ġc", "ent"], ["u", "c"], ["ar", "y"], ["e", "en"], ["Ġwh", "ich"], ["l", "d"], ["in", "ce"], ["Ġs", "outh"], ["a", "b"], ["er", "s"], ["ĠP", "ak"], ["ĠPak", "istan"], ["od", "ern"], ["Ġs", "ub"], ["ar", "s"], ["on", "g"], ["re", "d"], ["et", "t"], ["Ġm", "ill"], ["en", "n"], ["enn", "i"], ["enni", "um"], ["ĠB", "y"], ["ĠInd", "o"], ["us", "ed"], ["ĠIndia", "'"], ["ism", ","], ["ĠB", "ud"], ["ĠBud", "d"], ["ur", "y"], ["re", "at"], ["Ġ", "k"], ["Ġre", "l"], ["Ġ", "2"], ["et", "w"], ["Ġe", "con"], ["Ġecon", "om"], ["iv", "e"], ["o", "k"], ["Ġp", "ar"], ["Ġin", "c"], ["Ġ", "=="], ["en", "s"], ["Ġ", "R"], ["e", "p"], ["ou", "n"], ["ar", "g"], ["ou", "s"], ["Ġs", "ince"], ["en", "d"], ["Ġ1", "9"], ["ou", "nd"], ["Ġ", "N"], ["Ġnor", "th"], ["Ġe", "ast"], ["Ġh", "um"], ["Ġsub", "con"], ["Ġsubcon", "t"], ["Ġsubcont", "in"], ["Ġsubcontin", "ent"], ["Ġ", "y"], ["Ġy", "e"], ["Ġye", "ars"], ["Ġag", "o"], ["c", "c"], ["om", "in"], ["iver", "s"], ["Ġl", "if"], ["Ġemerg", "ed"], ["Ġwest", "ern"], ["Ġb", "as"], ["Ġ", "V"], ["Ġmill", "ennium"], ["Ġar", "c"], ["ĠM", "a"], ["ur", "ing"], ["Ġc", "reat"], ["t", ","], ["ec", "t"], ["is", "ed"], ["e", "f"], ["Ġex", "p"], ["Ġrel", "ig"], ["ult", "ure"], ["at", "e"], ["Ġt", "w"], ["Ġtw", "o"], ["e", "g"], ["Ġr", "ul"], ["ĠB", "rit"], ["ĠBrit", "ish"], ["Ġc", "h"], ["Ġm", "odern"], ["0", ","], ["a", "j"], ["aj", "or"], ["i", "ed"], ["ou", "gh"], ["Ġs", "y"], ["Ġsy", "st"], ["Ġsyst", "em"], ["a", "p"], ["om", "e"], ["Ġm", "id"], ["Ġth", "at"], ["Ġre", "f"], ["ist", "or"], ["ub", "l"], ["ubl", "ic"], ["ĠI", "t"], ["Ġmo", "st"], ["Ġp", "op"], ["Ġpop", "ul"], ["Ġ", "O"], ["re", "s"], ["ĠB", "h"], ["ĠA", "f"], ["r", "ic"], ["Ġl", "at"], ["Ġlat", "er"], ["Ġ", "5"], ["Ġh", "igh"], ["l", "ed"], ["Ġlif", "e"], ["ol", "v"], ["u", "ally"], ["al", "le"], ["ĠBCE", ","], ["Ġfor", "m"], ["e", "an"], ["Ġe", "ar"], ["ĠIndia", "."], ["ĠD", "r"], ["ĠDr", "av"], ["ĠDrav", "id"], ["ĠDravid", "ian"], ["Ġlanguag", "es"], ["p", "l"], ["Ġ", "4"], ["ĠBudd", "h"], ["Ġ", "J"], ["Ġsoci", "al"], ["Ġ", "un"], ["Ġr", "is"], ["os", "e"], ["Ġth", "is"], ["ou", "r"], ["Ġk", "ing"], ["Ġs", "c"], ["ri", "p"], ["Ġc", "ulture"], ["v", "er"], ["Ġpl", "ain"], ["k", "s"], ["Ġc", "omp"], ["Ġrelig", "ion"], ["Ġp", "e"], ["Ġrul", "e"], ["Ġb", "ut"], ["o", "g"], ["ang", "es"], ["em", "ent"], ["Ġn", "on"], ["Ġpar", "t"], ["os", "s"], ["r", "at"], ["m", "ent"], ["ist", "ic"], ["u", "al"], ["l", "as"], ["t", "ion"], ["Ġh", "istor"], ["re", "e"], ["n", "c"], ["ic", "ally"], ["Ġex", "t"], ["Ġv", "ar"], ["etw", "een"], ["er", "i"], ["l", "ud"], ["Ġan", "im"], ["Ġanim", "al"], ["â", "Ģ"], ["Ġa", "d"], ["á", "¹"], ["Ġe", "th"], ["Ġc", "oun"], ["Ġcoun", "t"], ["Ġcount", "ry"], ["Ġa", "re"], ["Ġw", "or"], ["w", "est"], ["Ġs", "ou"], ["Ġb", "ord"], ["ĠCh", "in"], ["ĠI", "ts"], ["ĠI", "s"], ["ĠIs", "l"], ["ĠAf", "ric"], ["ĠAfric", "a"], ["Ġago", "."], ["Ġl", "ong"], ["Ġo", "cc"], ["ation", ","], ["a", "the"], ["ad", "e"], ["Ġd", "ivers"], ["in", "s"], ["Ġbas", "in"], ["Ġe", "v"], ["ad", "ually"], ["alle", "y"], ["ĠSanskrit", ","], ["E", "ur"], ["Eur", "op"], ["Europ", "ean"], ["Ġd", "if"], ["Ġdif", "f"], ["y", "m"], ["n", "ing"], ["ĠHindu", "ism"], ["Ġs", "up"], ["an", "ted"], ["Ġ4", "00"], ["ĠBuddh", "ism"], ["ĠJ", "ain"], ["l", "in"], ["Ġh", "ere"], ["it", "y."], ["Ġp", "ol"], ["Ġcon", "s"], ["Ġris", "e"], ["Ġl", "o"], ["Ġlo", "ose"], ["ĠMa", "ury"], ["ĠMaury", "a"], ["ĠG", "up"], ["ĠGup", "t"], ["ĠD", "uring"], ["Ġf", "l"], ["Ġar", "t,"], ["Ġarc", "h"], ["Ġarch", "it"], ["Ġarchit", "ect"], ["ure", ","], ["ed", ","], ["c", "ha"], ["d", "le"], ["Ġking", "d"], ["Ġkingd", "om"], ["Ġlanguag", "e"], ["Ġsc", "rip"], ["l", "ish"], ["Ġc", "o"], ["Ġo", "ver"], ["Ġre", "s"], ["re", "w"], ["Ġcomp", "os"], ["ut", "ion"], ["Ġcent", "ur"], ["at", "ive"], ["a", "ce"], ["Ġeconom", "y"], ["o", "v"], ["ow", "n"], ["Ġb", "eg"], ["igh", "ts"], ["ly", ","], ["ol", "og"], ["od", "uc"], ["Ġ", "ed"], ["Ġmo", "v"], ["Ġmov", "ement"], ["v", "i"], ["vi", "ol"], ["it", "ion"], ["Ġd", "omin"], ["Ġdomin", "ion"], ["c", "ed"], ["Ġ", "3"], ["Ġt", "im"], ["Ġinc", "re"], ["Ġincre", "as"], ["Ġ", "U"], ["Ġl", "it"], ["Ġlit", "er"], ["Ġm", "ajor"], ["Ġa", "t"], ["e", "q"], ["Ġ", "K"], ["olv", "ed"], ["ec", "on"], ["al", "l"], ["il", "d"], ["Ġt", "r"], ["e", "w"], ["Ġ", "im"], ["las", "s"], ["lass", "ical"], ["a", "."], ["el", "l"], ["ĠG", "ree"], ["ĠA", "nc"], ["ĠAnc", "i"], ["ĠAnci", "ent"], [")", ","], ["Ġs", "p"], ["Ġext", "ens"], ["Ġpe", "op"], ["Ġpeop", "le"], ["ĠBh", "ar"], ["ĠBhar", "at"], ["h", "Äģ"], ["o", "th"], ["p", "ic"], ["Ġ", "used"], ["Ġn", "ame"], ["Ġcent", "ury"], ["d", "ay"], ["Ġb", "etween"], ["Ġhum", "an"], ["lud", "ing"], ["Ġc", "it"], ["Ġcit", "ies"], ["Ġ", "ur"], ["Ġur", "b"], ["Ġurb", "an"], ["A", "ry"], ["Ary", "an"], ["Ġs", "ett"], ["ĠG", "anges"], ["ow", "er"], ["ĠAs", "h"], ["ĠAsh", "ok"], ["ĠAshok", "a"], ["Ġa", "l"], ["as", ","], ["I", "nd"], ["Ind", "ia"], ["i", "ally"], ["ĠAsia", "."], ["Ġpopul", "ous"], ["Ġwor", "ld"], ["Ġin", "d"], ["Ġind", "ep"], ["Ġindep", "end"], ["Ġ19", "4"], ["Ġ194", "7"], ["Ġ1947", ","], ["Ġd", "em"], ["Ġdem", "oc"], ["r", "ac"], ["ĠO", "ce"], ["ĠOce", "an"], ["en", "g"], ["the", "ast"], ["Ġs", "ha"], ["Ġl", "and"], ["Ġbord", "ers"], ["ĠChin", "a,"], ["ĠM", "y"], ["ĠMy", "an"], ["ĠMyan", "m"], ["ĠMyanm", "ar"], ["Ġne", "ar"], ["Ġ", "L"], ["d", "iv"], ["es", "."], ["and", "s"], ["Ġhum", "ans"], ["r", "iv"], ["Ġth", "an"], ["Ġ5", "5"], ["Ġ55", ","], ["ĠThe", "ir"], ["Ġocc", "up"], ["Ġoccup", "ation,"], ["an", "t"], ["Ġis", "ol"], ["Ġisol", "ation"], ["Ġh", "un"], ["Ġhun", "ter"], ["g", "athe"], ["gathe", "re"], ["gathere", "r"], ["gatherer", "s,"], ["Ġm", "ade"], ["Ġhigh", "ly"], ["ett", "led"], ["Ġm", "arg"], ["Ġmarg", "ins"], ["Ġago", ","], ["Ġgr", "adually"], ["ĠV", "alley"], ["ĠC", "iv"], ["ĠCiv", "il"], ["ĠCivil", "is"], ["ĠBCE", "."], ["Ġ1", "2"], ["Ġ12", "00"], ["Ġarc", "ha"], ["Ġarcha", "ic"], ["Ġlanguag", "e,"], ["Ġdiff", "used"], ["Ġnorth", "west"], ["Ġnorthwest", "."], ["n", "s"], ["Ġre", "c"], ["Ġrec", "ord"], ["Ġrecord", "ed"], ["Ġear", "ly"], ["ning", "s"], ["Ġp", "re"], ["e", "x"], ["ist", "ing"], ["Ġsup", "pl"], ["Ġsuppl", "anted"], ["Ġregion", "s."], ["Ġc", "ast"], ["ĠJain", "ism"], ["Ġar", "is"], ["Ġaris", "en"], ["Ġhere", "d"], ["ĠE", "ar"], ["ĠEar", "ly"], ["Ġcons", "ol"], ["Ġconsol", "id"], ["ation", "s"], ["av", "e"], ["k", "n"], ["kn", "it"], ["ĠGupt", "a"], ["Ġ", "er"], ["Ġthe", "re"], ["Ġfl", "our"], ["Ġflour", "ish"], ["Ġcreat", "iv"], ["Ġcreativ", "ity"], ["Ġarchitect", "ure,"], ["Ġw", "rit"], ["Ġst", "at"], ["Ġw", "om"], ["Ġwom", "en"], ["Ġd", "ec"], ["Ġdec", "lin"], ["el", "i"], ["ĠM", "id"], ["ĠMid", "dle"], ["Ġkingdom", "s"], ["or", "ted"], ["Ġculture", "s"], ["ĠIsl", "am"], ["ĠCh", "r"], ["ity", ","], ["Ġsou", "thern"], ["ĠM", "us"], ["ĠMus", "l"], ["ĠMusl", "im"], ["ĠC", "ent"], ["r", "al"], ["er", "m"], ["ent", "ly"], ["h", "i"], ["ult", "an"], ["etw", "or"], ["etwor", "ks"], ["ed", "i"], ["an", "ag"], ["Ġcreat", "ed"], ["it", "e"], ["ĠP", "un"], ["ĠPun", "j"], ["ĠPunj", "ab"], ["i", "k"], ["st", "it"], ["stit", "ution"], ["ĠM", "u"], ["ĠMu", "gh"], ["ĠMugh", "al"], ["Ġcentur", "ies"], ["Ġeconom", "ic"], ["ur", "al"], ["Ġexp", "and"], ["Ġexpand", "ing"], ["omp", "an"], ["at", "ed"], ["n", "t"], ["Ġbeg", "an"], ["Ġr", "ights"], ["Ġp", "rom"], ["l", "ow"], ["Ġt", "ec"], ["Ġtec", "h"], ["Ġtech", "n"], ["Ġtechn", "olog"], ["r", "oduc"], ["id", "e"], ["Ġp", "ublic"], ["Ġto", "ok"], ["Ġn", "ation"], ["Ġnation", "al"], ["Ġnational", "ist"], ["Ġf", "ir"], ["Ġfir", "st"], ["Ġin", "f"], ["Ġa", "f"], ["Ġaf", "ter"], ["Ġf", "ac"], ["Ġpart", "ition"], ["m", "ajor"], ["major", "ity"], ["Ġl", "arg"], ["Ġlarg", "e"], ["s", "c"], ["Ġl", "oss"], ["Ġm", "ig"], ["r", "ation"], ["Ġb", "een"], ["Ġ19", "5"], ["Ġth", "r"], ["Ġthr", "ough"], ["Ġm", "ult"], ["Ġg", "rew"], ["2", "3"], ["Ġincreas", "ed"], ["ĠU", "S"], ["Ġ", "7"], ["Ġh", "ub"], ["Ġp", "o"], ["Ġth", "ough"], ["Ġin", "eq"], ["Ġineq", "ual"], ["it", "ary"], ["h", "m"], ["ion", ","], ["o", "ts"], ["Ġw", "ild"], ["Ġtr", "ad"], ["ew", "ed"], ["ec", "ted"], ["t", "ym"], ["ĠE", "n"], ["ĠEn", "g"], ["ĠEng", "lish"], ["Ġ", "\""], ["Ġim", "m"], ["ĠC", "lassical"], ["in", "ed"], ["Ġhistor", "ical"], ["h", "ing"], ["Ġ", "F"], ["ĠGree", "k"], ["Ġ(", "á"], ["Ġ(á", "¼"], ["Ġ(á¼", "¸"], ["Ġ(á¼¸", "Î"], ["Ġ(á¼¸Î", "½"], ["Ġ(á¼¸Î½", "Î"], ["Ġ(á¼¸Î½Î", "´"], [")", ";"], ["ĠA", "cha"], ["ĠAcha", "em"], ["ĠAchaem", "en"], ["ĠP", "ers"], ["ĠPers", "ian"], ["Ġeast", "ern"], ["d", "h"], ["Ġref", "er"], ["ian", "s"], ["hÄģ", "rat"], ["Ë", "Ī"], ["a", "Ë"], ["aË", "Ĳ"], ["Ġb", "oth"], ["Ġe", "pic"], ["nd", "er"], ["1", "9"], ["ĠHindu", "st"], ["ĠHindust", "an"], ["Ġcentury", ","], ["ĠEmpire", "."], ["Ġ", "en"], ["Ġ==", "="], ["oc", "h"], ["Ġd", "at"], ["Ġear", "l"], ["Ġearl", "i"], ["Ġearli", "est"], ["ag", "es"], ["Ġs", "econ"], ["Ġsecon", "d"], ["ow", "ev"], ["owev", "er"], ["owever", ","], ["Ġa", "b"], ["ou", "t"], ["id", "ence"], ["Ġp", "eri"], ["Ġperi", "od"], ["Ġpl", "an"], ["Ġ(", "in"], ["Ġ(in", "c"], ["Ġ(inc", "luding"], ["Ġanimal", "s"], ["Ġd", "uring"], ["5", "00"], ["âĢ", "ĵ"], ["Ġar", "ound"], ["j", "o"], ["av", "ir"], ["Ġch", "ar"], ["Ġchar", "ac"], ["Ġcharac", "ter"], ["Ġcharacter", "istic"], ["e", "at"], ["ure", "s"], ["Ġst", "and"], ["Ġstand", "ar"], ["Ġstandar", "d"], ["Ġstandard", "ised"], ["e", "al"], ["r", "a"], ["es", ","], ["Ġne", "w"], ["r", "o"], ["Ġto", "day"], ["Ġf", "ound"], ["âĢ", "Ķ"], ["Ġas", "s"], ["Ġwh", "at"],
[...]
